<pad>	0
<unk>	0
<s>	0
</s>	0
▁t	-0
in	-1
▁a	-2
he	-3
re	-4
on	-5
▁the	-6
er	-7
at	-8
en	-9
▁s	-10
▁c	-11
▁o	-12
it	-13
an	-14
es	-15
is	-16
▁w	-17
al	-18
▁p	-19
or	-20
▁b	-21
▁in	-22
ed	-23
▁f	-24
nd	-25
ing	-26
▁to	-27
ic	-28
ar	-29
▁of	-30
▁m	-31
ion	-32
ro	-33
▁d	-34
▁and	-35
ou	-36
▁th	-37
ent	-38
le	-39
▁e	-40
st	-41
▁h	-42
▁re	-43
om	-44
▁n	-45
il	-46
as	-47
ly	-48
ve	-49
▁l	-50
▁be	-51
▁g	-52
ct	-53
ut	-54
▁is	-55
▁T	-56
ol	-57
▁that	-58
ation	-59
im	-60
ce	-61
▁I	-62
se	-63
ot	-64
ra	-65
ver	-66
▁A	-67
▁de	-68
ur	-69
id	-70
▁for	-71
ment	-72
ld	-73
ig	-74
ow	-75
▁it	-76
et	-77
▁on	-78
▁st	-79
ies	-80
ad	-81
ch	-82
nt	-83
▁u	-84
▁pro	-85
ir	-86
▁con	-87
ul	-88
ill	-89
ate	-90
▁C	-91
▁S	-92
▁B	-93
▁as	-94
▁The	-95
▁–	-96
ore	-97
ers	-98
ith	-99
▁wh	-100
est	-101
▁E	-102
pe	-103
ity	-104
▁al	-105
▁r	-106
▁su	-107
▁cou	-108
her	-109
ist	-110
▁with	-111
ge	-112
ay	-113
▁ex	-114
▁are	-115
ort	-116
▁an	-117
lo	-118
us	-119
ess	-120
▁ne	-121
ab	-122
am	-123
ial	-124
con	-125
▁U	-126
ive	-127
▁not	-128
ain	-129
ter	-130
res	-131
▁ha	-132
if	-133
th	-134
▁we	-135
iv	-136
▁com	-137
ke	-138
▁M	-139
▁by	-140
em	-141
▁has	-142
▁have	-143
ould	-144
▁P	-145
▁se	-146
pp	-147
ac	-148
▁W	-149
conom	-150
▁le	-151
and	-152
▁pol	-153
qu	-154
▁sh	-155
▁will	-156
oc	-157
▁wor	-158
▁v	-159
▁count	-160
▁econom	-161
over	-162
igh	-163
ia	-164
ust	-165
rom	-166
▁G	-167
▁en	-168
um	-169
ap	-170
▁F	-171
ical	-172
▁or	-173
op	-174
ost	-175
ant	-176
os	-177
▁at	-178
uro	-179
▁countr	-180
▁from	-181
▁im	-182
ions	-183
▁he	-184
od	-185
iz	-186
▁its	-187
art	-188
▁their	-189
▁y	-190
▁more	-191
▁“	-192
▁Ch	-193
▁ch	-194
el	-195
ast	-196
ome	-197
ong	-198
un	-199
ib	-200
ure	-201
▁R	-202
ans	-203
▁inc	-204
▁int	-205
▁N	-206
▁un	-207
ther	-208
▁res	-209
ak	-210
ff	-211
red	-212
▁2	-213
▁But	-214
▁would	-215
ich	-216
▁was	-217
▁imp	-218
▁Euro	-219
▁In	-220
mer	-221
ect	-222
end	-223
▁Europe	-224
ary	-225
overn	-226
ru	-227
ear	-228
gh	-229
▁Chin	-230
▁can	-231
pt	-232
▁this	-233
all	-234
▁ab	-235
▁ag	-236
ight	-237
ance	-238
row	-239
▁US	-240
▁1	-241
▁ad	-242
anc	-243
▁they	-244
ous	-245
▁govern	-246
ud	-247
▁O	-248
▁than	-249
▁cont	-250
▁all	-251
▁which	-252
out	-253
du	-254
ational	-255
rou	-256
able	-257
▁countries	-258
cc	-259
ard	-260
ip	-261
ates	-262
ations	-263
▁20	-264
▁Th	-265
ated	-266
▁D	-267
ign	-268
▁comp	-269
▁fin	-270
ere	-271
▁government	-272
▁H	-273
▁pr	-274
ie	-275
▁(	-276
▁whe	-277
ult	-278
any	-279
ark	-280
▁China	-281
lic	-282
▁world	-283
▁but	-284
▁fa	-285
ide	-286
▁rec	-287
▁year	-288
ks	-289
▁j	-290
ree	-291
▁do	-292
▁polit	-293
ven	-294
ike	-295
ress	-296
▁exp	-297
▁part	-298
ence	-299
bal	-300
orm	-301
▁dis	-302
▁grow	-303
one	-304
reat	-305
▁tr	-306
ag	-307
▁reg	-308
▁J	-309
▁polic	-310
▁economic	-311
▁L	-312
ian	-313
ime	-314
ub	-315
▁been	-316
▁bec	-317
▁other	-318
▁so	-319
▁pe	-320
▁pl	-321
▁out	-322
lobal	-323
ep	-324
▁K	-325
ction	-326
▁new	-327
ine	-328
og	-329
▁inv	-330
age	-331
▁dec	-332
erm	-333
▁cr	-334
ile	-335
ll	-336
ors	-337
▁over	-338
▁who	-339
▁me	-340
▁global	-341
▁inter	-342
▁one	-343
▁dem	-344
▁Un	-345
▁As	-346
ally	-347
ens	-348
are	-349
ition	-350
meric	-351
▁lead	-352
so	-353
ower	-354
rad	-355
arket	-356
▁und	-357
form	-358
ern	-359
▁Americ	-360
lop	-361
ue	-362
velop	-363
▁ind	-364
▁should	-365
▁political	-366
▁only	-367
▁also	-368
ack	-369
▁eff	-370
ren	-371
▁need	-372
au	-373
ident	-374
▁his	-375
▁growth	-376
ire	-377
ake	-378
▁ris	-379
our	-380
ility	-381
ose	-382
cy	-383
▁like	-384
▁no	-385
▁financ	-386
▁comm	-387
reas	-388
▁about	-389
▁pre	-390
ities	-391
▁could	-392
ism	-393
▁Ind	-394
▁cons	-395
ople	-396
▁most	-397
▁It	-398
fic	-399
▁bet	-400
▁per	-401
▁there	-402
▁market	-403
▁19	-404
▁such	-405
ited	-406
▁sp	-407
▁supp	-408
ublic	-409
▁develop	-410
▁now	-411
▁ban	-412
▁long	-413
▁str	-414
▁go	-415
uch	-416
▁invest	-417
ious	-418
ord	-419
▁people	-420
ish	-421
oll	-422
▁ar	-423
ange	-424
ments	-425
ative	-426
▁acc	-427
▁were	-428
▁qu	-429
▁rel	-430
▁even	-431
▁cl	-432
▁them	-433
▁country	-434
ution	-435
▁years	-436
▁policy	-437
▁financial	-438
ew	-439
old	-440
ble	-441
▁if	-442
▁some	-443
▁St	-444
▁k	-445
lect	-446
uc	-447
▁up	-448
ces	-449
▁under	-450
▁many	-451
▁em	-452
▁rem	-453
▁European	-454
▁increas	-455
▁cap	-456
ber	-457
00	-458
ough	-459
amp	-460
▁inf	-461
bt	-462
ric	-463
ach	-464
ause	-465
int	-466
und	-467
uss	-468
▁This	-469
ons	-470
▁cur	-471
▁sy	-472
ame	-473
▁when	-474
ace	-475
▁app	-476
▁Is	-477
ang	-478
▁work	-479
lear	-480
av	-481
per	-482
ice	-483
eral	-484
▁economy	-485
▁power	-486
very	-487
ass	-488
gy	-489
▁must	-490
illion	-491
▁tw	-492
▁these	-493
vent	-494
pect	-495
act	-496
▁lar	-497
▁into	-498
▁ro	-499
▁may	-500
we	-501
own	-502
▁soc	-503
▁what	-504
cess	-505
stem	-506
resident	-507
▁trad	-508
▁And	-509
▁cris	-510
▁fir	-511
▁produ	-512
erest	-513
ory	-514
▁intern	-515
erv	-516
▁am	-517
▁Af	-518
▁time	-519
rough	-520
stit	-521
▁much	-522
ating	-523
▁po	-524
▁how	-525
ices	-526
▁had	-527
▁rep	-528
ms	-529
lud	-530
▁us	-531
ise	-532
ital	-533
▁att	-534
▁sc	-535
▁public	-536
ced	-537
ful	-538
▁system	-539
▁dif	-540
ount	-541
▁mon	-542
▁ra	-543
▁cent	-544
its	-545
▁any	-546
ind	-547
▁act	-548
▁again	-549
ual	-550
ax	-551
▁pos	-552
▁200	-553
▁interest	-554
▁Russ	-555
alth	-556
king	-557
ible	-558
▁conf	-559
urn	-560
▁te	-561
ond	-562
▁prov	-563
ert	-564
ild	-565
▁crisis	-566
▁leaders	-567
▁201	-568
▁EU	-569
ists	-570
ite	-571
.”	-572
ular	-573
▁ow	-574
hed	-575
ific	-576
▁gen	-577
get	-578
▁co	-579
▁international	-580
ov	-581
ied	-582
▁United	-583
▁just	-584
▁real	-585
iet	-586
▁high	-587
▁war	-588
ization	-589
▁well	-590
▁ac	-591
ade	-592
ob	-593
▁two	-594
▁trans	-595
▁support	-596
▁recent	-597
hip	-598
vers	-599
▁proble	-600
oth	-601
▁import	-602
▁because	-603
olog	-604
▁ref	-605
▁Y	-606
ient	-607
eed	-608
ase	-609
▁way	-610
ran	-611
hen	-612
inist	-613
ral	-614
ween	-615
itt	-616
▁fore	-617
ruct	-618
▁opp	-619
ics	-620
iss	-621
▁debt	-622
cur	-623
iven	-624
▁those	-625
▁between	-626
ef	-627
ject	-628
ives	-629
ese	-630
ove	-631
▁man	-632
▁far	-633
ict	-634
▁America	-635
▁def	-636
▁right	-637
ilit	-638
▁des	-639
rent	-640
low	-641
▁remain	-642
imate	-643
▁less	-644
▁includ	-645
ound	-646
▁end	-647
sel	-648
aw	-649
apan	-650
▁Germ	-651
pec	-652
ize	-653
▁contin	-654
▁effect	-655
ward	-656
▁For	-657
▁Wh	-658
▁fact	-659
loy	-660
▁too	-661
round	-662
▁Japan	-663
uring	-664
ail	-665
ues	-666
aj	-667
▁while	-668
ploy	-669
▁tax	-670
▁state	-671
atic	-672
▁prog	-673
read	-674
ings	-675
vel	-676
▁our	-677
ry	-678
ince	-679
▁ent	-680
▁mod	-681
▁ass	-682
▁af	-683
ption	-684
rit	-685
▁first	-686
ural	-687
▁pop	-688
▁national	-689
▁sur	-690
▁large	-691
▁result	-692
▁mem	-693
▁hel	-694
▁democ	-695
term	-696
▁region	-697
▁off	-698
▁resp	-699
▁own	-700
ration	-701
ures	-702
▁sub	-703
▁ob	-704
▁On	-705
led	-706
▁sim	-707
▁reform	-708
▁help	-709
▁against	-710
ability	-711
ajor	-712
▁add	-713
▁seem	-714
▁requ	-715
▁adv	-716
▁both	-717
fere	-718
ized	-719
▁kn	-720
ially	-721
▁cost	-722
▁Se	-723
curity	-724
ri	-725
▁infl	-726
▁examp	-727
▁capital	-728
▁euro	-729
▁redu	-730
▁current	-731
▁ext	-732
aking	-733
▁Russia	-734
▁after	-735
▁major	-736
chn	-737
▁last	-738
▁conc	-739
▁partic	-740
ians	-741
rib	-742
▁fund	-743
▁change	-744
▁sign	-745
ood	-746
cal	-747
▁great	-748
les	-749
▁milit	-750
▁ke	-751
rael	-752
allen	-753
orts	-754
utions	-755
ex	-756
▁bo	-757
▁trade	-758
oun	-759
▁prot	-760
▁dep	-761
ays	-762
▁ben	-763
▁good	-764
▁make	-765
▁Iran	-766
▁investment	-767
gan	-768
ically	-769
▁example	-770
▁If	-771
▁banks	-772
▁appro	-773
▁become	-774
▁cre	-775
▁$	-776
▁markets	-777
day	-778
ram	-779
▁Israel	-780
ty	-781
▁through	-782
▁hum	-783
▁instit	-784
ense	-785
ts	-786
ging	-787
▁important	-788
ump	-789
ather	-790
▁cor	-791
ending	-792
▁demand	-793
▁governments	-794
▁fail	-795
▁social	-796
▁ret	-797
▁aut	-798
▁lo	-799
▁est	-800
▁techn	-801
▁bu	-802
▁where	-803
gest	-804
other	-805
ting	-806
▁rest	-807
▁President	-808
▁does	-809
▁foreign	-810
▁rates	-811
▁West	-812
▁States	-813
ank	-814
▁leg	-815
ract	-816
▁emer	-817
uclear	-818
ortun	-819
ath	-820
▁iss	-821
▁sa	-822
▁fut	-823
olution	-824
▁main	-825
▁policies	-826
▁Indeed	-827
▁every	-828
ok	-829
▁health	-830
▁challen	-831
ulation	-832
▁prom	-833
als	-834
ergy	-835
▁today	-836
iness	-837
ater	-838
▁risk	-839
▁More	-840
▁back	-841
▁military	-842
less	-843
▁Tr	-844
▁offic	-845
ft	-846
▁ins	-847
ined	-848
ision	-849
▁differe	-850
arly	-851
ential	-852
▁still	-853
▁bas	-854
▁cour	-855
ccess	-856
▁future	-857
,”	-858
▁That	-859
▁economies	-860
ually	-861
▁same	-862
DP	-863
▁Chinese	-864
ron	-865
▁ord	-866
▁India	-867
ily	-868
▁development	-869
ning	-870
▁cred	-871
eg	-872
▁dom	-873
▁being	-874
eration	-875
▁neg	-876
▁benef	-877
etary	-878
▁rate	-879
fore	-880
▁strong	-881
hing	-882
▁elect	-883
▁since	-884
▁sm	-885
▁Germany	-886
iscal	-887
ness	-888
▁set	-889
▁tra	-890
▁nuclear	-891
▁American	-892
iew	-893
ingly	-894
▁Afric	-895
▁human	-896
▁including	-897
▁br	-898
▁level	-899
▁el	-900
▁use	-901
▁V	-902
▁val	-903
ior	-904
omm	-905
▁disc	-906
▁strate	-907
▁agree	-908
▁bel	-909
▁commun	-910
ants	-911
ably	-912
idd	-913
▁might	-914
▁low	-915
bers	-916
imes	-917
▁ter	-918
outh	-919
ployment	-920
ared	-921
pr	-922
▁success	-923
▁see	-924
ready	-925
).	-926
▁likely	-927
pl	-928
▁pur	-929
▁billion	-930
▁priv	-931
inc	-932
ell	-933
not	-934
ten	-935
orth	-936
▁did	-937
▁term	-938
▁problem	-939
▁serv	-940
▁ed	-941
),	-942
▁East	-943
ever	-944
▁equ	-945
▁call	-946
ved	-947
ality	-948
▁op	-949
▁clear	-950
ieve	-951
▁energy	-952
usiness	-953
cept	-954
▁prices	-955
ged	-956
▁vot	-957
▁fiscal	-958
▁short	-959
▁take	-960
▁3	-961
▁better	-962
▁reas	-963
ctor	-964
rab	-965
▁without	-966
▁security	-967
lam	-968
▁threat	-969
▁compet	-970
▁already	-971
▁pers	-972
▁central	-973
▁hist	-974
oss	-975
▁es	-976
▁contro	-977
▁ide	-978
▁technolog	-979
cond	-980
ving	-981
▁point	-982
▁ser	-983
▁made	-984
ency	-985
ertain	-986
▁poss	-987
ider	-988
zone	-989
▁know	-990
rem	-991
ges	-992
▁quest	-993
▁GDP	-994
abor	-995
ered	-996
arch	-997
▁product	-998
▁particular	-999
hor	-1000
▁ann	-1001
istan	-1002
ama	-1003
▁decl	-1004
▁stand	-1005
▁Brit	-1006
▁consum	-1007
ss	-1008
racy	-1009
ger	-1010
iddle	-1011
▁Kore	-1012
ush	-1013
▁hig	-1014
▁down	-1015
abl	-1016
rast	-1017
ars	-1018
▁business	-1019
ollow	-1020
▁Trump	-1021
tern	-1022
▁We	-1023
ents	-1024
▁dire	-1025
▁med	-1026
0%	-1027
li	-1028
▁cannot	-1029
▁Ob	-1030
▁then	-1031
ury	-1032
▁arg	-1033
ck	-1034
▁states	-1035
▁prop	-1036
▁rev	-1037
mental	-1038
xt	-1039
▁Int	-1040
▁indust	-1041
▁aff	-1042
roup	-1043
▁So	-1044
▁Wor	-1045
▁Gree	-1046
▁educ	-1047
▁ap	-1048
▁protect	-1049
▁imm	-1050
▁Bank	-1051
▁often	-1052
▁dist	-1053
ink	-1054
▁job	-1055
here	-1056
ivers	-1057
▁They	-1058
▁There	-1059
ratic	-1060
▁president	-1061
▁To	-1062
osed	-1063
▁pres	-1064
ines	-1065
iron	-1066
▁ev	-1067
▁expect	-1068
▁very	-1069
▁Fr	-1070
▁among	-1071
▁start	-1072
▁another	-1073
▁turn	-1074
▁order	-1075
ouse	-1076
▁With	-1077
▁hard	-1078
▁At	-1079
▁course	-1080
▁Sy	-1081
▁oil	-1082
▁Asia	-1083
▁law	-1084
▁three	-1085
▁institutions	-1086
▁few	-1087
▁Arab	-1088
▁follow	-1089
▁process	-1090
▁fac	-1091
▁ele	-1092
por	-1093
▁bank	-1094
itions	-1095
self	-1096
▁private	-1097
ves	-1098
land	-1099
oney	-1100
▁move	-1101
aly	-1102
▁clo	-1103
▁199	-1104
iving	-1105
uel	-1106
inister	-1107
▁million	-1108
▁impro	-1109
ience	-1110
▁before	-1111
▁climate	-1112
▁Obama	-1113
▁toward	-1114
rug	-1115
ead	-1116
▁env	-1117
ah	-1118
up	-1119
▁pot	-1120
raq	-1121
hold	-1122
stand	-1123
▁allow	-1124
ued	-1125
ivid	-1126
ret	-1127
omen	-1128
▁ful	-1129
▁pay	-1130
aps	-1131
uge	-1132
▁Union	-1133
▁av	-1134
aken	-1135
▁Iraq	-1136
▁Al	-1137
▁members	-1138
▁monetary	-1139
▁view	-1140
▁child	-1141
▁eas	-1142
▁rul	-1143
▁increase	-1144
▁ach	-1145
▁eurozone	-1146
▁Moreover	-1147
▁Islam	-1148
▁Re	-1149
▁least	-1150
ades	-1151
most	-1152
▁adm	-1153
▁lif	-1154
▁role	-1155
▁rather	-1156
ying	-1157
stain	-1158
ages	-1159
ources	-1160
▁An	-1161
▁form	-1162
▁ine	-1163
anies	-1164
▁peace	-1165
ately	-1166
cing	-1167
▁mat	-1168
▁prof	-1169
▁group	-1170
ibility	-1171
▁approach	-1172
▁De	-1173
▁money	-1174
ructure	-1175
lement	-1176
▁around	-1177
▁sustain	-1178
▁lim	-1179
itiz	-1180
▁num	-1181
ph	-1182
ute	-1183
▁put	-1184
ittle	-1185
ross	-1186
▁account	-1187
road	-1188
▁societ	-1189
▁author	-1190
▁though	-1191
▁ant	-1192
ances	-1193
io	-1194
▁defic	-1195
ror	-1196
▁press	-1197
▁past	-1198
urther	-1199
▁World	-1200
▁beh	-1201
▁play	-1202
▁ens	-1203
▁income	-1204
▁vi	-1205
▁South	-1206
▁higher	-1207
▁curren	-1208
▁inst	-1209
▁effective	-1210
▁Syr	-1211
▁inflation	-1212
ick	-1213
ficult	-1214
▁car	-1215
▁meas	-1216
▁opportun	-1217
gin	-1218
▁difficult	-1219
▁companies	-1220
oti	-1221
▁small	-1222
▁little	-1223
▁whether	-1224
▁official	-1225
ides	-1226
▁par	-1227
▁month	-1228
▁needs	-1229
▁asse	-1230
▁open	-1231
▁gener	-1232
▁problems	-1233
ining	-1234
▁different	-1235
▁signific	-1236
ering	-1237
▁next	-1238
pecially	-1239
▁labor	-1240
▁citiz	-1241
▁loc	-1242
▁credit	-1243
▁establ	-1244
aim	-1245
▁Tur	-1246
▁control	-1247
▁fe	-1248
▁relations	-1249
ivil	-1250
▁concern	-1251
▁spec	-1252
akes	-1253
ished	-1254
▁environ	-1255
▁5	-1256
▁case	-1257
▁developing	-1258
vere	-1259
▁free	-1260
▁Intern	-1261
▁conflic	-1262
▁gu	-1263
▁He	-1264
alest	-1265
ocus	-1266
air	-1267
estic	-1268
▁Africa	-1269
ash	-1270
▁ph	-1271
▁chang	-1272
ix	-1273
▁simp	-1274
▁needed	-1275
▁reason	-1276
▁Comm	-1277
▁ca	-1278
▁spending	-1279
imin	-1280
▁rise	-1281
idence	-1282
▁get	-1283
ted	-1284
▁sol	-1285
ivity	-1286
reed	-1287
▁cond	-1288
acy	-1289
▁exper	-1290
▁remains	-1291
▁especially	-1292
▁appe	-1293
change	-1294
▁plan	-1295
▁run	-1296
ner	-1297
▁doll	-1298
ogn	-1299
▁fall	-1300
▁focus	-1301
▁Fed	-1302
▁non	-1303
▁crit	-1304
▁negoti	-1305
▁address	-1306
▁Rep	-1307
ases	-1308
▁share	-1309
▁France	-1310
▁democracy	-1311
▁significant	-1312
▁longer	-1313
▁cut	-1314
▁When	-1315
▁why	-1316
▁civil	-1317
▁tar	-1318
▁domestic	-1319
sequ	-1320
▁come	-1321
▁Korea	-1322
▁rese	-1323
▁respons	-1324
▁return	-1325
▁poor	-1326
itional	-1327
▁pros	-1328
▁education	-1329
▁deep	-1330
▁citizens	-1331
▁happ	-1332
▁show	-1333
▁want	-1334
▁reforms	-1335
▁emerging	-1336
ird	-1337
vention	-1338
for	-1339
epend	-1340
itive	-1341
▁costs	-1342
▁him	-1343
▁suff	-1344
▁during	-1345
▁col	-1346
▁further	-1347
omet	-1348
▁big	-1349
▁question	-1350
▁decades	-1351
urd	-1352
▁nat	-1353
ators	-1354
▁mass	-1355
▁women	-1356
▁viol	-1357
▁means	-1358
▁efforts	-1359
▁Palest	-1360
▁almost	-1361
▁key	-1362
ork	-1363
▁eng	-1364
▁given	-1365
▁bal	-1366
▁however	-1367
pite	-1368
anced	-1369
az	-1370
▁North	-1371
▁4	-1372
▁ago	-1373
▁requi	-1374
▁find	-1375
ission	-1376
▁continue	-1377
▁others	-1378
▁pat	-1379
▁progress	-1380
ling	-1381
▁hand	-1382
▁serious	-1383
▁hal	-1384
▁inn	-1385
▁Sh	-1386
▁gain	-1387
▁sector	-1388
▁her	-1389
▁seems	-1390
000	-1391
▁organ	-1392
omes	-1393
▁build	-1394
izing	-1395
vious	-1396
▁second	-1397
pid	-1398
cies	-1399
▁const	-1400
way	-1401
▁best	-1402
▁claim	-1403
▁dr	-1404
▁say	-1405
ave	-1406
▁meet	-1407
▁price	-1408
ither	-1409
ope	-1410
formation	-1411
▁occ	-1412
▁camp	-1413
▁growing	-1414
▁election	-1415
▁hold	-1416
▁stud	-1417
▁lib	-1418
▁within	-1419
rop	-1420
▁er	-1421
▁recogn	-1422
arm	-1423
ession	-1424
,000	-1425
▁you	-1426
lf	-1427
▁fam	-1428
▁model	-1429
▁potential	-1430
the	-1431
▁benefits	-1432
▁agreement	-1433
▁One	-1434
▁yet	-1435
▁terror	-1436
▁direct	-1437
▁increasingly	-1438
▁coll	-1439
ising	-1440
▁found	-1441
▁provide	-1442
▁my	-1443
udget	-1444
cent	-1445
▁population	-1446
▁enough	-1447
ided	-1448
▁care	-1449
▁require	-1450
hes	-1451
nce	-1452
arn	-1453
▁treat	-1454
▁project	-1455
▁understand	-1456
be	-1457
▁currency	-1458
key	-1459
tain	-1460
▁War	-1461
▁Yet	-1462
▁itself	-1463
ock	-1464
▁tru	-1465
▁post	-1466
▁Middle	-1467
ai	-1468
▁cho	-1469
selves	-1470
▁lower	-1471
▁Part	-1472
▁event	-1473
▁particularly	-1474
▁greater	-1475
▁caus	-1476
▁While	-1477
▁comple	-1478
▁administ	-1479
▁terms	-1480
▁sug	-1481
▁slow	-1482
wh	-1483
lus	-1484
▁Greece	-1485
▁prevent	-1486
ool	-1487
▁regional	-1488
▁resources	-1489
lim	-1490
▁workers	-1491
ences	-1492
▁After	-1493
reng	-1494
▁she	-1495
ression	-1496
▁regime	-1497
▁interests	-1498
▁rights	-1499
iqu	-1500
▁life	-1501
▁regul	-1502
ention	-1503
ale	-1504
▁used	-1505
▁consider	-1506
▁recently	-1507
te	-1508
sp	-1509
empt	-1510
rate	-1511
ised	-1512
ipl	-1513
▁By	-1514
▁thus	-1515
▁target	-1516
ik	-1517
▁streng	-1518
▁mult	-1519
icient	-1520
ividual	-1521
▁budget	-1522
▁integ	-1523
ON	-1524
▁force	-1525
▁common	-1526
▁Turkey	-1527
▁Pr	-1528
▁deal	-1529
▁each	-1530
▁left	-1531
▁services	-1532
ug	-1533
rench	-1534
▁Republic	-1535
▁innov	-1536
ief	-1537
haps	-1538
▁never	-1539
▁place	-1540
▁impact	-1541
▁enc	-1542
▁certain	-1543
man	-1544
like	-1545
▁init	-1546
▁suggest	-1547
▁face	-1548
▁influ	-1549
▁former	-1550
▁number	-1551
yn	-1552
verage	-1553
▁reduce	-1554
ived	-1555
▁dest	-1556
▁oppos	-1557
▁gr	-1558
come	-1559
▁tal	-1560
rastructure	-1561
▁These	-1562
5%	-1563
▁ur	-1564
ners	-1565
▁contrib	-1566
▁relative	-1567
▁Pol	-1568
▁weak	-1569
▁access	-1570
cil	-1571
▁rapid	-1572
▁reflect	-1573
▁individual	-1574
▁children	-1575
0’	-1576
▁unem	-1577
▁Con	-1578
▁deb	-1579
▁min	-1580
ening	-1581
▁shif	-1582
ateral	-1583
▁Le	-1584
▁What	-1585
ording	-1586
▁ren	-1587
▁oper	-1588
ination	-1589
▁politics	-1590
oming	-1591
omp	-1592
▁char	-1593
▁accept	-1594
▁history	-1595
▁Palestin	-1596
▁conflict	-1597
where	-1598
▁broad	-1599
▁simil	-1600
▁local	-1601
▁bl	-1602
ened	-1603
▁begin	-1604
▁possible	-1605
ec	-1606
ield	-1607
▁New	-1608
▁6	-1609
ier	-1610
▁report	-1611
▁unt	-1612
ban	-1613
▁Western	-1614
oura	-1615
▁pred	-1616
iod	-1617
▁strateg	-1618
▁stability	-1619
aged	-1620
▁dang	-1621
▁industr	-1622
ends	-1623
▁Syria	-1624
▁spe	-1625
▁sec	-1626
▁value	-1627
▁fear	-1628
akistan	-1629
▁exchange	-1630
aign	-1631
ceed	-1632
akers	-1633
▁head	-1634
▁themselves	-1635
kra	-1636
▁society	-1637
▁necess	-1638
▁risks	-1639
▁somet	-1640
utin	-1641
ises	-1642
▁once	-1643
atives	-1644
oid	-1645
▁forces	-1646
▁create	-1647
ased	-1648
ified	-1649
▁home	-1650
▁fl	-1651
▁ru	-1652
▁challenges	-1653
▁independ	-1654
▁Ukra	-1655
ront	-1656
▁funda	-1657
▁campaign	-1658
▁half	-1659
▁consequ	-1660
▁extrem	-1661
▁mean	-1662
▁infrastructure	-1663
▁UN	-1664
▁coop	-1665
▁implement	-1666
▁che	-1667
▁sav	-1668
▁ever	-1669
▁Ar	-1670
-2	-1671
▁lack	-1672
▁strategy	-1673
▁sense	-1674
▁issues	-1675
▁Pakistan	-1676
lation	-1677
ways	-1678
▁cult	-1679
▁member	-1680
ards	-1681
gypt	-1682
▁jobs	-1683
▁Even	-1684
▁led	-1685
▁investors	-1686
▁French	-1687
▁bor	-1688
▁Cent	-1689
iation	-1690
▁action	-1691
▁2008	-1692
▁repres	-1693
▁step	-1694
▁bond	-1695
▁la	-1696
▁Egypt	-1697
onal	-1698
▁Minister	-1699
ata	-1700
▁sch	-1701
▁house	-1702
▁ensure	-1703
▁struct	-1704
▁saf	-1705
uslim	-1706
overty	-1707
▁program	-1708
ats	-1709
abil	-1710
arian	-1711
istic	-1712
0.	-1713
▁dou	-1714
▁community	-1715
▁democratic	-1716
erve	-1717
▁levels	-1718
ilateral	-1719
▁wealth	-1720
▁dev	-1721
▁research	-1722
▁commit	-1723
▁politic	-1724
▁Fin	-1725
gether	-1726
▁together	-1727
▁leadership	-1728
▁administration	-1729
▁able	-1730
▁believe	-1731
▁disp	-1732
▁bring	-1733
ys	-1734
▁emb	-1735
▁early	-1736
▁fight	-1737
▁improve	-1738
▁maintain	-1739
oral	-1740
▁net	-1741
conomic	-1742
side	-1743
▁old	-1744
▁expl	-1745
▁keep	-1746
▁rising	-1747
▁achieve	-1748
▁land	-1749
▁challenge	-1750
▁unemployment	-1751
▁exist	-1752
▁wr	-1753
▁198	-1754
acc	-1755
▁finance	-1756
ins	-1757
▁modern	-1758
▁bre	-1759
▁rules	-1760
▁Bush	-1761
yond	-1762
▁met	-1763
▁gra	-1764
emoc	-1765
▁times	-1766
irst	-1767
▁vict	-1768
▁Putin	-1769
ium	-1770
dom	-1771
▁comb	-1772
▁popul	-1773
▁purs	-1774
▁decision	-1775
▁period	-1776
▁Muslim	-1777
▁British	-1778
to	-1779
▁dollar	-1780
▁poverty	-1781
▁measures	-1782
▁making	-1783
▁simply	-1784
acks	-1785
▁youn	-1786
makers	-1787
▁issue	-1788
▁sit	-1789
▁close	-1790
▁five	-1791
raw	-1792
▁similar	-1793
▁increased	-1794
▁fuel	-1795
uation	-1796
▁century	-1797
MF	-1798
▁boost	-1799
oint	-1800
▁across	-1801
▁constit	-1802
rodu	-1803
▁stat	-1804
▁recover	-1805
▁four	-1806
▁hope	-1807
▁danger	-1808
▁blo	-1809
▁full	-1810
▁Of	-1811
ently	-1812
cial	-1813
isions	-1814
utional	-1815
▁rule	-1816
▁always	-1817
▁corpor	-1818
▁anti	-1819
RI	-1820
▁Some	-1821
▁food	-1822
▁top	-1823
▁weap	-1824
▁IMF	-1825
▁sl	-1826
▁establish	-1827
▁based	-1828
▁employment	-1829
▁International	-1830
though	-1831
▁decade	-1832
bon	-1833
▁data	-1834
▁loss	-1835
▁balance	-1836
ival	-1837
issions	-1838
iplom	-1839
incip	-1840
veral	-1841
▁ident	-1842
ler	-1843
▁7	-1844
▁unc	-1845
▁pract	-1846
▁encoura	-1847
▁self	-1848
▁$1	-1849
▁sing	-1850
▁liberal	-1851
just	-1852
▁systems	-1853
▁German	-1854
▁Britain	-1855
▁Russian	-1856
▁technology	-1857
then	-1858
ee	-1859
▁else	-1860
ively	-1861
▁bord	-1862
mm	-1863
ctions	-1864
▁information	-1865
▁parties	-1866
▁relig	-1867
▁Ukraine	-1868
ming	-1869
▁sure	-1870
▁true	-1871
▁Party	-1872
onse	-1873
▁aim	-1874
▁conditions	-1875
▁avoid	-1876
▁sovere	-1877
▁princip	-1878
aud	-1879
quality	-1880
aring	-1881
▁Or	-1882
▁Sp	-1883
wise	-1884
ended	-1885
arent	-1886
by	-1887
▁abs	-1888
▁manage	-1889
▁bar	-1890
▁opportunity	-1891
▁diplom	-1892
▁despite	-1893
▁position	-1894
▁invol	-1895
aster	-1896
▁advanced	-1897
lia	-1898
▁Central	-1899
▁party	-1900
rupt	-1901
▁regard	-1902
▁refuge	-1903
acity	-1904
▁firms	-1905
▁entire	-1906
▁dise	-1907
▁tre	-1908
illions	-1909
▁ty	-1910
▁response	-1911
oh	-1912
ource	-1913
▁Afgh	-1914
▁said	-1915
▁developed	-1916
▁school	-1917
▁Americans	-1918
▁done	-1919
▁amount	-1920
▁rece	-1921
▁histor	-1922
▁pressure	-1923
▁Q	-1924
▁dam	-1925
▁consumption	-1926
▁bad	-1927
▁tot	-1928
▁deficit	-1929
lt	-1930
uing	-1931
▁adop	-1932
▁strengthen	-1933
▁En	-1934
▁promot	-1935
▁sk	-1936
▁called	-1937
▁young	-1938
▁single	-1939
▁effort	-1940
▁groups	-1941
▁areas	-1942
▁All	-1943
▁Afghan	-1944
▁taken	-1945
▁assets	-1946
ighb	-1947
▁norm	-1948
rated	-1949
iveness	-1950
▁officials	-1951
▁Coun	-1952
▁vis	-1953
rag	-1954
▁mar	-1955
▁creat	-1956
▁effects	-1957
ented	-1958
▁leading	-1959
pped	-1960
▁until	-1961
▁production	-1962
▁whose	-1963
▁Council	-1964
▁requires	-1965
rams	-1966
▁politicians	-1967
▁var	-1968
▁consequences	-1969
reg	-1970
▁Res	-1971
irc	-1972
cl	-1973
▁Cl	-1974
iting	-1975
▁export	-1976
▁average	-1977
ean	-1978
ify	-1979
▁productivity	-1980
▁UK	-1981
▁supply	-1982
▁unlike	-1983
▁several	-1984
ched	-1985
▁Pro	-1986
▁kind	-1987
ned	-1988
mber	-1989
▁Many	-1990
raz	-1991
ured	-1992
▁Fund	-1993
▁Prime	-1994
▁think	-1995
ruption	-1996
▁Cong	-1997
CB	-1998
▁ess	-1999
▁ill	-2000
▁cause	-2001
▁months	-2002
▁weapons	-2003
▁assum	-2004
▁largest	-2005
0,	-2006
▁demon	-2007
▁initi	-2008
▁annual	-2009
▁household	-2010
liament	-2011
▁opposition	-2012
▁Par	-2013
▁failed	-2014
▁created	-2015
ored	-2016
▁coal	-2017
▁look	-2018
▁successful	-2019
▁drug	-2020
▁popular	-2021
▁day	-2022
▁Such	-2023
▁death	-2024
▁reach	-2025
▁largely	-2026
▁structural	-2027
▁cooperation	-2028
rec	-2029
▁water	-2030
▁respect	-2031
▁powerful	-2032
▁Bar	-2033
▁test	-2034
edi	-2035
▁working	-2036
▁changes	-2037
▁197	-2038
▁policymakers	-2039
uted	-2040
aging	-2041
wide	-2042
▁total	-2043
▁counter	-2044
▁influence	-2045
imul	-2046
oday	-2047
▁Islamic	-2048
ensive	-2049
▁class	-2050
▁borrow	-2051
▁excess	-2052
▁don	-2053
▁fav	-2054
rade	-2055
▁King	-2056
▁attempt	-2057
▁natural	-2058
▁ways	-2059
istance	-2060
▁neighb	-2061
▁voters	-2062
▁Democ	-2063
down	-2064
▁programs	-2065
▁emissions	-2066
inking	-2067
market	-2068
▁Ab	-2069
iding	-2070
thing	-2071
▁Today	-2072
▁leader	-2073
▁fundamental	-2074
ds	-2075
▁prob	-2076
▁beyond	-2077
▁Ge	-2078
▁alone	-2079
ya	-2080
▁Asian	-2081
▁particip	-2082
▁flow	-2083
▁Z	-2084
▁perform	-2085
mb	-2086
▁demonst	-2087
omb	-2088
▁agg	-2089
razil	-2090
ne	-2091
▁prec	-2092
▁scient	-2093
▁banking	-2094
▁gre	-2095
▁live	-2096
▁Given	-2097
▁object	-2098
▁capacity	-2099
▁massive	-2100
▁violence	-2101
▁necessary	-2102
igr	-2103
▁funds	-2104
▁debate	-2105
▁having	-2106
▁stimul	-2107
▁industry	-2108
▁kill	-2109
▁lives	-2110
ruction	-2111
iversity	-2112
arily	-2113
▁perhaps	-2114
▁8	-2115
▁transp	-2116
▁agend	-2117
▁behav	-2118
▁Nations	-2119
▁opt	-2120
ember	-2121
atory	-2122
▁Saud	-2123
▁pass	-2124
▁proper	-2125
▁environment	-2126
exic	-2127
▁Acc	-2128
itted	-2129
▁Japanese	-2130
ortunately	-2131
▁rad	-2132
ris	-2133
▁partners	-2134
sid	-2135
ene	-2136
hood	-2137
verse	-2138
▁Italy	-2139
▁relationship	-2140
TO	-2141
▁away	-2142
reedom	-2143
▁affect	-2144
ories	-2145
▁makes	-2146
▁failure	-2147
▁arm	-2148
▁determ	-2149
▁give	-2150
▁prim	-2151
▁ECB	-2152
▁shift	-2153
▁negotiations	-2154
fer	-2155
oviet	-2156
alled	-2157
▁gas	-2158
igration	-2159
▁exports	-2160
▁began	-2161
ously	-2162
▁decline	-2163
▁huge	-2164
▁goods	-2165
▁expected	-2166
▁soon	-2167
▁strategic	-2168
▁sustainable	-2169
de	-2170
▁mov	-2171
▁cy	-2172
▁Mexic	-2173
▁expand	-2174
▁majority	-2175
▁quick	-2176
1,	-2177
lev	-2178
▁media	-2179
▁Now	-2180
▁break	-2181
▁Brazil	-2182
▁Inst	-2183
▁aid	-2184
▁seen	-2185
▁san	-2186
▁ult	-2187
▁propos	-2188
▁willing	-2189
▁underm	-2190
ien	-2191
▁ten	-2192
▁idea	-2193
▁union	-2194
▁news	-2195
▁ability	-2196
gent	-2197
▁legit	-2198
▁legal	-2199
▁eth	-2200
▁mis	-2201
▁environmental	-2202
▁Afghanistan	-2203
owers	-2204
▁Cons	-2205
att	-2206
▁del	-2207
▁lost	-2208
▁rich	-2209
▁reven	-2210
▁Instead	-2211
▁predict	-2212
▁economists	-2213
▁governance	-2214
▁unp	-2215
▁argu	-2216
▁design	-2217
▁jud	-2218
▁subst	-2219
▁evidence	-2220
ton	-2221
▁win	-2222
▁feel	-2223
▁perm	-2224
▁later	-2225
▁benefit	-2226
ledge	-2227
lying	-2228
▁clos	-2229
oring	-2230
▁surpr	-2231
▁incent	-2232
▁cand	-2233
▁activ	-2234
▁Mon	-2235
▁discuss	-2236
▁elections	-2237
▁prior	-2238
▁authorities	-2239
go	-2240
▁solution	-2241
▁inequality	-2242
set	-2243
▁mom	-2244
▁owing	-2245
▁altern	-2246
▁prosper	-2247
60	-2248
lies	-2249
▁How	-2250
▁doing	-2251
▁Pe	-2252
▁agenda	-2253
itarian	-2254
▁State	-2255
▁innovation	-2256
▁exc	-2257
▁Palestinian	-2258
ape	-2259
▁either	-2260
▁respond	-2261
put	-2262
▁fram	-2263
▁occur	-2264
▁depend	-2265
▁increasing	-2266
▁vol	-2267
▁candid	-2268
▁nearly	-2269
▁taking	-2270
▁experience	-2271
rugg	-2272
▁wee	-2273
▁path	-2274
ream	-2275
▁amb	-2276
▁circ	-2277
▁Congress	-2278
▁protection	-2279
▁wide	-2280
▁super	-2281
apse	-2282
▁ear	-2283
▁obs	-2284
▁Commission	-2285
sw	-2286
fact	-2287
▁became	-2288
▁immedi	-2289
▁recovery	-2290
▁represent	-2291
▁taxes	-2292
▁Develop	-2293
▁revolution	-2294
▁Like	-2295
chan	-2296
▁really	-2297
▁prospect	-2298
▁9	-2299
▁First	-2300
▁contrast	-2301
▁something	-2302
▁read	-2303
▁strugg	-2304
▁values	-2305
▁behind	-2306
lin	-2307
uster	-2308
▁vote	-2309
▁Soviet	-2310
▁ground	-2311
▁globalization	-2312
▁Lib	-2313
▁cru	-2314
▁late	-2315
▁achie	-2316
▁insur	-2317
ody	-2318
line	-2319
▁estim	-2320
▁third	-2321
▁powers	-2322
▁general	-2323
▁NA	-2324
▁goal	-2325
rought	-2326
▁sw	-2327
aced	-2328
inated	-2329
▁trillion	-2330
▁vir	-2331
▁nothing	-2332
right	-2333
▁along	-2334
▁bonds	-2335
▁indic	-2336
▁behavior	-2337
▁laun	-2338
ternal	-2339
▁employ	-2340
▁di	-2341
ricult	-2342
▁living	-2343
▁Kingdom	-2344
▁highly	-2345
▁probably	-2346
▁Ag	-2347
▁shar	-2348
▁middle	-2349
▁freedom	-2350
▁attack	-2351
▁industrial	-2352
based	-2353
▁trend	-2354
▁recession	-2355
▁Geor	-2356
▁Saudi	-2357
▁ge	-2358
▁comes	-2359
▁integration	-2360
▁stock	-2361
▁wrong	-2362
▁things	-2363
het	-2364
▁deficits	-2365
erves	-2366
izations	-2367
▁extreme	-2368
▁collapse	-2369
zer	-2370
ring	-2371
▁side	-2372
▁matter	-2373
▁complex	-2374
▁rat	-2375
▁presidential	-2376
▁opportunities	-2377
▁Lat	-2378
arant	-2379
▁analy	-2380
▁investments	-2381
▁X	-2382
▁worse	-2383
▁traditional	-2384
head	-2385
▁den	-2386
▁moment	-2387
▁situation	-2388
aving	-2389
nect	-2390
▁skill	-2391
ina	-2392
▁subsid	-2393
▁previous	-2394
▁protest	-2395
▁NE	-2396
▁learn	-2397
▁National	-2398
ology	-2399
ufact	-2400
▁following	-2401
▁advant	-2402
imately	-2403
▁substant	-2404
ension	-2405
▁record	-2406
▁territ	-2407
▁limited	-2408
▁minister	-2409
▁NEW	-2410
▁host	-2411
▁resol	-2412
▁actually	-2413
▁lat	-2414
▁tem	-2415
ets	-2416
OR	-2417
force	-2418
▁Security	-2419
olit	-2420
▁arr	-2421
▁ask	-2422
▁men	-2423
ctors	-2424
▁cases	-2425
aid	-2426
while	-2427
▁sharp	-2428
▁According	-2429
ls	-2430
ung	-2431
▁sett	-2432
▁include	-2433
▁reality	-2434
▁conv	-2435
▁using	-2436
▁guarant	-2437
min	-2438
▁collect	-2439
▁attention	-2440
mp	-2441
icy	-2442
lig	-2443
▁Be	-2444
▁jo	-2445
▁rein	-2446
▁religious	-2447
▁relatively	-2448
▁mechan	-2449
▁concerns	-2450
▁mob	-2451
▁prep	-2452
▁larger	-2453
▁indeed	-2454
agn	-2455
▁Per	-2456
▁adjust	-2457
▁African	-2458
▁manufact	-2459
▁corporate	-2460
▁uncertain	-2461
iance	-2462
▁standards	-2463
ired	-2464
▁took	-2465
▁easy	-2466
▁corruption	-2467
af	-2468
iquid	-2469
ological	-2470
▁Israeli	-2471
ification	-2472
▁ign	-2473
▁known	-2474
▁Global	-2475
ulner	-2476
plus	-2477
▁offer	-2478
ception	-2479
5,	-2480
▁coming	-2481
▁held	-2482
▁legis	-2483
▁Latin	-2484
▁cat	-2485
▁mere	-2486
▁mist	-2487
▁Most	-2488
▁avail	-2489
▁intervention	-2490
▁explain	-2491
▁external	-2492
▁competition	-2493
▁miss	-2494
▁results	-2495
▁refugees	-2496
▁status	-2497
▁movement	-2498
▁air	-2499
osing	-2500
▁commitment	-2501
ones	-2502
▁fed	-2503
▁answ	-2504
called	-2505
▁words	-2506
▁framew	-2507
▁near	-2508
▁confidence	-2509
&#	-2510
▁repl	-2511
▁cities	-2512
▁purch	-2513
▁attacks	-2514
▁unlikely	-2515
▁decisions	-2516
▁burd	-2517
▁deli	-2518
▁asset	-2519
unction	-2520
▁suc	-2521
▁announ	-2522
▁outcome	-2523
▁favor	-2524
year	-2525
arter	-2526
▁vulner	-2527
▁attract	-2528
ext	-2529
use	-2530
▁div	-2531
▁produce	-2532
▁quickly	-2533
ensus	-2534
igrants	-2535
▁Barack	-2536
▁reb	-2537
▁agricult	-2538
ator	-2539
▁Ham	-2540
▁Sim	-2541
▁stop	-2542
▁obvious	-2543
▁surplus	-2544
▁Spain	-2545
▁rough	-2546
oy	-2547
▁Mexico	-2548
usterity	-2549
▁Development	-2550
▁technologies	-2551
▁Ad	-2552
▁succeed	-2553
▁currently	-2554
▁May	-2555
▁financing	-2556
ault	-2557
▁came	-2558
▁certainly	-2559
▁continued	-2560
kn	-2561
▁art	-2562
iated	-2563
▁responsibility	-2564
▁caused	-2565
leg	-2566
▁surv	-2567
▁worldwide	-2568
▁reducing	-2569
▁beginning	-2570
▁cal	-2571
▁defense	-2572
une	-2573
▁meeting	-2574
▁creating	-2575
▁critical	-2576
▁established	-2577
▁Sc	-2578
hest	-2579
ought	-2580
▁expans	-2581
ots	-2582
▁nar	-2583
▁mechanism	-2584
▁reserves	-2585
▁elsewhere	-2586
▁-	-2587
▁reject	-2588
▁dangerous	-2589
rary	-2590
▁becoming	-2591
▁ir	-2592
▁let	-2593
▁Greek	-2594
▁above	-2595
▁cuts	-2596
▁hous	-2597
▁mind	-2598
▁negative	-2599
vest	-2600
▁line	-2601
▁fig	-2602
▁Since	-2603
▁doubt	-2604
ressed	-2605
▁Great	-2606
action	-2607
▁millions	-2608
sh	-2609
val	-2610
ters	-2611
▁age	-2612
▁reasons	-2613
▁products	-2614
▁projects	-2615
ached	-2616
itable	-2617
AN	-2618
▁ve	-2619
retary	-2620
entially	-2621
▁sent	-2622
ees	-2623
▁liquid	-2624
lier	-2625
▁cle	-2626
▁univers	-2627
▁sovereign	-2628
ech	-2629
hem	-2630
50	-2631
▁basic	-2632
9,	-2633
lex	-2634
ison	-2635
ries	-2636
crib	-2637
▁recognize	-2638
▁sanctions	-2639
▁NATO	-2640
▁dyn	-2641
▁tool	-2642
▁carbon	-2643
▁helped	-2644
▁Internet	-2645
▁unf	-2646
▁dram	-2647
▁heav	-2648
income	-2649
bi	-2650
app	-2651
▁Ex	-2652
▁No	-2653
▁summ	-2654
▁Europeans	-2655
▁roughly	-2656
▁six	-2657
▁days	-2658
▁forced	-2659
▁fair	-2660
▁mess	-2661
ancing	-2662
▁independence	-2663
▁II	-2664
ogra	-2665
acter	-2666
▁below	-2667
▁refere	-2668
orn	-2669
rain	-2670
aries	-2671
▁enter	-2672
acro	-2673
ands	-2674
▁red	-2675
▁gradu	-2676
▁brought	-2677
▁belie	-2678
▁Second	-2679
ici	-2680
loc	-2681
▁bi	-2682
▁won	-2683
▁Govern	-2684
▁clearly	-2685
▁parliament	-2686
▁alternative	-2687
▁organizations	-2688
▁expansion	-2689
rex	-2690
utes	-2691
▁2012	-2692
▁basis	-2693
▁moral	-2694
▁everyone	-2695
uth	-2696
▁1.	-2697
part	-2698
ane	-2699
▁typ	-2700
▁tend	-2701
ensions	-2702
-1	-2703
DG	-2704
nces	-2705
▁expert	-2706
▁source	-2707
▁spread	-2708
▁Although	-2709
sy	-2710
equ	-2711
▁creation	-2712
▁austerity	-2713
▁performance	-2714
4,	-2715
oph	-2716
oking	-2717
▁disease	-2718
▁implic	-2719
▁introdu	-2720
▁victory	-2721
els	-2722
rist	-2723
▁uns	-2724
▁thing	-2725
▁weaken	-2726
▁Des	-2727
▁renew	-2728
..	-2729
▁crises	-2730
▁output	-2731
▁outside	-2732
ature	-2733
ressive	-2734
▁severe	-2735
▁required	-2736
erc	-2737
▁repe	-2738
▁raise	-2739
▁continues	-2740
iter	-2741
inary	-2742
▁Arabia	-2743
▁Monetary	-2744
▁essential	-2745
▁choice	-2746
▁elimin	-2747
▁Federal	-2748
▁thereby	-2749
▁competit	-2750
▁personal	-2751
▁knowledge	-2752
add	-2753
▁special	-2754
3,	-2755
ony	-2756
rep	-2757
enh	-2758
▁mal	-2759
▁framework	-2760
▁prosperity	-2761
▁18	-2762
▁twent	-2763
▁radical	-2764
▁building	-2765
▁positive	-2766
-20	-2767
▁ce	-2768
rats	-2769
▁deg	-2770
▁det	-2771
▁person	-2772
▁distrib	-2773
▁thought	-2774
▁additional	-2775
ograph	-2776
▁commod	-2777
economic	-2778
▁stimulus	-2779
ox	-2780
used	-2781
▁family	-2782
▁proposed	-2783
%.	-2784
▁domin	-2785
▁simple	-2786
▁Dep	-2787
light	-2788
▁Mean	-2789
eneral	-2790
▁company	-2791
▁federal	-2792
▁existing	-2793
▁independent	-2794
▁argue	-2795
▁agreed	-2796
▁center	-2797
▁vision	-2798
atically	-2799
▁Republican	-2800
ann	-2801
cer	-2802
ortion	-2803
▁allowed	-2804
▁available	-2805
▁institutional	-2806
pro	-2807
▁assoc	-2808
ili	-2809
▁Economic	-2810
erb	-2811
ites	-2812
▁Sec	-2813
lling	-2814
undred	-2815
▁gains	-2816
▁scale	-2817
▁answer	-2818
▁rapidly	-2819
▁science	-2820
▁according	-2821
▁Sw	-2822
ients	-2823
▁forward	-2824
▁internal	-2825
▁Meanwhile	-2826
▁transform	-2827
▁individuals	-2828
ptember	-2829
▁damage	-2830
▁factors	-2831
▁generation	-2832
ilt	-2833
aper	-2834
▁minor	-2835
▁Indian	-2836
hel	-2837
osp	-2838
▁Leban	-2839
▁recon	-2840
IN	-2841
▁Ass	-2842
rexit	-2843
▁conserv	-2844
▁subject	-2845
▁societies	-2846
160	-2847
160;	-2848
iment	-2849
▁Aust	-2850
▁mot	-2851
making	-2852
▁incentives	-2853
▁dynam	-2854
▁fully	-2855
▁allies	-2856
▁advantage	-2857
pol	-2858
▁Hamas	-2859
ilities	-2860
7,	-2861
of	-2862
phas	-2863
▁virt	-2864
▁September	-2865
▁effectively	-2866
off	-2867
par	-2868
unn	-2869
▁harm	-2870
▁provided	-2871
▁questions	-2872
duct	-2873
lled	-2874
▁Can	-2875
▁trust	-2876
ott	-2877
▁pain	-2878
▁ideas	-2879
▁legitim	-2880
▁farm	-2881
▁extra	-2882
▁eventually	-2883
oot	-2884
rust	-2885
▁Unf	-2886
encies	-2887
▁afford	-2888
▁imposs	-2889
▁businesses	-2890
▁netw	-2891
lusion	-2892
▁leave	-2893
▁funding	-2894
▁instead	-2895
▁households	-2896
unt	-2897
ibly	-2898
ashing	-2899
▁Other	-2900
▁cover	-2901
▁explo	-2902
▁talks	-2903
▁office	-2904
▁contain	-2905
▁management	-2906
hens	-2907
▁inev	-2908
▁stronger	-2909
▁Mar	-2910
▁trou	-2911
▁loans	-2912
▁macro	-2913
▁dollars	-2914
▁precise	-2915
▁link	-2916
▁orig	-2917
zero	-2918
▁emp	-2919
▁Unfortunately	-2920
emic	-2921
erate	-2922
▁savings	-2923
ellig	-2924
▁Just	-2925
&#160;	-2926
▁ahead	-2927
▁imper	-2928
▁Jew	-2929
▁aimed	-2930
▁worth	-2931
▁Rev	-2932
▁solutions	-2933
aff	-2934
▁thous	-2935
▁losses	-2936
▁shared	-2937
▁hy	-2938
▁bub	-2939
▁claims	-2940
▁supposed	-2941
▁providing	-2942
▁transition	-2943
▁mark	-2944
▁vast	-2945
ishing	-2946
▁flows	-2947
▁deliver	-2948
▁Med	-2949
onald	-2950
▁road	-2951
ventional	-2952
▁terrorism	-2953
▁Not	-2954
▁wages	-2955
▁emphas	-2956
▁facing	-2957
▁appears	-2958
▁diplomatic	-2959
▁technological	-2960
%,	-2961
▁hundred	-2962
olid	-2963
gence	-2964
▁widely	-2965
▁Tw	-2966
▁buy	-2967
▁earn	-2968
▁mort	-2969
onents	-2970
aterial	-2971
▁engage	-2972
▁housing	-2973
▁reduced	-2974
▁consensus	-2975
▁insurance	-2976
▁$2	-2977
▁crucial	-2978
oks	-2979
▁draw	-2980
ellect	-2981
▁assess	-2982
▁engine	-2983
▁borders	-2984
▁culture	-2985
▁Secretary	-2986
▁dict	-2987
▁seek	-2988
▁chance	-2989
▁nor	-2990
▁normal	-2991
care	-2992
iety	-2993
oman	-2994
▁sal	-2995
▁Simil	-2996
▁Despite	-2997
▁contract	-2998
▁boom	-2999
▁Reserve	-3000
▁sectors	-3001
ried	-3002
▁points	-3003
▁service	-3004
▁area	-3005
▁Commun	-3006
▁commer	-3007
▁overall	-3008
▁thinking	-3009
▁economics	-3010
sc	-3011
rest	-3012
▁exec	-3013
ustain	-3014
▁seemed	-3015
▁authority	-3016
ohn	-3017
▁hop	-3018
opolit	-3019
▁stable	-3020
▁constra	-3021
▁Nor	-3022
▁Likewise	-3023
▁followed	-3024
▁increases	-3025
▁impossible	-3026
▁industries	-3027
▁gap	-3028
▁whole	-3029
▁quality	-3030
▁restric	-3031
ask	-3032
▁bro	-3033
▁critic	-3034
▁nature	-3035
▁liquidity	-3036
vert	-3037
ware	-3038
▁rob	-3039
▁burden	-3040
cont	-3041
celer	-3042
▁phys	-3043
▁coord	-3044
▁deter	-3045
▁consumer	-3046
▁character	-3047
▁fix	-3048
▁limit	-3049
▁reached	-3050
▁suggests	-3051
▁Gaz	-3052
▁list	-3053
▁regulation	-3054
▁Palestinians	-3055
umb	-3056
▁12	-3057
itud	-3058
going	-3059
▁coup	-3060
▁directly	-3061
▁Ke	-3062
pping	-3063
▁sound	-3064
▁study	-3065
▁events	-3066
▁consist	-3067
do	-3068
nb	-3069
eng	-3070
▁encourage	-3071
▁politically	-3072
ORK	-3073
▁193	-3074
▁goals	-3075
▁parts	-3076
uk	-3077
aul	-3078
med	-3079
inal	-3080
▁YORK	-3081
▁Clint	-3082
▁plans	-3083
▁nation	-3084
▁connect	-3085
abilities	-3086
▁material	-3087
▁communities	-3088
5.	-3089
▁era	-3090
fully	-3091
▁Only	-3092
▁heart	-3093
▁sides	-3094
▁border	-3095
asion	-3096
▁corre	-3097
▁cross	-3098
▁divid	-3099
▁urban	-3100
▁Finally	-3101
▁matters	-3102
▁196	-3103
▁fast	-3104
sector	-3105
▁direction	-3106
▁throughout	-3107
elt	-3108
▁Col	-3109
▁elected	-3110
▁primary	-3111
▁confront	-3112
▁intellect	-3113
▁ultimately	-3114
▁Net	-3115
▁fri	-3116
arity	-3117
▁wants	-3118
▁Clinton	-3119
1.	-3120
▁poll	-3121
▁minim	-3122
account	-3123
▁consumers	-3124
▁activities	-3125
▁responsible	-3126
▁Ro	-3127
ulated	-3128
▁warming	-3129
▁difference	-3130
▁equity	-3131
▁turned	-3132
▁describ	-3133
▁significantly	-3134
▁destro	-3135
▁trying	-3136
▁agreements	-3137
cher	-3138
▁city	-3139
rehens	-3140
▁occup	-3141
▁yield	-3142
aces	-3143
▁poore	-3144
▁appear	-3145
cle	-3146
▁pus	-3147
minbi	-3148
▁scen	-3149
▁bilateral	-3150
▁committed	-3151
sec	-3152
▁wat	-3153
▁jour	-3154
▁Though	-3155
▁regions	-3156
▁argument	-3157
▁neighbors	-3158
▁size	-3159
▁Paris	-3160
▁competitive	-3161
▁Pl	-3162
▁soft	-3163
▁treatment	-3164
sis	-3165
ocks	-3166
lection	-3167
▁My	-3168
▁Syrian	-3169
▁immediate	-3170
nbsp	-3171
▁mid	-3172
ustom	-3173
▁summit	-3174
▁experien	-3175
▁understanding	-3176
▁withd	-3177
▁skills	-3178
▁complete	-3179
▁purp	-3180
holders	-3181
▁manufacturing	-3182
▁John	-3183
▁Nove	-3184
▁your	-3185
century	-3186
augh	-3187
lands	-3188
▁Over	-3189
▁oblig	-3190
▁vital	-3191
▁Korean	-3192
▁argued	-3193
▁targets	-3194
▁referend	-3195
▁legitimacy	-3196
▁Sen	-3197
▁ste	-3198
▁tro	-3199
▁From	-3200
▁name	-3201
▁November	-3202
▁flo	-3203
war	-3204
airs	-3205
▁Mal	-3206
▁bail	-3207
▁trig	-3208
▁enorm	-3209
iciency	-3210
▁demands	-3211
▁sources	-3212
▁sufficient	-3213
pri	-3214
nder	-3215
▁quant	-3216
▁steps	-3217
▁seeking	-3218
auc	-3219
▁fre	-3220
▁laws	-3221
▁safe	-3222
▁save	-3223
▁Lebanon	-3224
▁intellig	-3225
▁provides	-3226
▁prime	-3227
▁easily	-3228
▁contrary	-3229
▁15	-3230
▁actions	-3231
▁push	-3232
racies	-3233
▁People	-3234
▁importance	-3235
eria	-3236
▁embra	-3237
▁story	-3238
▁promote	-3239
▁renminbi	-3240
nic	-3241
illing	-3242
▁faster	-3243
▁pursue	-3244
▁conduct	-3245
▁default	-3246
▁reduction	-3247
bo	-3248
lif	-3249
angu	-3250
antic	-3251
ender	-3252
▁front	-3253
▁excessive	-3254
▁intellectual	-3255
▁enh	-3256
▁shows	-3257
▁standard	-3258
▁scientific	-3259
▁vulnerable	-3260
den	-3261
atever	-3262
▁separ	-3263
▁apprec	-3264
▁secure	-3265
▁Thus	-3266
▁reve	-3267
▁wars	-3268
idency	-3269
▁anything	-3270
pay	-3271
hern	-3272
▁minist	-3273
▁reflects	-3274
men	-3275
▁30	-3276
enth	-3277
ique	-3278
▁core	-3279
porary	-3280
▁Christ	-3281
▁extent	-3282
▁acceler	-3283
▁substantial	-3284
edly	-3285
▁try	-3286
▁Soc	-3287
▁imag	-3288
▁circum	-3289
▁saving	-3290
▁meaning	-3291
▁regulatory	-3292
▁2000	-3293
▁going	-3294
▁takes	-3295
▁students	-3296
▁defe	-3297
▁compar	-3298
▁latest	-3299
▁lending	-3300
▁pattern	-3301
▁historical	-3302
iff	-3303
order	-3304
▁Sunn	-3305
▁efficient	-3306
fficient	-3307
▁neither	-3308
ety	-3309
rel	-3310
▁port	-3311
▁falling	-3312
▁property	-3313
▁terrorist	-3314
▁log	-3315
▁frag	-3316
▁opin	-3317
▁calls	-3318
▁belief	-3319
▁threats	-3320
▁continent	-3321
SE	-3322
▁tell	-3323
▁option	-3324
▁produced	-3325
▁sometimes	-3326
▁competitiveness	-3327
6,	-3328
ops	-3329
▁Cam	-3330
state	-3331
▁here	-3332
▁Brexit	-3333
▁George	-3334
▁multilateral	-3335
urs	-3336
▁zero	-3337
cember	-3338
lusive	-3339
▁Trade	-3340
▁truth	-3341
▁Similarly	-3342
▁dig	-3343
▁paid	-3344
▁Argent	-3345
▁perman	-3346
▁Perhaps	-3347
▁Kh	-3348
andon	-3349
▁field	-3350
▁withdraw	-3351
▁assistance	-3352
ira	-3353
oses	-3354
▁scenar	-3355
▁theory	-3356
▁focused	-3357
▁prospects	-3358
uses	-3359
▁His	-3360
▁Libya	-3361
▁models	-3362
▁December	-3363
▁compared	-3364
▁therefore	-3365
▁commercial	-3366
▁margin	-3367
▁acqu	-3368
▁week	-3369
▁advoc	-3370
▁cultural	-3371
▁structure	-3372
▁subsidies	-3373
▁thousands	-3374
ita	-3375
▁sens	-3376
▁displ	-3377
▁referendum	-3378
nal	-3379
izes	-3380
▁Why	-3381
▁mut	-3382
ights	-3383
▁House	-3384
▁merely	-3385
▁achieved	-3386
▁coalition	-3387
zy	-3388
▁CA	-3389
▁York	-3390
▁adopted	-3391
▁apparent	-3392
cast	-3393
rich	-3394
▁10%	-3395
▁mer	-3396
▁Treat	-3397
▁becomes	-3398
ustainable	-3399
▁principles	-3400
uck	-3401
▁Xi	-3402
▁mand	-3403
▁drugs	-3404
▁stabil	-3405
▁abandon	-3406
▁conclud	-3407
▁precisely	-3408
▁expectations	-3409
▁book	-3410
▁isol	-3411
ij	-3412
▁Eng	-3413
gency	-3414
▁batt	-3415
▁lose	-3416
ancial	-3417
▁presidency	-3418
▁€	-3419
idesp	-3420
▁shown	-3421
▁partly	-3422
idespread	-3423
▁principle	-3424
▁limits	-3425
▁remark	-3426
▁biggest	-3427
▁earlier	-3428
▁profits	-3429
▁creditors	-3430
▁profession	-3431
▁Both	-3432
▁faces	-3433
▁victim	-3434
▁specific	-3435
iles	-3436
▁surve	-3437
▁General	-3438
▁comprom	-3439
nty	-3440
urm	-3441
anks	-3442
policy	-3443
▁serve	-3444
▁Consider	-3445
▁Its	-3446
ondon	-3447
third	-3448
▁flex	-3449
▁bound	-3450
▁changed	-3451
▁context	-3452
▁enterpr	-3453
▁Gu	-3454
ignty	-3455
▁Last	-3456
▁rele	-3457
rehensive	-3458
MB	-3459
▁sou	-3460
▁Organ	-3461
▁speech	-3462
▁treaty	-3463
▁finally	-3464
▁accounts	-3465
3.	-3466
uct	-3467
▁game	-3468
▁stagn	-3469
▁Poland	-3470
▁membership	-3471
EC	-3472
ulate	-3473
▁dism	-3474
▁stem	-3475
▁whom	-3476
▁tools	-3477
▁percent	-3478
▁various	-3479
▁electric	-3480
▁Republicans	-3481
▁0.	-3482
▁enj	-3483
▁imbal	-3484
▁round	-3485
▁commodity	-3486
▁nom	-3487
▁dead	-3488
▁vers	-3489
▁spend	-3490
▁himself	-3491
▁trading	-3492
▁enormous	-3493
▁Revolution	-3494
▁macroeconomic	-3495
▁Mer	-3496
▁London	-3497
▁deflation	-3498
▁widespread	-3499
▁uncertainty	-3500
▁June	-3501
acific	-3502
▁autom	-3503
orthern	-3504
▁police	-3505
▁Eastern	-3506
▁started	-3507
▁Am	-3508
▁Jan	-3509
▁Ken	-3510
iring	-3511
ossil	-3512
▁Gaza	-3513
▁Treaty	-3514
▁happen	-3515
▁struggle	-3516
▁training	-3517
TON	-3518
▁CO	-3519
▁Abe	-3520
▁enable	-3521
▁ethnic	-3522
▁announced	-3523
orks	-3524
▁lot	-3525
▁pan	-3526
▁vacc	-3527
▁abroad	-3528
▁arrange	-3529
▁function	-3530
▁possibility	-3531
com	-3532
▁2.	-3533
iable	-3534
ifying	-3535
ubl	-3536
aled	-3537
▁confere	-3538
▁persist	-3539
▁Go	-3540
▁194	-3541
rowth	-3542
▁wage	-3543
▁safety	-3544
▁message	-3545
▁geopolit	-3546
▁happened	-3547
▁immigration	-3548
ER	-3549
▁Sch	-3550
▁hour	-3551
▁quarter	-3552
▁resulting	-3553
vail	-3554
▁carry	-3555
▁tried	-3556
▁causes	-3557
▁insist	-3558
▁incomes	-3559
▁diseases	-3560
▁estimated	-3561
know	-3562
▁fell	-3563
itting	-3564
▁launched	-3565
.)	-3566
▁"	-3567
ugh	-3568
ynes	-3569
▁army	-3570
▁Their	-3571
▁built	-3572
▁Econom	-3573
▁sovereignty	-3574
ait	-3575
▁Ju	-3576
aches	-3577
▁fighting	-3578
▁differences	-3579
▁range	-3580
▁broader	-3581
▁concent	-3582
▁promise	-3583
▁barri	-3584
▁worry	-3585
▁bankers	-3586
▁managed	-3587
▁present	-3588
▁initiative	-3589
▁Iranian	-3590
▁supported	-3591
co	-3592
icro	-3593
hetor	-3594
ilies	-3595
reced	-3596
▁gold	-3597
▁prem	-3598
▁custom	-3599
▁unable	-3600
▁candidates	-3601
▁operations	-3602
hib	-3603
▁Bl	-3604
▁circumst	-3605
▁collective	-3606
itig	-3607
thern	-3608
▁bomb	-3609
▁adopt	-3610
▁optim	-3611
▁space	-3612
▁volat	-3613
▁absence	-3614
▁measure	-3615
▁hundreds	-3616
▁received	-3617
▁sen	-3618
uting	-3619
▁cash	-3620
▁task	-3621
▁solid	-3622
lied	-3623
uild	-3624
▁firm	-3625
▁welf	-3626
▁wind	-3627
ecause	-3628
▁fossil	-3629
▁communic	-3630
recedented	-3631
▁Su	-3632
aling	-3633
ittee	-3634
usion	-3635
levant	-3636
▁hands	-3637
▁worst	-3638
▁rhetor	-3639
▁facilit	-3640
▁appropri	-3641
▁revenues	-3642
ray	-3643
▁Ph	-3644
▁spir	-3645
▁prove	-3646
▁spent	-3647
▁Donald	-3648
▁opinion	-3649
▁welfare	-3650
▁Democratic	-3651
▁democracies	-3652
▁intelligence	-3653
gn	-3654
sych	-3655
▁bill	-3656
rative	-3657
▁highest	-3658
▁leaving	-3659
kel	-3660
fect	-3661
▁base	-3662
▁diss	-3663
▁publ	-3664
▁team	-3665
▁asked	-3666
▁improved	-3667
▁construction	-3668
▁unprecedented	-3669
EN	-3670
ING	-3671
etic	-3672
▁adap	-3673
▁weakness	-3674
OND	-3675
mar	-3676
▁sex	-3677
ching	-3678
▁went	-3679
▁meant	-3680
▁secur	-3681
▁sustained	-3682
▁legislation	-3683
ios	-3684
time	-3685
▁hit	-3686
ONDON	-3687
▁drive	-3688
▁revenue	-3689
▁50	-3690
iers	-3691
inet	-3692
▁rural	-3693
▁LONDON	-3694
▁Because	-3695
▁resistance	-3696
▁Organization	-3697
▁outc	-3698
▁clean	-3699
▁langu	-3700
▁trial	-3701
▁schools	-3702
▁designed	-3703
ull	-3704
▁Cold	-3705
▁bure	-3706
▁easing	-3707
▁strength	-3708
▁Ma	-3709
▁100	-3710
▁Har	-3711
▁lies	-3712
▁pack	-3713
▁final	-3714
▁stake	-3715
ference	-3716
▁Keynes	-3717
▁giving	-3718
▁Austral	-3719
▁addition	-3720
▁families	-3721
enez	-3722
rimin	-3723
enezuel	-3724
▁mostly	-3725
▁raised	-3726
▁farmers	-3727
ashington	-3728
▁promises	-3729
▁circumstances	-3730
aria	-3731
idered	-3732
▁conflicts	-3733
▁currencies	-3734
orb	-3735
uary	-3736
▁efficiency	-3737
▁considerable	-3738
umm	-3739
aves	-3740
▁Venezuel	-3741
▁activity	-3742
▁comprehensive	-3743
wan	-3744
▁1990’	-3745
actions	-3746
▁acknow	-3747
▁prevail	-3748
▁ensuring	-3749
▁considered	-3750
▁everything	-3751
The	-3752
▁Comp	-3753
▁capt	-3754
▁Those	-3755
▁declared	-3756
▁Bro	-3757
▁perce	-3758
▁deeply	-3759
▁driven	-3760
▁factor	-3761
▁inform	-3762
▁multip	-3763
▁worked	-3764
▁Another	-3765
reet	-3766
▁colle	-3767
▁disaster	-3768
▁involved	-3769
▁populist	-3770
▁associated	-3771
▁Er	-3772
▁2010	-3773
lantic	-3774
▁Merkel	-3775
▁capita	-3776
▁closer	-3777
▁justice	-3778
▁generally	-3779
ih	-3780
inent	-3781
▁talk	-3782
▁Muslims	-3783
▁advance	-3784
▁bureauc	-3785
▁destroy	-3786
▁emerged	-3787
▁Argentina	-3788
7%	-3789
▁der	-3790
▁sold	-3791
▁frequ	-3792
▁light	-3793
▁assert	-3794
▁raising	-3795
▁permanent	-3796
nam	-3797
▁Bo	-3798
▁mortg	-3799
▁instru	-3800
▁helping	-3801
▁smaller	-3802
▁restrict	-3803
▁transport	-3804
▁gl	-3805
▁hor	-3806
▁Cour	-3807
▁body	-3808
▁adequ	-3809
▁ratio	-3810
▁tight	-3811
▁anyone	-3812
standing	-3813
▁journal	-3814
▁ongoing	-3815
▁identity	-3816
▁borrowing	-3817
bles	-3818
mark	-3819
whel	-3820
▁sum	-3821
▁equal	-3822
▁medical	-3823
▁running	-3824
▁generate	-3825
▁University	-3826
uine	-3827
▁obst	-3828
▁resist	-3829
▁revers	-3830
▁compens	-3831
▁exception	-3832
▁suffering	-3833
▁constitution	-3834
▁Co	-3835
▁Ber	-3836
▁unw	-3837
utive	-3838
▁Sunni	-3839
▁visit	-3840
▁Invest	-3841
▁consolid	-3842
▁controls	-3843
▁economist	-3844
▁conference	-3845
ze	-3846
ethe	-3847
▁exceed	-3848
▁infect	-3849
▁depends	-3850
3%	-3851
▁Do	-3852
▁meth	-3853
▁changing	-3854
▁anim	-3855
▁concept	-3856
▁returns	-3857
▁remained	-3858
▁authoritarian	-3859
ains	-3860
raft	-3861
uman	-3862
▁Tal	-3863
▁outcomes	-3864
▁migration	-3865
▁Washington	-3866
ames	-3867
▁due	-3868
▁wel	-3869
itative	-3870
▁During	-3871
▁crimin	-3872
▁prefer	-3873
▁sought	-3874
▁allowing	-3875
▁entirely	-3876
▁greatest	-3877
▁productive	-3878
▁instability	-3879
ani	-3880
back	-3881
remlin	-3882
raction	-3883
▁getting	-3884
▁mention	-3885
ada	-3886
▁implies	-3887
▁offered	-3888
▁agencies	-3889
▁repeated	-3890
▁agricultural	-3891
▁enab	-3892
govern	-3893
▁eight	-3894
▁faced	-3895
▁played	-3896
▁Kremlin	-3897
▁barriers	-3898
▁Tai	-3899
▁pen	-3900
▁genuine	-3901
▁organization	-3902
AS	-3903
atis	-3904
cale	-3905
▁forms	-3906
▁weeks	-3907
▁Social	-3908
▁comput	-3909
▁hardly	-3910
▁places	-3911
gen	-3912
urt	-3913
yle	-3914
icip	-3915
▁2009	-3916
▁susp	-3917
▁stage	-3918
reasury	-3919
▁stands	-3920
▁troops	-3921
▁unless	-3922
etheless	-3923
▁overwhel	-3924
▁slowdown	-3925
▁percentage	-3926
▁partnership	-3927
EL	-3928
rene	-3929
▁Cal	-3930
asing	-3931
risis	-3932
▁sell	-3933
▁Polit	-3934
▁imports	-3935
▁overcome	-3936
▁rhetoric	-3937
▁Financial	-3938
▁improving	-3939
4%	-3940
ints	-3941
▁root	-3942
▁Court	-3943
▁credibility	-3944
▁geopolitical	-3945
see	-3946
ulf	-3947
▁202	-3948
▁beg	-3949
scale	-3950
▁upon	-3951
▁psych	-3952
▁views	-3953
▁Taiwan	-3954
▁choose	-3955
▁lesson	-3956
▁Islamist	-3957
▁analysis	-3958
▁supporters	-3959
▁regulations	-3960
ague	-3961
anda	-3962
▁Non	-3963
eenth	-3964
▁rare	-3965
▁decided	-3966
▁tensions	-3967
▁capitalism	-3968
ev	-3969
oil	-3970
▁pace	-3971
▁chann	-3972
▁learned	-3973
▁restore	-3974
▁includes	-3975
6%	-3976
ode	-3977
▁Man	-3978
▁Nig	-3979
uries	-3980
▁nations	-3981
▁participation	-3982
PP	-3983
▁ey	-3984
▁Will	-3985
▁debts	-3986
▁fears	-3987
▁regimes	-3988
▁electoral	-3989
▁AI	-3990
▁Then	-3991
▁exact	-3992
▁quite	-3993
reprene	-3994
▁killed	-3995
▁wanted	-3996
▁experts	-3997
ikes	-3998
▁mount	-3999
▁involve	-4000
▁receive	-4001
▁perspect	-4002
▁fundament	-4003
▁2007	-4004
▁depos	-4005
▁mainly	-4006
▁moving	-4007
▁narrow	-4008
▁highlight	-4009
▁objectives	-4010
▁potentially	-4011
-19	-4012
lar	-4013
▁DC	-4014
which	-4015
▁Kurd	-4016
▁Turk	-4017
▁bott	-4018
▁affairs	-4019
▁options	-4020
▁payments	-4021
4.	-4022
DS	-4023
ieth	-4024
▁Kim	-4025
▁goes	-4026
▁January	-4027
▁migrants	-4028
▁rational	-4029
▁scenario	-4030
▁contribute	-4031
▁planet	-4032
▁secular	-4033
▁implications	-4034
-200	-4035
▁mor	-4036
▁July	-4037
▁Sing	-4038
herent	-4039
reland	-4040
▁block	-4041
▁usually	-4042
▁candidate	-4043
▁estimates	-4044
ula	-4045
▁Kong	-4046
▁Rather	-4047
▁accomp	-4048
▁fallen	-4049
▁transfer	-4050
▁recognized	-4051
▁conservative	-4052
DGE	-4053
MBRI	-4054
iate	-4055
▁squ	-4056
▁arms	-4057
▁lines	-4058
MBRIDGE	-4059
▁deaths	-4060
▁suffer	-4061
▁CAMBRIDGE	-4062
▁territory	-4063
▁pun	-4064
antly	-4065
▁gave	-4066
aching	-4067
efense	-4068
▁aggreg	-4069
▁double	-4070
▁method	-4071
▁Ireland	-4072
▁digital	-4073
▁establishment	-4074
IV	-4075
▁Sea	-4076
▁esc	-4077
▁ties	-4078
▁Under	-4079
▁priority	-4080
▁positions	-4081
▁implemented	-4082
▁initiatives	-4083
kept	-4084
ogue	-4085
▁Dav	-4086
▁1990	-4087
▁Hong	-4088
▁insp	-4089
atform	-4090
▁cancer	-4091
▁viewed	-4092
▁patients	-4093
▁proposal	-4094
ote	-4095
long	-4096
astro	-4097
itude	-4098
▁told	-4099
coming	-4100
istics	-4101
▁Assad	-4102
▁remov	-4103
▁numbers	-4104
▁practices	-4105
▁nationalism	-4106
car	-4107
ocu	-4108
▁ended	-4109
▁formal	-4110
▁movements	-4111
▁mechanisms	-4112
ria	-4113
alle	-4114
▁join	-4115
▁2008,	-4116
▁resolve	-4117
▁diplomacy	-4118
ollah	-4119
orial	-4120
▁ruling	-4121
▁protests	-4122
anted	-4123
▁imped	-4124
▁combined	-4125
▁guarantee	-4126
▁scientists	-4127
▁constitutional	-4128
▁transformation	-4129
aren	-4130
ares	-4131
▁har	-4132
▁hon	-4133
▁sil	-4134
▁mach	-4135
▁works	-4136
▁Indones	-4137
▁sharply	-4138
▁demonstr	-4139
▁leverage	-4140
▁entreprene	-4141
▁commitments	-4142
1%	-4143
▁Trans	-4144
▁complic	-4145
▁forecast	-4146
▁practice	-4147
▁declining	-4148
▁everywhere	-4149
▁appropriate	-4150
▁vo	-4151
cers	-4152
more	-4153
power	-4154
apital	-4155
▁easier	-4156
▁Brother	-4157
▁correct	-4158
▁ordinary	-4159
▁otherwise	-4160
▁undermine	-4161
▁universal	-4162
▁populations	-4163
rat	-4164
▁Br	-4165
▁medium	-4166
▁poorest	-4167
ructuring	-4168
▁imbalances	-4169
aks	-4170
▁ones	-4171
▁phil	-4172
▁compl	-4173
▁exerc	-4174
▁Without	-4175
▁conventional	-4176
isc	-4177
▁Nob	-4178
▁Third	-4179
▁spect	-4180
▁amounts	-4181
▁driving	-4182
lad	-4183
sts	-4184
pret	-4185
adequ	-4186
▁murd	-4187
▁spur	-4188
idents	-4189
▁truly	-4190
▁proved	-4191
▁disrupt	-4192
▁alliance	-4193
▁corporations	-4194
lows	-4195
rage	-4196
▁asp	-4197
▁drop	-4198
▁stay	-4199
▁wast	-4200
▁expend	-4201
▁intens	-4202
▁southern	-4203
▁strategies	-4204
▁distribution	-4205
▁Te	-4206
wing	-4207
▁Two	-4208
atisf	-4209
▁rely	-4210
▁March	-4211
▁accum	-4212
▁aware	-4213
ivalent	-4214
▁defend	-4215
▁desire	-4216
▁imposed	-4217
▁electricity	-4218
oke	-4219
ozy	-4220
run	-4221
▁Mod	-4222
▁pled	-4223
▁seven	-4224
▁deprec	-4225
▁robust	-4226
▁useful	-4227
▁prepared	-4228
▁aggregate	-4229
▁continuing	-4230
pin	-4231
reme	-4232
▁symb	-4233
arkozy	-4234
▁alloc	-4235
▁dimin	-4236
▁enjoy	-4237
▁prison	-4238
▁proposals	-4239
▁reflected	-4240
▁inevitable	-4241
▁regulators	-4242
▁resolution	-4243
▁experienced	-4244
raf	-4245
▁gir	-4246
▁room	-4247
arency	-4248
▁blame	-4249
▁motiv	-4250
▁appoint	-4251
▁towards	-4252
▁ep	-4253
▁calc	-4254
▁cell	-4255
iction	-4256
▁armed	-4257
▁manip	-4258
▁mitig	-4259
▁senior	-4260
▁Sarkozy	-4261
▁violent	-4262
liferation	-4263
SEAN	-4264
iban	-4265
▁degree	-4266
▁Parliament	-4267
▁underlying	-4268
▁combination	-4269
▁wond	-4270
Americ	-4271
atures	-4272
▁bailout	-4273
▁causing	-4274
▁choices	-4275
▁expendit	-4276
▁expensive	-4277
▁twentieth	-4278
▁agriculture	-4279
enn	-4280
ails	-4281
▁bul	-4282
▁enem	-4283
▁monit	-4284
▁believed	-4285
▁platform	-4286
rud	-4287
roduct	-4288
itation	-4289
▁generations	-4290
doğ	-4291
ster	-4292
ustr	-4293
▁Our	-4294
doğan	-4295
▁Fore	-4296
▁Ital	-4297
▁hopes	-4298
▁actors	-4299
▁defeat	-4300
▁Erdoğan	-4301
▁friends	-4302
▁replace	-4303
▁enterprises	-4304
eda	-4305
iagn	-4306
illed	-4307
▁unique	-4308
▁accepted	-4309
▁Communist	-4310
▁virtually	-4311
ties	-4312
ronic	-4313
▁foot	-4314
▁Every	-4315
▁compe	-4316
▁court	-4317
▁devast	-4318
▁credible	-4319
▁adjustment	-4320
IS	-4321
iant	-4322
▁schem	-4323
▁figure	-4324
▁impose	-4325
▁cutting	-4326
▁mistake	-4327
▁investig	-4328
▁profound	-4329
▁resource	-4330
▁Democrats	-4331
asc	-4332
rown	-4333
▁195	-4334
▁Swed	-4335
▁legisl	-4336
▁relief	-4337
▁trends	-4338
▁inadequ	-4339
▁pension	-4340
2%	-4341
ipe	-4342
▁ut	-4343
itious	-4344
▁battle	-4345
▁confron	-4346
▁dynamic	-4347
▁holding	-4348
▁occurred	-4349
▁immigrants	-4350
▁immediately	-4351
▁strengthening	-4352
▁liberalization	-4353
▁fire	-4354
▁decis	-4355
▁obser	-4356
▁Health	-4357
▁symbol	-4358
▁Taliban	-4359
▁purpose	-4360
▁refugee	-4361
▁victims	-4362
▁opponents	-4363
2,	-4364
sk	-4365
aeda	-4366
▁dro	-4367
▁fulf	-4368
▁ment	-4369
▁Count	-4370
▁obstac	-4371
▁profit	-4372
▁taxpay	-4373
▁enforce	-4374
▁tradition	-4375
▁institution	-4376
8%	-4377
eb	-4378
cto	-4379
dden	-4380
fall	-4381
fuel	-4382
agers	-4383
ctober	-4384
ructive	-4385
▁conver	-4386
▁heavily	-4387
▁networks	-4388
▁promised	-4389
▁restructuring	-4390
gia	-4391
ney	-4392
icle	-4393
ipher	-4394
▁bear	-4395
▁elites	-4396
▁Turkish	-4397
▁subsequ	-4398
▁turning	-4399
▁Treasury	-4400
▁objective	-4401
▁seriously	-4402
urb	-4403
resp	-4404
▁Gre	-4405
▁Whe	-4406
▁cheap	-4407
▁green	-4408
▁mobil	-4409
▁active	-4410
▁ignore	-4411
▁travel	-4412
▁minority	-4413
▁condition	-4414
▁counterpart	-4415
▁economically	-4416
la	-4417
utr	-4418
vis	-4419
▁got	-4420
▁chem	-4421
ground	-4422
▁cycle	-4423
▁medic	-4424
▁ready	-4425
▁peaceful	-4426
▁whatever	-4427
Euro	-4428
rank	-4429
ugust	-4430
▁stra	-4431
▁2010,	-4432
▁Chile	-4433
▁accord	-4434
▁offers	-4435
▁recomm	-4436
▁figures	-4437
▁perceived	-4438
▁destruction	-4439
▁maintaining	-4440
▁li	-4441
cons	-4442
uous	-4443
aught	-4444
▁bene	-4445
▁solve	-4446
▁decide	-4447
▁desper	-4448
▁October	-4449
▁related	-4450
▁annually	-4451
▁bringing	-4452
▁Indonesia	-4453
▁Venezuela	-4454
▁temporary	-4455
▁developments	-4456
Ch	-4457
▁Prot	-4458
▁flaw	-4459
▁gone	-4460
▁Instit	-4461
▁sudden	-4462
▁Climate	-4463
▁exactly	-4464
▁underst	-4465
▁inclusive	-4466
▁perspective	-4467
bre	-4468
los	-4469
bled	-4470
erous	-4471
ffect	-4472
itter	-4473
▁resc	-4474
▁type	-4475
ployed	-4476
▁adapt	-4477
▁joint	-4478
▁issued	-4479
▁owners	-4480
▁remind	-4481
▁undert	-4482
▁language	-4483
▁concerned	-4484
▁ministers	-4485
▁typically	-4486
▁supporting	-4487
inks	-4488
onom	-4489
▁20%	-4490
count	-4491
▁brut	-4492
luding	-4493
stream	-4494
▁uncon	-4495
▁youth	-4496
▁whereas	-4497
ded	-4498
let	-4499
oly	-4500
▁wis	-4501
owned	-4502
▁Vlad	-4503
▁dial	-4504
ietnam	-4505
▁Colomb	-4506
▁bubble	-4507
▁explan	-4508
▁losing	-4509
▁online	-4510
▁parent	-4511
▁dictators	-4512
▁contributed	-4513
▁ec	-4514
fers	-4515
igor	-4516
▁fil	-4517
heast	-4518
ional	-4519
▁Paul	-4520
▁ASEAN	-4521
▁leads	-4522
uations	-4523
▁assume	-4524
▁equivalent	-4525
acerb	-4526
▁acad	-4527
▁bold	-4528
anging	-4529
▁shape	-4530
▁shock	-4531
▁crimes	-4532
▁equally	-4533
▁trouble	-4534
▁starting	-4535
6.	-4536
adays	-4537
licit	-4538
▁Jewish	-4539
▁review	-4540
▁lessons	-4541
▁affected	-4542
▁bankrupt	-4543
▁Australia	-4544
iny	-4545
irth	-4546
Europe	-4547
▁heavy	-4548
▁persu	-4549
▁react	-4550
▁healthy	-4551
▁reinfor	-4552
▁studies	-4553
▁technical	-4554
▁willingness	-4555
▁dramatically	-4556
oud	-4557
emen	-4558
mbly	-4559
▁50%	-4560
▁Port	-4561
▁lend	-4562
contro	-4563
▁retire	-4564
▁exacerb	-4565
▁northern	-4566
▁pursuing	-4567
▁fuels	-4568
▁peripher	-4569
▁physical	-4570
▁surprise	-4571
▁discussion	-4572
▁demonstrated	-4573
▁knows	-4574
▁August	-4575
▁Vietnam	-4576
▁divided	-4577
▁players	-4578
▁producers	-4579
fin	-4580
▁Here	-4581
▁Shia	-4582
▁begun	-4583
▁delay	-4584
▁dream	-4585
▁stead	-4586
▁Palestine	-4587
▁addressing	-4588
▁Ky	-4589
ager	-4590
▁feed	-4591
▁kept	-4592
▁trip	-4593
▁Vladim	-4594
▁shocks	-4595
▁possibly	-4596
▁relevant	-4597
▁expanding	-4598
▁recognition	-4599
che	-4600
ift	-4601
eron	-4602
▁tact	-4603
▁preced	-4604
ographic	-4605
▁Vladimir	-4606
▁described	-4607
▁determined	-4608
▁necessarily	-4609
▁transparency	-4610
usal	-4611
▁ric	-4612
orpor	-4613
▁Nobel	-4614
related	-4615
▁collabor	-4616
▁Depression	-4617
▁$3	-4618
look	-4619
▁She	-4620
ading	-4621
▁elite	-4622
▁grown	-4623
▁hours	-4624
enhouse	-4625
ibilities	-4626
▁billions	-4627
▁presence	-4628
▁religion	-4629
▁Me	-4630
fort	-4631
ires	-4632
▁Act	-4633
class	-4634
▁says	-4635
▁resil	-4636
▁distin	-4637
▁reported	-4638
▁determine	-4639
▁compromise	-4640
8,	-4641
gu	-4642
rs	-4643
uty	-4644
▁trib	-4645
▁summer	-4646
▁closely	-4647
▁civilian	-4648
▁interven	-4649
▁represents	-4650
era	-4651
appe	-4652
urch	-4653
first	-4654
onent	-4655
▁docu	-4656
▁none	-4657
arning	-4658
▁girls	-4659
▁deeper	-4660
▁modest	-4661
▁playing	-4662
▁humanitarian	-4663
ias	-4664
▁10	-4665
▁il	-4666
ancy	-4667
▁HIV	-4668
▁saw	-4669
▁Bang	-4670
▁looks	-4671
▁launch	-4672
▁Constit	-4673
▁learning	-4674
▁promoting	-4675
▁quantitative	-4676
▁requirements	-4677
▁fal	-4678
▁Gulf	-4679
▁flood	-4680
▁bottom	-4681
▁gender	-4682
▁defined	-4683
▁dramatic	-4684
▁opposite	-4685
▁extremely	-4686
▁interpret	-4687
▁greenhouse	-4688
▁nationalist	-4689
▁east	-4690
▁exit	-4691
▁diagn	-4692
▁earth	-4693
▁toler	-4694
▁twenty	-4695
▁opening	-4696
▁promising	-4697
▁universities	-4698
IC	-4699
▁17	-4700
inian	-4701
level	-4702
▁tack	-4703
▁blood	-4704
▁grand	-4705
▁command	-4706
▁criticism	-4707
▁priorities	-4708
▁terrorists	-4709
▁constraints	-4710
▁Cy	-4711
▁Ne	-4712
pril	-4713
▁sto	-4714
chers	-4715
lines	-4716
iberal	-4717
lihood	-4718
▁homes	-4719
▁confir	-4720
national	-4721
▁survival	-4722
▁ambitious	-4723
▁pollution	-4724
▁territorial	-4725
llor	-4726
otic	-4727
▁speak	-4728
▁offset	-4729
▁temper	-4730
ventions	-4731
▁trigger	-4732
▁settlement	-4733
enty	-4734
▁fate	-4735
▁track	-4736
flation	-4737
▁gained	-4738
▁incomp	-4739
▁criminal	-4740
▁understood	-4741
▁encouraging	-4742
▁parliamentary	-4743
leb	-4744
oms	-4745
▁203	-4746
▁2015	-4747
▁arrest	-4748
▁fueled	-4749
▁However	-4750
▁partner	-4751
▁putting	-4752
▁regular	-4753
▁achieving	-4754
▁Fortunately	-4755
▁arrangements	-4756
arsh	-4757
▁grew	-4758
INGTON	-4759
overed	-4760
▁illeg	-4761
▁signs	-4762
▁Policy	-4763
▁Foreign	-4764
▁collaps	-4765
▁observers	-4766
▁published	-4767
▁legitimate	-4768
cks	-4769
pet	-4770
ompl	-4771
with	-4772
rence	-4773
trade	-4774
▁brok	-4775
▁Iraqi	-4776
▁showed	-4777
▁mandate	-4778
▁although	-4779
▁processes	-4780
aily	-4781
▁Bal	-4782
arely	-4783
▁Hung	-4784
▁race	-4785
▁sort	-4786
▁chief	-4787
▁employees	-4788
▁inadequate	-4789
▁remarkable	-4790
ASH	-4791
ahu	-4792
ingu	-4793
anish	-4794
aining	-4795
▁faith	-4796
▁sales	-4797
▁except	-4798
▁embrace	-4799
▁imagine	-4800
▁planning	-4801
▁starters	-4802
mad	-4803
▁($	-4804
comm	-4805
▁Any	-4806
▁dri	-4807
▁sac	-4808
▁crop	-4809
▁2012,	-4810
▁April	-4811
▁fixed	-4812
artment	-4813
▁mother	-4814
▁urgent	-4815
▁mission	-4816
▁adequate	-4817
yal	-4818
▁30%	-4819
▁mix	-4820
▁compr	-4821
uilding	-4822
▁reluct	-4823
▁Cameron	-4824
▁critics	-4825
▁intended	-4826
▁primarily	-4827
▁remaining	-4828
CS	-4829
su	-4830
ife	-4831
ffic	-4832
ailed	-4833
▁WASH	-4834
▁Yemen	-4835
▁fewer	-4836
▁paper	-4837
aration	-4838
▁happens	-4839
▁keeping	-4840
▁Mc	-4841
oubt	-4842
▁asy	-4843
▁shr	-4844
▁sus	-4845
carbon	-4846
itably	-4847
country	-4848
▁series	-4849
▁historic	-4850
▁moderate	-4851
▁suffered	-4852
▁centuries	-4853
▁gradually	-4854
▁11	-4855
▁2%	-4856
▁Ben	-4857
odies	-4858
anyahu	-4859
orient	-4860
▁2011,	-4861
▁monop	-4862
▁parad	-4863
▁search	-4864
▁setting	-4865
▁Committee	-4866
▁Netanyahu	-4867
▁eliminate	-4868
▁WASHINGTON	-4869
&#160;&#160;	-4870
▁unsustainable	-4871
ana	-4872
▁Rom	-4873
▁Sil	-4874
▁shap	-4875
mented	-4876
▁Still	-4877
▁moved	-4878
▁risky	-4879
▁Chance	-4880
▁emerge	-4881
▁signed	-4882
▁failing	-4883
▁genetic	-4884
▁rejected	-4885
▁addressed	-4886
▁purchases	-4887
ihad	-4888
pring	-4889
▁evol	-4890
▁fost	-4891
▁writ	-4892
itness	-4893
▁frust	-4894
▁reserve	-4895
▁marginal	-4896
▁underpin	-4897
▁incentive	-4898
▁structures	-4899
▁40%	-4900
ijing	-4901
icious	-4902
▁added	-4903
▁apply	-4904
▁tough	-4905
▁establishing	-4906
▁Once	-4907
▁deval	-4908
▁disag	-4909
▁enact	-4910
▁costly	-4911
▁reward	-4912
▁stance	-4913
▁Further	-4914
▁discipl	-4915
▁engaged	-4916
▁reports	-4917
▁included	-4918
▁implementation	-4919
ECD	-4920
adow	-4921
▁Cub	-4922
▁cha	-4923
▁sea	-4924
iling	-4925
ordan	-4926
iences	-4927
▁Franc	-4928
▁scope	-4929
▁tempt	-4930
ustrial	-4931
▁allows	-4932
▁plants	-4933
▁pushed	-4934
▁explicit	-4935
▁identify	-4936
▁neighbor	-4937
▁emergence	-4938
▁taxpayers	-4939
▁controvers	-4940
gic	-4941
▁3.	-4942
▁QE	-4943
pted	-4944
anied	-4945
ested	-4946
▁ideal	-4947
▁revol	-4948
ospital	-4949
▁Portug	-4950
▁opposed	-4951
▁aggressive	-4952
▁sup	-4953
▁woman	-4954
▁mutual	-4955
security	-4956
▁perfect	-4957
▁educational	-4958
mon	-4959
▁25	-4960
▁Em	-4961
▁Mac	-4962
▁1980	-4963
▁Cont	-4964
▁OECD	-4965
reement	-4966
▁aspect	-4967
▁prohib	-4968
▁weight	-4969
▁Italian	-4970
▁essentially	-4971
▁ideological	-4972
ery	-4973
-201	-4974
▁Reg	-4975
irect	-4976
▁Plan	-4977
▁arch	-4978
ultane	-4979
▁Human	-4980
through	-4981
▁condem	-4982
▁chemical	-4983
▁introduced	-4984
▁volatility	-4985
unis	-4986
▁exam	-4987
▁advis	-4988
cession	-4989
▁Jordan	-4990
▁paying	-4991
▁satisf	-4992
▁content	-4993
▁surprising	-4994
▁restrictions	-4995
rote	-4996
▁Bel	-4997
▁thr	-4998
▁via	-4999
inding	-5000
▁Never	-5001
▁votes	-5002
▁wider	-5003
▁surely	-5004
▁Beijing	-5005
▁Georgia	-5006
▁dialogue	-5007
▁targeted	-5008
▁practical	-5009
osn	-5010
▁Ah	-5011
▁lob	-5012
acing	-5013
being	-5014
▁Serb	-5015
▁wave	-5016
lected	-5017
▁1980’	-5018
▁norms	-5019
▁telev	-5020
▁Canada	-5021
▁prosec	-5022
▁carried	-5023
▁network	-5024
▁stagnation	-5025
my	-5026
▁1%	-5027
axim	-5028
▁eru	-5029
ether	-5030
igned	-5031
▁qual	-5032
▁wake	-5033
airman	-5034
estern	-5035
▁Tunis	-5036
▁cyber	-5037
▁liter	-5038
▁reass	-5039
▁rival	-5040
▁contem	-5041
▁resear	-5042
▁benefic	-5043
▁finding	-5044
▁strongly	-5045
▁Countries	-5046
▁evolution	-5047
▁regardless	-5048
▁accompanied	-5049
zb	-5050
bas	-5051
bert	-5052
▁die	-5053
▁crow	-5054
▁felt	-5055
▁birth	-5056
▁applic	-5057
▁observ	-5058
▁philos	-5059
▁exposed	-5060
▁someone	-5061
▁equality	-5062
▁proportion	-5063
9.	-5064
ns	-5065
how	-5066
debt	-5067
port	-5068
▁BER	-5069
▁Naz	-5070
▁lay	-5071
ament	-5072
▁Ange	-5073
lements	-5074
nership	-5075
▁origin	-5076
▁accompl	-5077
▁corrupt	-5078
▁Chancellor	-5079
▁innovative	-5080
▁entrepreneurs	-5081
EO	-5082
▁fem	-5083
ained	-5084
iders	-5085
known	-5086
▁Wall	-5087
crisis	-5088
▁2009,	-5089
▁linked	-5090
▁Nigeria	-5091
▁express	-5092
ineteenth	-5093
▁regarded	-5094
▁isolation	-5095
▁pressures	-5096
▁simultane	-5097
▁Governments	-5098
der	-5099
ole	-5100
ume	-5101
▁IS	-5102
▁PA	-5103
▁anx	-5104
▁irre	-5105
▁turm	-5106
▁2014,	-5107
▁board	-5108
▁Beyond	-5109
▁legacy	-5110
▁stress	-5111
▁turmoil	-5112
▁Russians	-5113
▁integrated	-5114
▁Nonetheless	-5115
NA	-5116
rid	-5117
▁13	-5118
cean	-5119
ifth	-5120
▁Car	-5121
▁tim	-5122
using	-5123
▁Jews	-5124
▁cong	-5125
▁emot	-5126
▁phen	-5127
▁wrote	-5128
Pacific	-5129
▁compete	-5130
▁operate	-5131
▁proceed	-5132
▁Israelis	-5133
▁deterior	-5134
▁reaching	-5135
▁supplies	-5136
▁suggested	-5137
▁transactions	-5138
▁sustainability	-5139
amb	-5140
bank	-5141
▁Mos	-5142
▁Unt	-5143
▁bol	-5144
▁vill	-5145
▁defin	-5146
▁bubbles	-5147
▁enabled	-5148
▁killing	-5149
▁transfers	-5150
▁Investment	-5151
▁previously	-5152
▁securities	-5153
▁instruments	-5154
2.	-5155
45	-5156
rue	-5157
free	-5158
▁Sud	-5159
▁Sup	-5160
cking	-5161
▁barg	-5162
▁alike	-5163
zbollah	-5164
▁served	-5165
▁calling	-5166
▁notably	-5167
▁realize	-5168
▁Egyptian	-5169
▁approaches	-5170
▁protecting	-5171
US	-5172
eth	-5173
rap	-5174
ches	-5175
inced	-5176
▁2013,	-5177
▁newsp	-5178
▁smart	-5179
▁adverse	-5180
▁autonom	-5181
▁capable	-5182
▁expense	-5183
▁species	-5184
▁concluded	-5185
▁contracts	-5186
▁solidarity	-5187
▁threatened	-5188
uit	-5189
ador	-5190
▁celeb	-5191
▁multi	-5192
▁staff	-5193
isingly	-5194
▁Recent	-5195
▁enhance	-5196
▁managers	-5197
▁standing	-5198
20	-5199
ola	-5200
arak	-5201
▁David	-5202
▁black	-5203
▁daily	-5204
▁Growth	-5205
▁latter	-5206
▁England	-5207
▁investing	-5208
▁seemingly	-5209
▁conclusion	-5210
▁obligations	-5211
▁capabilities	-5212
GO	-5213
ari	-5214
mosp	-5215
pric	-5216
sels	-5217
▁Aut	-5218
▁ver	-5219
▁cast	-5220
clical	-5221
rowing	-5222
▁Until	-5223
agement	-5224
▁slight	-5225
American	-5226
▁Supreme	-5227
▁initial	-5228
▁malaria	-5229
▁phenomen	-5230
▁appreciation	-5231
hab	-5232
▁40	-5233
ebru	-5234
▁BRI	-5235
▁Sin	-5236
▁wid	-5237
ecess	-5238
▁Summ	-5239
▁wors	-5240
▁logic	-5241
ebruary	-5242
ogether	-5243
▁humans	-5244
▁publicly	-5245
▁predecess	-5246
ownt	-5247
▁died	-5248
▁colon	-5249
▁doesn	-5250
▁father	-5251
▁libert	-5252
▁perpet	-5253
oubtedly	-5254
▁looking	-5255
▁survive	-5256
▁welcome	-5257
▁discover	-5258
▁elements	-5259
▁hospital	-5260
▁arguments	-5261
▁conducted	-5262
▁Partnership	-5263
iled	-5264
▁Mor	-5265
▁fat	-5266
▁quo	-5267
▁2011	-5268
▁iron	-5269
border	-5270
▁Again	-5271
▁downt	-5272
▁enabl	-5273
▁divers	-5274
▁extraord	-5275
▁Hezbollah	-5276
▁discrimin	-5277
▁operating	-5278
▁completely	-5279
▁engagement	-5280
▁reasonable	-5281
▁contributions	-5282
tax	-5283
udd	-5284
idel	-5285
ping	-5286
view	-5287
▁2014	-5288
▁rose	-5289
▁aging	-5290
▁newly	-5291
▁atmosp	-5292
▁secret	-5293
▁reaction	-5294
▁Christian	-5295
▁renewable	-5296
▁sentiment	-5297
▁transparent	-5298
Is	-5299
amed	-5300
uable	-5301
▁2013	-5302
▁fort	-5303
▁charge	-5304
▁spirit	-5305
function	-5306
▁budgets	-5307
▁disappe	-5308
▁February	-5309
▁ideology	-5310
▁coordination	-5311
rew	-5312
aded	-5313
rack	-5314
▁TPP	-5315
▁nav	-5316
▁dismiss	-5317
▁minimum	-5318
▁failures	-5319
▁withdrawal	-5320
▁substantially	-5321
7.	-5322
ux	-5323
duc	-5324
▁bur	-5325
▁tow	-5326
▁Asse	-5327
▁crime	-5328
ulating	-5329
▁package	-5330
▁disputes	-5331
▁humanity	-5332
▁reconcil	-5333
▁consistent	-5334
▁undermining	-5335
▁professional	-5336
hi	-5337
ahar	-5338
acher	-5339
▁micro	-5340
▁users	-5341
appoint	-5342
▁Sweden	-5343
▁harder	-5344
oriented	-5345
▁Defense	-5346
ressional	-5347
▁attempts	-5348
▁boosting	-5349
▁released	-5350
▁convinced	-5351
▁preventing	-5352
▁repeatedly	-5353
▁Furthermore	-5354
▁explanation	-5355
AR	-5356
▁60%	-5357
▁veh	-5358
▁born	-5359
ivered	-5360
▁apart	-5361
▁table	-5362
▁backed	-5363
▁weaker	-5364
▁pushing	-5365
▁nowadays	-5366
▁depression	-5367
▁undoubtedly	-5368
▁dictatorship	-5369
rog	-5370
▁16	-5371
ores	-5372
apore	-5373
▁brain	-5374
▁maxim	-5375
exchange	-5376
▁Colombia	-5377
▁destabil	-5378
▁examples	-5379
▁threaten	-5380
▁emergency	-5381
▁successor	-5382
▁inevitably	-5383
▁counterparts	-5384
DR	-5385
▁·	-5386
egu	-5387
son	-5388
▁60	-5389
book	-5390
leas	-5391
lete	-5392
ragm	-5393
▁burn	-5394
▁pret	-5395
▁sole	-5396
ubarak	-5397
▁Qaeda	-5398
▁polls	-5399
▁unity	-5400
▁Street	-5401
▁creates	-5402
▁wealthy	-5403
▁accounting	-5404
▁attractive	-5405
▁television	-5406
▁researchers	-5407
▁effectiveness	-5408
CC	-5409
icing	-5410
iforn	-5411
▁knew	-5412
arters	-5413
istrib	-5414
▁holds	-5415
▁index	-5416
▁jihad	-5417
▁Senate	-5418
▁barely	-5419
▁tariff	-5420
▁anticip	-5421
▁Assembly	-5422
▁announce	-5423
▁decisive	-5424
▁mortgage	-5425
▁surround	-5426
▁implementing	-5427
fare	-5428
osis	-5429
ables	-5430
▁magn	-5431
▁2015,	-5432
▁aspir	-5433
▁gives	-5434
▁twice	-5435
▁Spring	-5436
▁conven	-5437
European	-5438
▁witness	-5439
▁Californ	-5440
▁Portugal	-5441
▁computer	-5442
▁declined	-5443
▁delivered	-5444
▁demonstrate	-5445
▁negotiating	-5446
▁shareholders	-5447
bit	-5448
gas	-5449
▁Os	-5450
aust	-5451
▁clin	-5452
▁combat	-5453
▁placed	-5454
ifically	-5455
▁parents	-5456
▁downturn	-5457
▁Singapore	-5458
▁experiment	-5459
▁nineteenth	-5460
▁subsequent	-5461
dr	-5462
isp	-5463
▁5%	-5464
▁swe	-5465
ilipp	-5466
▁eyes	-5467
depend	-5468
▁absol	-5469
▁proced	-5470
▁rating	-5471
▁slowly	-5472
ffective	-5473
▁invasion	-5474
▁offering	-5475
▁dependent	-5476
ius	-5477
que	-5478
oned	-5479
▁Ant	-5480
▁ran	-5481
lades	-5482
▁Lead	-5483
iments	-5484
▁champ	-5485
▁delib	-5486
▁appeal	-5487
▁claimed	-5488
▁negotiate	-5489
▁producing	-5490
▁Add	-5491
▁Ear	-5492
▁vac	-5493
orted	-5494
▁alle	-5495
▁tour	-5496
rating	-5497
▁solar	-5498
▁south	-5499
▁Nether	-5500
▁ending	-5501
▁intent	-5502
▁Mubarak	-5503
▁Philipp	-5504
▁channel	-5505
▁Banglades	-5506
▁Pakistani	-5507
▁provision	-5508
▁guarantees	-5509
▁Netherlands	-5510
▁fundamentally	-5511
▁relationships	-5512
agan	-5513
▁$1.	-5514
▁pie	-5515
icles	-5516
▁Prog	-5517
▁peak	-5518
▁speed	-5519
theless	-5520
▁wonder	-5521
▁version	-5522
including	-5523
▁resulted	-5524
▁returned	-5525
▁happening	-5526
▁successfully	-5527
CE	-5528
tt	-5529
DGs	-5530
imb	-5531
ovo	-5532
▁Nic	-5533
gered	-5534
ivate	-5535
▁scar	-5536
pected	-5537
▁deals	-5538
▁tests	-5539
ishment	-5540
▁escape	-5541
▁sheets	-5542
▁transl	-5543
utrition	-5544
▁painful	-5545
▁advances	-5546
▁civilians	-5547
▁threatening	-5548
▁accountability	-5549
oes	-5550
resh	-5551
▁lag	-5552
agues	-5553
▁sacr	-5554
illenn	-5555
▁alarm	-5556
▁waste	-5557
connect	-5558
osition	-5559
▁actual	-5560
veraging	-5561
▁Germans	-5562
▁stories	-5563
▁enabling	-5564
▁replaced	-5565
▁demanding	-5566
▁statement	-5567
▁encouraged	-5568
▁dim	-5569
ilemm	-5570
unger	-5571
▁ball	-5572
urally	-5573
▁Blair	-5574
▁contrad	-5575
▁flexible	-5576
▁ambitions	-5577
▁customers	-5578
▁narrative	-5579
▁California	-5580
▁concerning	-5581
▁occupation	-5582
▁z	-5583
ami	-5584
uff	-5585
▁El	-5586
alin	-5587
odox	-5588
▁Kos	-5589
▁text	-5590
commun	-5591
▁Kenya	-5592
▁equip	-5593
▁lacks	-5594
▁pharm	-5595
▁divide	-5596
▁extend	-5597
▁joined	-5598
▁passed	-5599
▁fragile	-5600
▁prolong	-5601
▁university	-5602
▁compensation	-5603
▁interventions	-5604
8.	-5605
▁Eth	-5606
▁Pen	-5607
▁Sub	-5608
▁hom	-5609
▁fert	-5610
▁stre	-5611
▁wish	-5612
▁accur	-5613
▁voted	-5614
▁mobile	-5615
▁charges	-5616
▁comment	-5617
▁methods	-5618
▁weakened	-5619
▁executive	-5620
▁surpluses	-5621
▁retirement	-5622
na	-5623
▁alt	-5624
▁aud	-5625
▁obt	-5626
▁entit	-5627
▁skept	-5628
▁chronic	-5629
▁elector	-5630
▁reverse	-5631
▁multiple	-5632
▁properly	-5633
▁taxation	-5634
▁periphery	-5635
▁assessment	-5636
▁demographic	-5637
▁devastating	-5638
▁discussions	-5639
▁flexibility	-5640
▁improvement	-5641
?”	-5642
AD	-5643
II	-5644
...	-5645
▁fra	-5646
▁heads	-5647
▁pragm	-5648
ocratic	-5649
▁Energy	-5650
▁transm	-5651
▁warning	-5652
▁exercise	-5653
▁soldiers	-5654
▁acknowled	-5655
▁bankruptcy	-5656
▁frequently	-5657
▁$5	-5658
▁od	-5659
rant	-5660
▁25%	-5661
▁lie	-5662
itten	-5663
▁Bern	-5664
▁blam	-5665
▁word	-5666
resent	-5667
▁closed	-5668
▁Justice	-5669
▁Tunisia	-5670
▁applied	-5671
▁dominant	-5672
▁expanded	-5673
▁revealed	-5674
▁unwilling	-5675
▁Department	-5676
▁struggling	-5677
▁participate	-5678
▁contribution	-5679
40	-5680
isan	-5681
lock	-5682
size	-5683
▁hot	-5684
▁2005	-5685
▁Holl	-5686
▁White	-5687
▁rebal	-5688
▁Rights	-5689
▁Unlike	-5690
▁attrib	-5691
▁bodies	-5692
▁leaves	-5693
▁safegu	-5694
▁yields	-5695
reaching	-5696
▁illegal	-5697
▁inflows	-5698
▁sharing	-5699
▁weather	-5700
▁earnings	-5701
▁momentum	-5702
▁remember	-5703
▁atmosphere	-5704
▁confrontation	-5705
Es	-5706
ma	-5707
cri	-5708
body	-5709
▁Yes	-5710
ipped	-5711
sight	-5712
▁nine	-5713
utical	-5714
▁Peace	-5715
▁escal	-5716
▁false	-5717
▁helps	-5718
▁proven	-5719
▁unions	-5720
▁voting	-5721
▁warned	-5722
▁dispute	-5723
▁renewed	-5724
▁systemic	-5725
▁expressed	-5726
▁facilities	-5727
▁mainstream	-5728
▁undermined	-5729
▁consequence	-5730
▁simultaneously	-5731
IA	-5732
▁,	-5733
ctr	-5734
agen	-5735
rete	-5736
what	-5737
gment	-5738
▁hege	-5739
thirds	-5740
▁2007,	-5741
▁badly	-5742
▁coast	-5743
▁ruled	-5744
product	-5745
▁Malays	-5746
▁exclud	-5747
▁united	-5748
▁viable	-5749
ophistic	-5750
▁diverse	-5751
▁showing	-5752
▁extended	-5753
▁generated	-5754
▁depreciation	-5755
▁Dut	-5756
▁anc	-5757
▁Conf	-5758
▁Sudan	-5759
▁fails	-5760
▁posed	-5761
▁courts	-5762
▁pointed	-5763
▁worried	-5764
▁downward	-5765
▁shifting	-5766
▁ultimate	-5767
▁journalists	-5768
▁breakthrough	-5769
GDP	-5770
rees	-5771
vard	-5772
ellow	-5773
▁Hist	-5774
▁hero	-5775
▁absorb	-5776
▁rarely	-5777
▁rulers	-5778
▁saying	-5779
▁wisdom	-5780
▁debates	-5781
▁variety	-5782
▁balanced	-5783
▁Brotherhood	-5784
now	-5785
rum	-5786
▁Are	-5787
anmar	-5788
▁Modi	-5789
▁adult	-5790
▁facts	-5791
▁cooper	-5792
▁strike	-5793
▁volunt	-5794
▁Spanish	-5795
▁comfort	-5796
▁managing	-5797
▁dominated	-5798
▁purchasing	-5799
▁participants	-5800
9%	-5801
zz	-5802
▁Sm	-5803
addam	-5804
inate	-5805
▁Bill	-5806
▁diver	-5807
▁loyal	-5808
▁plant	-5809
▁acting	-5810
outheast	-5811
▁Holland	-5812
▁Whether	-5813
▁nominal	-5814
▁pursued	-5815
▁stopped	-5816
▁original	-5817
▁component	-5818
▁facilitate	-5819
▁engineering	-5820
▁consistently	-5821
afi	-5822
work	-5823
▁App	-5824
▁Cop	-5825
democ	-5826
▁2008.	-5827
▁aside	-5828
▁phase	-5829
▁buying	-5830
▁friend	-5831
▁notion	-5832
▁opened	-5833
▁retail	-5834
▁sexual	-5835
▁shares	-5836
▁centers	-5837
▁missile	-5838
intensive	-5839
▁approval	-5840
▁reliable	-5841
▁sophistic	-5842
▁succeeded	-5843
▁innovations	-5844
▁consolidation	-5845
oon	-5846
▁aw	-5847
▁Bol	-5848
ommod	-5849
▁uses	-5850
▁zone	-5851
▁chaos	-5852
▁image	-5853
▁reput	-5854
▁Market	-5855
▁advice	-5856
▁brutal	-5857
▁rescue	-5858
▁survey	-5859
▁disorder	-5860
▁patterns	-5861
▁displaced	-5862
▁responses	-5863
▁weakening	-5864
▁Bangladesh	-5865
▁progressive	-5866
TA	-5867
ao	-5868
ura	-5869
▁4.	-5870
▁ast	-5871
▁hab	-5872
▁forg	-5873
ailand	-5874
▁2001,	-5875
▁usual	-5876
▁white	-5877
▁Kosovo	-5878
▁depart	-5879
▁marked	-5880
interest	-5881
▁Myanmar	-5882
▁ethical	-5883
aceutical	-5884
▁educated	-5885
▁borrowers	-5886
▁redistrib	-5887
▁similarly	-5888
▁imperative	-5889
▁representatives	-5890
RIS	-5891
cow	-5892
olar	-5893
▁Pet	-5894
▁sem	-5895
apers	-5896
oples	-5897
▁ally	-5898
▁wait	-5899
▁Abbas	-5900
▁kinds	-5901
ulative	-5902
▁Agency	-5903
▁brings	-5904
▁raises	-5905
▁refused	-5906
▁absolute	-5907
▁globally	-5908
▁imperial	-5909
▁valuable	-5910
▁triggered	-5911
▁Nevertheless	-5912
mpt	-5913
oto	-5914
▁rig	-5915
eping	-5916
inded	-5917
▁High	-5918
▁True	-5919
ashion	-5920
igrant	-5921
▁write	-5922
▁Angela	-5923
▁bigger	-5924
▁mental	-5925
▁eastern	-5926
▁Thailand	-5927
▁damaging	-5928
▁communism	-5929
▁disappoint	-5930
▁maintained	-5931
▁challenging	-5932
▁overwhelming	-5933
▁strengthened	-5934
aut	-5935
onia	-5936
oted	-5937
▁80%	-5938
▁doz	-5939
integ	-5940
itect	-5941
▁Free	-5942
▁evident	-5943
▁fulfill	-5944
▁ignored	-5945
▁Institute	-5946
▁background	-5947
▁colleagues	-5948
▁influential	-5949
soc	-5950
▁3%	-5951
cker	-5952
point	-5953
▁Spec	-5954
▁dark	-5955
▁runs	-5956
ptions	-5957
ranean	-5958
▁drawn	-5959
▁fresh	-5960
▁guide	-5961
▁broadly	-5962
▁streets	-5963
▁mobility	-5964
▁purchase	-5965
▁responded	-5966
BO	-5967
ley	-5968
adic	-5969
ball	-5970
▁70%	-5971
▁Much	-5972
ection	-5973
irable	-5974
rights	-5975
▁match	-5976
▁Author	-5977
▁Berlin	-5978
▁Church	-5979
▁thanks	-5980
▁trials	-5981
▁Hungary	-5982
▁accommod	-5983
▁initially	-5984
▁stimulate	-5985
▁workforce	-5986
▁accelerate	-5987
▁minorities	-5988
▁supposedly	-5989
▁considerably	-5990
oor	-5991
xic	-5992
▁Cur	-5993
▁brid	-5994
▁reck	-5995
00,000	-5996
asters	-5997
astrop	-5998
estate	-5999
▁Dutch	-6000
termath	-6001
▁Moscow	-6002
▁Robert	-6003
▁decent	-6004
▁gather	-6005
▁propag	-6006
▁artific	-6007
▁academic	-6008
▁populism	-6009
▁aftermath	-6010
▁diversity	-6011
▁equipment	-6012
▁obstacles	-6013
▁phenomenon	-6014
▁provisions	-6015
▁inefficient	-6016
▁transformed	-6017
ika	-6018
ips	-6019
iced	-6020
orsi	-6021
pper	-6022
bling	-6023
▁fourth	-6024
▁plenty	-6025
▁traged	-6026
▁Pacific	-6027
▁annivers	-6028
iterranean	-6029
▁architect	-6030
▁carefully	-6031
▁governing	-6032
▁inclusion	-6033
▁acknowledge	-6034
▁difficulties	-6035
▁characterized	-6036
▁je	-6037
▁wa	-6038
lish	-6039
omin	-6040
▁pict	-6041
▁rout	-6042
▁Roman	-6043
▁north	-6044
▁noted	-6045
▁voice	-6046
▁Saddam	-6047
▁superv	-6048
▁substit	-6049
▁appeared	-6050
▁deposits	-6051
▁separate	-6052
▁benefited	-6053
▁revolutionary	-6054
ett	-6055
oked	-6056
▁Jer	-6057
▁older	-6058
▁overh	-6059
▁alleged	-6060
▁gradual	-6061
▁believes	-6062
▁catastrop	-6063
▁unilateral	-6064
▁Philippines	-6065
EA	-6066
beit	-6067
orld	-6068
pass	-6069
▁lab	-6070
▁tri	-6071
chang	-6072
enced	-6073
icial	-6074
oning	-6075
style	-6076
▁1970	-6077
▁Bash	-6078
▁City	-6079
▁aims	-6080
▁blow	-6081
▁enth	-6082
▁epid	-6083
ounded	-6084
ussels	-6085
▁recip	-6086
▁Should	-6087
▁manner	-6088
▁justify	-6089
▁realistic	-6090
▁extremists	-6091
▁complicated	-6092
▁pharmaceutical	-6093
uan	-6094
▁Cr	-6095
▁Cz	-6096
iver	-6097
oods	-6098
▁Abd	-6099
▁bra	-6100
▁fle	-6101
agger	-6102
efore	-6103
▁Educ	-6104
▁cars	-6105
▁drag	-6106
▁eval	-6107
▁send	-6108
▁polar	-6109
▁types	-6110
▁dilemm	-6111
▁hunger	-6112
▁Harvard	-6113
▁consult	-6114
▁concrete	-6115
▁estimate	-6116
▁focusing	-6117
▁controlled	-6118
▁repression	-6119
▁involvement	-6120
▁Mediterranean	-6121
ked	-6122
osy	-6123
▁Mu	-6124
▁Red	-6125
icism	-6126
▁Four	-6127
▁shut	-6128
establ	-6129
growth	-6130
▁Morsi	-6131
▁surge	-6132
illance	-6133
▁broken	-6134
▁island	-6135
▁shadow	-6136
▁strict	-6137
▁accused	-6138
▁dealing	-6139
▁greatly	-6140
▁profess	-6141
▁selling	-6142
▁teacher	-6143
▁mistakes	-6144
▁foundation	-6145
▁presidents	-6146
▁prosperous	-6147
▁discrimination	-6148
she	-6149
▁Ban	-6150
▁Lab	-6151
▁Moh	-6152
▁Sal	-6153
▁Som	-6154
▁ded	-6155
price	-6156
▁2004	-6157
▁None	-6158
▁pure	-6159
▁unex	-6160
health	-6161
▁Forum	-6162
▁sympt	-6163
▁Reagan	-6164
▁famous	-6165
▁stocks	-6166
▁capture	-6167
▁discoura	-6168
▁recommend	-6169
▁commission	-6170
▁statements	-6171
▁neighboring	-6172
▁alternatives	-6173
▁unconventional	-6174
cost	-6175
ifies	-6176
otics	-6177
▁insu	-6178
▁loan	-6179
▁suic	-6180
▁wild	-6181
itudes	-6182
▁Board	-6183
▁estate	-6184
▁outbre	-6185
▁assumed	-6186
▁dangers	-6187
▁treated	-6188
▁coverage	-6189
▁distingu	-6190
▁imposing	-6191
▁inherent	-6192
▁occasion	-6193
▁Agreement	-6194
▁materials	-6195
▁organized	-6196
▁ownership	-6197
▁protected	-6198
▁identified	-6199
▁improvements	-6200
fol	-6201
ibi	-6202
iang	-6203
prof	-6204
serv	-6205
▁CEO	-6206
▁Fat	-6207
▁Mao	-6208
▁neo	-6209
idden	-6210
▁Burm	-6211
▁ease	-6212
▁gets	-6213
▁onto	-6214
▁wall	-6215
▁cells	-6216
▁night	-6217
▁print	-6218
develop	-6219
▁chains	-6220
▁donors	-6221
▁female	-6222
▁oppose	-6223
▁paralle	-6224
▁attempting	-6225
▁indicators	-6226
jad	-6227
olf	-6228
odes	-6229
▁Bas	-6230
▁Mah	-6231
rency	-6232
▁2006	-6233
▁Cuba	-6234
▁1970’	-6235
▁arbit	-6236
▁repay	-6237
▁storm	-6238
respons	-6239
▁Change	-6240
▁Resear	-6241
▁retain	-6242
▁tackle	-6243
▁unders	-6244
atlantic	-6245
▁English	-6246
▁forcing	-6247
▁grounds	-6248
▁Brussels	-6249
▁emphasis	-6250
▁invested	-6251
▁preserve	-6252
▁slightly	-6253
▁presented	-6254
▁regarding	-6255
▁advantages	-6256
▁anniversary	-6257
▁extraordinary	-6258
▁modernization	-6259
ocol	-6260
▁Den	-6261
▁Her	-6262
▁Mad	-6263
iking	-6264
▁Hill	-6265
▁didn	-6266
▁unst	-6267
▁heard	-6268
▁argues	-6269
▁enthus	-6270
▁resort	-6271
▁sooner	-6272
▁Conserv	-6273
▁generous	-6274
▁Authority	-6275
▁discipline	-6276
▁generating	-6277
▁meaningful	-6278
▁negotiated	-6279
▁partnerships	-6280
▁policymaking	-6281
bod	-6282
def	-6283
lum	-6284
▁6.	-6285
indu	-6286
oles	-6287
real	-6288
soft	-6289
▁hyp	-6290
▁irr	-6291
▁outl	-6292
▁rock	-6293
addafi	-6294
lessly	-6295
▁Clear	-6296
▁Goals	-6297
▁doctr	-6298
▁minds	-6299
enhagen	-6300
▁height	-6301
▁poorer	-6302
▁Kurdish	-6303
▁privile	-6304
▁perception	-6305
▁functioning	-6306
▁experiencing	-6307
▁insufficient	-6308
▁sophisticated	-6309
We	-6310
ko	-6311
ein	-6312
itz	-6313
ugg	-6314
band	-6315
▁Who	-6316
▁mus	-6317
▁desp	-6318
▁prox	-6319
▁star	-6320
osystem	-6321
▁Through	-6322
▁illness	-6323
▁patient	-6324
▁indicate	-6325
▁reversed	-6326
▁Southeast	-6327
▁involving	-6328
▁predicted	-6329
▁compelling	-6330
kan	-6331
face	-6332
ruit	-6333
▁Bet	-6334
▁Che	-6335
▁Law	-6336
▁Let	-6337
opard	-6338
▁AIDS	-6339
▁Rich	-6340
▁seas	-6341
▁wise	-6342
▁PARIS	-6343
▁abuse	-6344
▁Stalin	-6345
▁enemies	-6346
▁entered	-6347
▁winning	-6348
▁Atlantic	-6349
▁informal	-6350
▁limiting	-6351
▁measured	-6352
▁somewhat	-6353
▁intention	-6354
▁prominent	-6355
▁reluctant	-6356
▁Copenhagen	-6357
▁impressive	-6358
▁internationally	-6359
AI	-6360
ima	-6361
win	-6362
▁Ir	-6363
rors	-6364
▁Chá	-6365
▁kil	-6366
▁spl	-6367
▁Shar	-6368
▁indu	-6369
▁moves	-6370
▁risen	-6371
ressing	-6372
▁openly	-6373
▁overse	-6374
▁scheme	-6375
▁Malaysia	-6376
▁prolonged	-6377
▁secondary	-6378
▁resilience	-6379
Ass	-6380
ebt	-6381
kin	-6382
vez	-6383
▁$7	-6384
qual	-6385
stan	-6386
unch	-6387
▁fun	-6388
▁hur	-6389
China	-6390
Sahar	-6391
claim	-6392
ebted	-6393
iliar	-6394
▁2016	-6395
▁Char	-6396
▁tort	-6397
▁2005,	-6398
▁2015.	-6399
▁Czech	-6400
▁crash	-6401
▁seats	-6402
Saharan	-6403
perform	-6404
▁Public	-6405
▁privat	-6406
▁fueling	-6407
▁prepare	-6408
▁slowing	-6409
inational	-6410
▁approved	-6411
▁creative	-6412
▁mitigate	-6413
▁mounting	-6414
▁numerous	-6415
▁Political	-6416
▁construct	-6417
▁employers	-6418
▁ourselves	-6419
▁apparently	-6420
▁statistics	-6421
acco	-6422
comp	-6423
osen	-6424
roll	-6425
▁Big	-6426
▁hed	-6427
▁pet	-6428
essim	-6429
▁pipe	-6430
▁prud	-6431
▁sect	-6432
gently	-6433
thodox	-6434
▁BRICS	-6435
▁Nuclear	-6436
▁animals	-6437
▁careful	-6438
▁gaining	-6439
▁peoples	-6440
▁routine	-6441
▁requiring	-6442
▁threatens	-6443
▁expression	-6444
▁surprisingly	-6445
▁14	-6446
▁Im	-6447
rect	-6448
▁90%	-6449
▁Hit	-6450
Assad	-6451
▁pose	-6452
iously	-6453
▁Among	-6454
▁Front	-6455
▁anger	-6456
▁penal	-6457
▁scand	-6458
▁watch	-6459
veraged	-6460
▁decreas	-6461
▁jeopard	-6462
▁possess	-6463
▁spectac	-6464
▁suddenly	-6465
▁urgently	-6466
▁collapsed	-6467
▁comparable	-6468
▁guaranteed	-6469
▁unemployed	-6470
▁protectionism	-6471
45;	-6472
cut	-6473
imp	-6474
iox	-6475
▁Li	-6476
outs	-6477
▁avo	-6478
athol	-6479
▁$100	-6480
▁Somal	-6481
▁Chávez	-6482
▁resent	-6483
▁rooted	-6484
▁lasting	-6485
▁removed	-6486
▁written	-6487
▁monopoly	-6488
▁straight	-6489
▁underest	-6490
▁destroyed	-6491
▁extremism	-6492
▁obviously	-6493
▁operation	-6494
▁assumption	-6495
▁achievement	-6496
▁problematic	-6497
▁expenditures	-6498
▁surveillance	-6499
▁controversial	-6500
NP	-6501
len	-6502
yan	-6503
▁Eb	-6504
ests	-6505
lymp	-6506
▁Dar	-6507
▁Imp	-6508
▁Jin	-6509
▁meg	-6510
inger	-6511
unity	-6512
▁Back	-6513
▁Coop	-6514
▁pill	-6515
driven	-6516
▁enlar	-6517
▁falls	-6518
▁manif	-6519
▁postp	-6520
▁inside	-6521
▁paraly	-6522
▁slower	-6523
▁avoided	-6524
▁implicit	-6525
▁meetings	-6526
▁outright	-6527
▁dependence	-6528
▁proliferation	-6529
fe	-6530
alf	-6531
och	-6532
▁Ac	-6533
eted	-6534
hani	-6535
opia	-6536
ruck	-6537
▁Ric	-6538
▁gun	-6539
▁son	-6540
place	-6541
utral	-6542
▁tens	-6543
urance	-6544
▁backl	-6545
▁happy	-6546
▁imply	-6547
▁links	-6548
▁refer	-6549
▁simpl	-6550
rations	-6551
▁caught	-6552
▁unfair	-6553
▁Clearly	-6554
▁backing	-6555
▁doctors	-6556
▁intense	-6557
▁portfol	-6558
▁strikes	-6559
▁Hollande	-6560
▁sensible	-6561
▁severely	-6562
▁Stability	-6563
▁aspirations	-6564
▁manipulation	-6565
cell	-6566
ilib	-6567
ogle	-6568
reen	-6569
▁191	-6570
▁cate	-6571
▁fill	-6572
iances	-6573
icking	-6574
minded	-6575
rained	-6576
▁1930’	-6577
▁Fatah	-6578
▁Corpor	-6579
▁albeit	-6580
▁asylum	-6581
▁attend	-6582
▁paradox	-6583
▁rightly	-6584
▁autonomy	-6585
▁distinct	-6586
▁Education	-6587
▁Islamists	-6588
▁expertise	-6589
governmental	-6590
▁liabilities	-6591
emb	-6592
▁1,	-6593
rity	-6594
ourse	-6595
▁dele	-6596
▁terr	-6597
inejad	-6598
▁Ahmad	-6599
▁Inter	-6600
▁Three	-6601
▁genoc	-6602
▁Before	-6603
▁Hitler	-6604
▁Labour	-6605
▁Others	-6606
▁Serbia	-6607
▁couple	-6608
▁dispar	-6609
▁exists	-6610
▁fields	-6611
▁Francis	-6612
▁deposit	-6613
▁granted	-6614
▁planned	-6615
▁release	-6616
▁tragedy	-6617
inflation	-6618
roportion	-6619
▁avoiding	-6620
▁openness	-6621
▁Democracy	-6622
▁persistent	-6623
▁importantly	-6624
▁reconciliation	-6625
aus	-6626
lor	-6627
▁Del	-6628
▁Inc	-6629
▁You	-6630
hered	-6631
▁Init	-6632
▁epis	-6633
▁unit	-6634
rading	-6635
tering	-6636
▁Olymp	-6637
▁Cathol	-6638
▁belong	-6639
▁eradic	-6640
▁explos	-6641
▁poorly	-6642
▁spring	-6643
▁citizen	-6644
▁empower	-6645
▁picture	-6646
▁traffic	-6647
▁constant	-6648
▁pressing	-6649
▁volatile	-6650
▁Keynesian	-6651
▁intervene	-6652
▁contradict	-6653
▁catastrophe	-6654
▁contributing	-6655
);	-6656
lu	-6657
me	-6658
tr	-6659
sun	-6660
agon	-6661
▁PRI	-6662
▁hyd	-6663
▁yen	-6664
emics	-6665
▁acts	-6666
▁hear	-6667
▁Ebola	-6668
▁books	-6669
▁conce	-6670
▁sites	-6671
▁toxic	-6672
▁agency	-6673
▁define	-6674
▁shifts	-6675
▁talent	-6676
▁Mexican	-6677
▁feeling	-6678
▁abandoned	-6679
▁advocates	-6680
▁dominance	-6681
▁ecosystem	-6682
▁mortgages	-6683
▁affordable	-6684
▁electorate	-6685
▁Sustainable	-6686
▁contraction	-6687
▁devaluation	-6688
fire	-6689
▁Art	-6690
omics	-6691
party	-6692
▁vent	-6693
uction	-6694
▁Frank	-6695
▁Group	-6696
▁eager	-6697
▁overt	-6698
▁seeks	-6699
▁Google	-6700
▁struck	-6701
illennium	-6702
▁reliance	-6703
▁exporters	-6704
▁inability	-6705
▁prevented	-6706
▁commodities	-6707
▁expenditure	-6708
▁represented	-6709
▁neighborhood	-6710
atar	-6711
onds	-6712
owed	-6713
phic	-6714
▁Hol	-6715
atism	-6716
▁Ethi	-6717
▁Sand	-6718
▁rail	-6719
▁tele	-6720
othing	-6721
utives	-6722
▁arise	-6723
▁categ	-6724
▁cease	-6725
ortions	-6726
▁murder	-6727
▁convers	-6728
▁missing	-6729
▁anywhere	-6730
▁claiming	-6731
▁resolved	-6732
▁acceptable	-6733
▁concentrated	-6734
gs	-6735
▁[	-6736
ara	-6737
bed	-6738
▁Zh	-6739
olas	-6740
▁Far	-6741
▁bit	-6742
▁cul	-6743
asive	-6744
riage	-6745
▁Gold	-6746
▁puts	-6747
▁trap	-6748
▁Bashar	-6749
▁asking	-6750
▁enrich	-6751
▁waters	-6752
▁Jinping	-6753
▁erupted	-6754
▁testing	-6755
▁vaccines	-6756
▁coordinated	-6757
."	-6758
CP	-6759
cel	-6760
roc	-6761
▁21	-6762
iest	-6763
iful	-6764
▁192	-6765
▁Army	-6766
▁Bosn	-6767
▁hurt	-6768
Palest	-6769
▁signal	-6770
▁triump	-6771
▁courage	-6772
▁element	-6773
▁immense	-6774
▁analysts	-6775
▁backlash	-6776
▁financed	-6777
▁activists	-6778
▁campaigns	-6779
▁connected	-6780
▁residents	-6781
▁stabilize	-6782
▁Conference	-6783
▁procedures	-6784
adv	-6785
pan	-6786
▁eg	-6787
atri	-6788
▁ang	-6789
▁dys	-6790
▁une	-6791
▁grid	-6792
▁sequ	-6793
▁2006,	-6794
▁Alger	-6795
▁catch	-6796
▁chose	-6797
▁feature	-6798
▁constitu	-6799
▁features	-6800
▁pensions	-6801
▁supports	-6802
▁vehicles	-6803
▁populists	-6804
▁Convention	-6805
▁reductions	-6806
▁disproportion	-6807
hy	-6808
arr	-6809
bor	-6810
ois	-6811
osm	-6812
aker	-6813
icon	-6814
▁mag	-6815
▁Shan	-6816
▁bloc	-6817
▁inher	-6818
▁antibi	-6819
▁headed	-6820
▁judges	-6821
▁unrest	-6822
▁Denmark	-6823
▁undersc	-6824
▁Research	-6825
▁colonial	-6826
▁finances	-6827
▁underway	-6828
▁communist	-6829
▁motivated	-6830
▁philosoph	-6831
▁Government	-6832
▁executives	-6833
▁foreigners	-6834
bl	-6835
ils	-6836
ple	-6837
uls	-6838
ctic	-6839
hand	-6840
ught	-6841
▁15%	-6842
▁Off	-6843
▁slo	-6844
▁wal	-6845
urers	-6846
▁Scot	-6847
▁feas	-6848
▁intr	-6849
▁pool	-6850
usalem	-6851
▁2000,	-6852
▁2010.	-6853
▁Found	-6854
▁blind	-6855
▁check	-6856
▁enemy	-6857
▁forth	-6858
oration	-6859
▁empire	-6860
▁sacrif	-6861
▁weapon	-6862
▁Finance	-6863
▁dropped	-6864
▁vaccine	-6865
struction	-6866
▁realized	-6867
▁confident	-6868
▁interested	-6869
▁accountable	-6870
▁convergence	-6871
▁Constitution	-6872
▁multinational	-6873
▁communications	-6874
AV	-6875
CA	-6876
alog	-6877
athy	-6878
coni	-6879
▁cop	-6880
▁Face	-6881
▁Shin	-6882
▁ends	-6883
▁pick	-6884
iaries	-6885
▁Medic	-6886
▁alien	-6887
▁laure	-6888
astrous	-6889
▁Norway	-6890
▁Polish	-6891
▁advert	-6892
▁driver	-6893
▁regist	-6894
▁select	-6895
chnology	-6896
▁chances	-6897
▁pursuit	-6898
▁adopting	-6899
▁disinteg	-6900
▁dominate	-6901
▁striking	-6902
▁disastrous	-6903
▁respectively	-6904
ikh	-6905
▁5.	-6906
▁BR	-6907
ibet	-6908
ixon	-6909
lets	-6910
rium	-6911
usse	-6912
▁WTO	-6913
▁sun	-6914
▁lawy	-6915
▁quot	-6916
▁acute	-6917
▁deleg	-6918
▁pound	-6919
▁valid	-6920
iations	-6921
ilitary	-6922
sharing	-6923
ultural	-6924
▁Macron	-6925
▁Unless	-6926
▁presum	-6927
▁Hillary	-6928
▁arguing	-6929
▁aspects	-6930
▁disagree	-6931
▁geograph	-6932
▁targeting	-6933
▁arrangement	-6934
▁rebalancing	-6935
asp	-6936
sen	-6937
born	-6938
enei	-6939
▁Rou	-6940
▁map	-6941
▁mos	-6942
▁ISIS	-6943
▁Kham	-6944
▁symp	-6945
▁warn	-6946
ioxide	-6947
opular	-6948
▁Arabs	-6949
▁giant	-6950
▁hoped	-6951
▁poses	-6952
▁route	-6953
▁shale	-6954
▁calcul	-6955
▁foster	-6956
▁refuse	-6957
▁anxiety	-6958
▁Khamenei	-6959
▁Scotland	-6960
▁actively	-6961
▁balances	-6962
▁superior	-6963
▁Jerusalem	-6964
▁attitudes	-6965
▁platforms	-6966
▁projected	-6967
▁realities	-6968
▁politician	-6969
▁propaganda	-6970
▁Cooperation	-6971
▁confronting	-6972
▁enforcement	-6973
▁(1	-6974
▁Gh	-6975
anke	-6976
ghai	-6977
prus	-6978
▁Pan	-6979
egoti	-6980
itzer	-6981
▁date	-6982
▁exem	-6983
▁tons	-6984
icians	-6985
▁Somet	-6986
▁expos	-6987
▁roads	-6988
▁turns	-6989
▁Strate	-6990
▁formed	-6991
▁remote	-6992
▁ancient	-6993
▁cheaper	-6994
▁display	-6995
▁disturb	-6996
connected	-6997
▁Chairman	-6998
▁channels	-6999
▁conclude	-7000
▁doctrine	-7001
government	-7002
▁Ukrainian	-7003
▁alliances	-7004
▁awareness	-7005
▁competing	-7006
▁sectarian	-7007
▁beneficial	-7008
▁monitoring	-7009
▁reinforced	-7010
SA	-7011
ek	-7012
akh	-7013
▁Qu	-7014
mony	-7015
omed	-7016
&#45;	-7017
redit	-7018
▁Deng	-7019
▁code	-7020
▁love	-7021
invest	-7022
▁Fried	-7023
▁Green	-7024
▁Tibet	-7025
▁plays	-7026
▁remed	-7027
▁stark	-7028
▁Romney	-7029
▁inject	-7030
▁overth	-7031
▁pessim	-7032
▁ratios	-7033
▁uphold	-7034
▁assault	-7035
▁Shanghai	-7036
▁division	-7037
▁Represent	-7038
▁accession	-7039
▁committee	-7040
▁explained	-7041
▁reputation	-7042
▁constrained	-7043
▁dysfunction	-7044
▁recognizing	-7045
▁achievements	-7046
▁contemporary	-7047
IP	-7048
▁cab	-7049
archy	-7050
arraf	-7051
enses	-7052
ollar	-7053
▁dign	-7054
▁door	-7055
▁fasc	-7056
adjust	-7057
econom	-7058
▁chain	-7059
▁facto	-7060
▁novel	-7061
lusconi	-7062
▁Cyprus	-7063
▁honest	-7064
▁revive	-7065
▁volume	-7066
usharraf	-7067
▁fashion	-7068
▁lenders	-7069
▁outlook	-7070
▁somehow	-7071
▁visible	-7072
▁convince	-7073
▁famously	-7074
▁divisions	-7075
▁introduce	-7076
▁Berlusconi	-7077
▁bureaucracy	-7078
▁predictable	-7079
▁announcement	-7080
bur	-7081
ache	-7082
cles	-7083
▁Aff	-7084
▁Dis	-7085
▁exh	-7086
ashed	-7087
▁2001	-7088
▁film	-7089
▁tsun	-7090
▁Burma	-7091
▁Kurds	-7092
▁Qatar	-7093
▁grave	-7094
▁haven	-7095
▁saved	-7096
▁spill	-7097
▁Cambod	-7098
▁contag	-7099
▁fought	-7100
▁recall	-7101
▁stated	-7102
▁deserve	-7103
▁foresee	-7104
▁prefere	-7105
▁purposes	-7106
▁alongside	-7107
▁supervision	-7108
▁vulnerability	-7109
va	-7110
ELE	-7111
mor	-7112
▁4%	-7113
amin	-7114
erry	-7115
kers	-7116
ooth	-7117
▁DNA	-7118
▁NGO	-7119
ishes	-7120
scape	-7121
▁halt	-7122
▁lobb	-7123
▁melt	-7124
▁veto	-7125
backed	-7126
redict	-7127
▁Nixon	-7128
▁Power	-7129
▁ranks	-7130
▁stood	-7131
reshold	-7132
▁Greens	-7133
idelines	-7134
lessness	-7135
▁Switzer	-7136
▁earthqu	-7137
▁triumph	-7138
▁accurate	-7139
▁judgment	-7140
▁machines	-7141
▁desperate	-7142
▁favorable	-7143
▁reinforce	-7144
▁likelihood	-7145
▁Switzerland	-7146
▁fundamentals	-7147
▁communication	-7148
CT	-7149
OS	-7150
fund	-7151
▁Out	-7152
▁Rel	-7153
▁los	-7154
▁upg	-7155
▁Jean	-7156
▁coun	-7157
▁plun	-7158
insula	-7159
ounced	-7160
▁2011.	-7161
▁Earth	-7162
▁brief	-7163
▁crack	-7164
▁honor	-7165
▁innoc	-7166
▁forest	-7167
▁richer	-7168
▁upward	-7169
▁Against	-7170
▁periods	-7171
▁preserv	-7172
▁schemes	-7173
▁Bernanke	-7174
▁directed	-7175
▁explains	-7176
▁medicine	-7177
▁missiles	-7178
▁treaties	-7179
▁disasters	-7180
▁discussed	-7181
▁extensive	-7182
▁principal	-7183
▁receiving	-7184
▁complement	-7185
▁optimistic	-7186
▁foundations	-7187
▁traditionally	-7188
eds	-7189
ini	-7190
▁hub	-7191
astic	-7192
eting	-7193
inite	-7194
▁Belg	-7195
▁cens	-7196
▁deny	-7197
racted	-7198
urable	-7199
▁Summit	-7200
ilibrium	-7201
▁skilled	-7202
▁talking	-7203
▁adoption	-7204
▁complain	-7205
▁familiar	-7206
▁persuade	-7207
▁produces	-7208
controlled	-7209
▁Ahmadinejad	-7210
▁eliminating	-7211
▁legislative	-7212
hr	-7213
oo	-7214
new	-7215
▁Hu	-7216
uate	-7217
uity	-7218
uris	-7219
▁Ann	-7220
▁Kar	-7221
▁glo	-7222
▁inj	-7223
polit	-7224
▁curb	-7225
▁fool	-7226
▁vary	-7227
orship	-7228
▁consc	-7229
▁insol	-7230
▁panic	-7231
▁begins	-7232
▁denied	-7233
▁fairly	-7234
▁flight	-7235
▁plural	-7236
▁details	-7237
▁dilemma	-7238
▁distant	-7239
▁suicide	-7240
▁champion	-7241
▁indebted	-7242
▁Musharraf	-7243
▁sensitive	-7244
▁wellbeing	-7245
▁Industrial	-7246
▁difficulty	-7247
▁weaknesses	-7248
▁sufficiently	-7249
IT	-7250
It	-7251
zo	-7252
iev	-7253
lav	-7254
ding	-7255
▁11,	-7256
▁ble	-7257
erman	-7258
▁2003	-7259
▁Jong	-7260
▁rent	-7261
▁sets	-7262
▁unus	-7263
ailing	-7264
▁Worse	-7265
▁judge	-7266
▁rigid	-7267
istical	-7268
▁abuses	-7269
▁adding	-7270
▁fellow	-7271
▁looked	-7272
▁memory	-7273
▁relies	-7274
election	-7275
▁Capital	-7276
▁classes	-7277
▁premium	-7278
▁waiting	-7279
▁Facebook	-7280
▁attitude	-7281
▁demanded	-7282
▁mobilize	-7283
▁steadily	-7284
▁upcoming	-7285
▁justified	-7286
▁threshold	-7287
▁Millennium	-7288
jud	-7289
zed	-7290
▁Bh	-7291
▁Gü	-7292
cend	-7293
rand	-7294
▁Ren	-7295
▁cas	-7296
▁dub	-7297
water	-7298
▁Pers	-7299
▁duty	-7300
▁subm	-7301
▁2004,	-7302
▁2013.	-7303
▁Husse	-7304
▁Kyoto	-7305
▁donor	-7306
▁genes	-7307
▁hedge	-7308
▁lived	-7309
▁plumm	-7310
▁career	-7311
▁circle	-7312
▁street	-7313
▁binding	-7314
▁convinc	-7315
▁tariffs	-7316
▁Thatcher	-7317
▁declines	-7318
▁feasible	-7319
▁attempted	-7320
▁shortages	-7321
▁appreciate	-7322
▁discovered	-7323
ey	-7324
sey	-7325
ums	-7326
aunt	-7327
▁Xia	-7328
elect	-7329
▁Bret	-7330
▁Fran	-7331
▁deem	-7332
▁luck	-7333
active	-7334
holder	-7335
▁abund	-7336
▁gross	-7337
▁merit	-7338
▁resur	-7339
essions	-7340
▁invent	-7341
building	-7342
▁enacted	-7343
▁follows	-7344
▁neutral	-7345
▁tension	-7346
astrophic	-7347
▁accident	-7348
▁dynamics	-7349
▁observed	-7350
▁overseas	-7351
▁proclaim	-7352
▁unstable	-7353
▁followers	-7354
▁shortfall	-7355
▁explicitly	-7356
▁interdepend	-7357
▁congressional	-7358
HI	-7359
occ	-7360
▁7.	-7361
igen	-7362
itch	-7363
mmet	-7364
rong	-7365
▁Air	-7366
▁Ang	-7367
▁Dra	-7368
▁Mil	-7369
▁pal	-7370
ernal	-7371
exist	-7372
▁1930	-7373
▁Chen	-7374
▁Supp	-7375
▁gaps	-7376
▁laid	-7377
Israel	-7378
▁2012.	-7379
▁Where	-7380
▁crops	-7381
▁train	-7382
▁ultra	-7383
▁Reform	-7384
▁blamed	-7385
▁lowest	-7386
▁resign	-7387
▁concess	-7388
▁payment	-7389
▁student	-7390
▁Business	-7391
▁genocide	-7392
▁teachers	-7393
▁existence	-7394
▁integrate	-7395
▁selection	-7396
▁comparison	-7397
▁livelihood	-7398
▁significance	-7399
▁considerations	-7400
OEs	-7401
ghi	-7402
anim	-7403
▁Ali	-7404
▁Don	-7405
▁Emp	-7406
▁SDR	-7407
▁Times	-7408
▁Woods	-7409
▁draft	-7410
▁quiet	-7411
▁unequ	-7412
▁Having	-7413
▁analog	-7414
▁remove	-7415
ceptions	-7416
▁hostile	-7417
▁liberty	-7418
▁tactics	-7419
▁Whatever	-7420
▁embraced	-7421
▁isolated	-7422
▁desirable	-7423
▁regularly	-7424
▁challenged	-7425
▁considering	-7426
▁collaboration	-7427
Th	-7428
ipp	-7429
▁24	-7430
▁Ts	-7431
cure	-7432
educ	-7433
izon	-7434
omic	-7435
such	-7436
▁Ter	-7437
▁bes	-7438
▁bid	-7439
▁tob	-7440
ophob	-7441
▁BERK	-7442
▁Peru	-7443
▁Year	-7444
advant	-7445
▁Boliv	-7446
▁Crime	-7447
▁alive	-7448
▁bills	-7449
▁enfor	-7450
▁moder	-7451
▁tends	-7452
forward	-7453
▁dispos	-7454
▁funded	-7455
▁slowed	-7456
▁Bretton	-7457
▁cabinet	-7458
▁machine	-7459
▁tobacco	-7460
▁typical	-7461
orruption	-7462
▁Ethiopia	-7463
▁Northern	-7464
▁criteria	-7465
▁enhanced	-7466
▁indirect	-7467
▁involves	-7468
▁judicial	-7469
▁parallel	-7470
▁computers	-7471
▁mortality	-7472
▁emphasized	-7473
▁protesters	-7474
▁territories	-7475
▁accelerating	-7476
ELEY	-7477
ivot	-7478
anium	-7479
henko	-7480
▁cope	-7481
▁inex	-7482
accept	-7483
gments	-7484
owered	-7485
▁Labor	-7486
aughter	-7487
▁incumb	-7488
▁suspic	-7489
currency	-7490
▁Hussein	-7491
▁enables	-7492
▁reduces	-7493
▁BERKELEY	-7494
▁outbreak	-7495
▁software	-7496
▁deepening	-7497
▁overwhelm	-7498
▁components	-7499
▁definition	-7500
▁prevailing	-7501
▁surrounding	-7502
ón	-7503
cul	-7504
ham	-7505
▁27	-7506
hman	-7507
oler	-7508
▁Rec	-7509
▁Wal	-7510
▁hes	-7511
ected	-7512
isher	-7513
▁Each	-7514
▁Road	-7515
▁fine	-7516
▁heat	-7517
▁uphe	-7518
iative	-7519
ocrats	-7520
▁1960’	-7521
▁2016,	-7522
▁Assoc	-7523
▁Irish	-7524
▁ocean	-7525
▁deploy	-7526
▁Indians	-7527
▁Richard	-7528
▁Somalia	-7529
▁bolster	-7530
▁refusal	-7531
▁shaping	-7532
▁laureate	-7533
▁lowering	-7534
▁disappear	-7535
▁resolving	-7536
▁safeguard	-7537
▁Foundation	-7538
▁tightening	-7539
▁interpretation	-7540
▁transportation	-7541
-8	-7542
▁.	-7543
NCE	-7544
cap	-7545
ply	-7546
▁70	-7547
▁Ba	-7548
atal	-7549
ocal	-7550
wind	-7551
▁bed	-7552
▁eld	-7553
▁ple	-7554
edded	-7555
hetic	-7556
under	-7557
▁Iron	-7558
▁Nazi	-7559
▁depr	-7560
NCETON	-7561
iciary	-7562
licted	-7563
necess	-7564
▁entry	-7565
▁guard	-7566
▁input	-7567
▁plaus	-7568
▁proud	-7569
▁schol	-7570
▁Draghi	-7571
▁doubts	-7572
▁exclus	-7573
▁flawed	-7574
▁freely	-7575
▁massac	-7576
▁favored	-7577
▁nowhere	-7578
▁relying	-7579
▁suspect	-7580
▁uranium	-7581
▁foremost	-7582
▁inspired	-7583
▁marriage	-7584
▁optimism	-7585
▁PRINCETON	-7586
▁cooperate	-7587
▁pragmatic	-7588
▁preferred	-7589
▁restoring	-7590
▁altogether	-7591
▁obligation	-7592
▁declaration	-7593
▁exacerbated	-7594
▁catastrophic	-7595
▁introduction	-7596
▁determination	-7597
ras	-7598
sur	-7599
▁23	-7600
▁Rw	-7601
dict	-7602
rict	-7603
▁500	-7604
▁Adm	-7605
▁San	-7606
▁fan	-7607
▁pul	-7608
▁sho	-7609
arked	-7610
ivals	-7611
night	-7612
▁roll	-7613
▁arsen	-7614
▁bench	-7615
▁flaws	-7616
▁harsh	-7617
▁pride	-7618
▁virus	-7619
▁Office	-7620
▁assist	-7621
▁chosen	-7622
▁degrad	-7623
▁stakes	-7624
▁lacking	-7625
▁Alliance	-7626
▁creditor	-7627
▁cyclical	-7628
▁democrat	-7629
▁investor	-7630
▁meltdown	-7631
▁affecting	-7632
▁landscape	-7633
▁artificial	-7634
▁confronted	-7635
▁eliminated	-7636
▁popularity	-7637
▁desperately	-7638
▁destructive	-7639
▁equilibrium	-7640
▁stabilizing	-7641
▁administrative	-7642
DI	-7643
ala	-7644
ses	-7645
▁$4	-7646
▁7%	-7647
▁Inf	-7648
▁fit	-7649
▁Emer	-7650
▁Five	-7651
▁diff	-7652
▁evil	-7653
▁male	-7654
▁perv	-7655
▁rank	-7656
▁trem	-7657
ildren	-7658
ularly	-7659
▁Women	-7660
▁amend	-7661
▁broke	-7662
▁deriv	-7663
growing	-7664
▁Center	-7665
▁Lehman	-7666
▁cataly	-7667
▁tribal	-7668
quarters	-7669
▁Program	-7670
▁implied	-7671
▁joining	-7672
▁document	-7673
▁entering	-7674
▁exposure	-7675
▁unnecess	-7676
▁worrying	-7677
democratic	-7678
▁Economics	-7679
▁disadvant	-7680
▁emotional	-7681
▁integrity	-7682
▁rejection	-7683
▁adjustments	-7684
▁comparative	-7685
▁differently	-7686
▁expansionary	-7687
▁historically	-7688
▁transatlantic	-7689
;&	-7690
irm	-7691
atch	-7692
supp	-7693
well	-7694
▁Oil	-7695
▁eye	-7696
▁tit	-7697
▁card	-7698
▁nurt	-7699
▁outs	-7700
▁pand	-7701
▁toll	-7702
ipping	-7703
▁brand	-7704
uration	-7705
▁worker	-7706
▁Nicolas	-7707
▁burdens	-7708
▁exploit	-7709
▁telling	-7710
▁tsunami	-7711
▁arrested	-7712
▁governed	-7713
▁holdings	-7714
▁innocent	-7715
▁manifest	-7716
▁obstacle	-7717
▁troubled	-7718
▁strongest	-7719
▁delivering	-7720
▁situations	-7721
▁competitors	-7722
▁nonetheless	-7723
▁acknowledged	-7724
▁understandable	-7725
.&	-7726
LIN	-7727
van	-7728
-199	-7729
▁bip	-7730
▁hat	-7731
ormal	-7732
▁Park	-7733
▁Wolf	-7734
▁pull	-7735
▁tail	-7736
energy	-7737
gement	-7738
icated	-7739
ighter	-7740
imated	-7741
reform	-7742
▁cohes	-7743
▁dereg	-7744
▁stret	-7745
▁style	-7746
renched	-7747
▁Ronald	-7748
▁pledge	-7749
▁settle	-7750
▁Already	-7751
▁visited	-7752
▁Governor	-7753
▁happiness	-7754
▁judiciary	-7755
▁undertake	-7756
▁underpinned	-7757
▁constructive	-7758
▁concentration	-7759
Cs	-7760
ES	-7761
OK	-7762
umn	-7763
▁Lo	-7764
ogen	-7765
▁Tay	-7766
opher	-7767
organ	-7768
tical	-7769
▁2002	-7770
▁mood	-7771
▁juris	-7772
▁piece	-7773
▁sight	-7774
▁stuck	-7775
largest	-7776
▁forget	-7777
▁images	-7778
▁namely	-7779
▁serves	-7780
▁steady	-7781
ollowing	-7782
▁Austria	-7783
▁Several	-7784
▁dignity	-7785
▁enjoyed	-7786
▁neglect	-7787
▁ranging	-7788
▁shifted	-7789
▁traject	-7790
▁advocate	-7791
▁findings	-7792
▁meantime	-7793
▁shortage	-7794
▁unaccept	-7795
iodiversity	-7796
▁bargaining	-7797
▁cooperative	-7798
▁destabilizing	-7799
KP	-7800
cu	-7801
hard	-7802
irty	-7803
ords	-7804
▁End	-7805
▁Sur	-7806
inter	-7807
olved	-7808
▁cosm	-7809
▁Gates	-7810
▁anemic	-7811
▁disarm	-7812
▁patent	-7813
▁restra	-7814
▁versus	-7815
▁acquire	-7816
▁discont	-7817
▁revival	-7818
▁younger	-7819
▁Brothers	-7820
▁clinical	-7821
▁defeated	-7822
▁delivery	-7823
▁dynamism	-7824
▁frequent	-7825
▁officers	-7826
▁terrible	-7827
▁contagion	-7828
▁indicates	-7829
▁naturally	-7830
▁shrinking	-7831
▁collateral	-7832
▁experiences	-7833
▁inflationary	-7834
▁€1	-7835
ELHI	-7836
airo	-7837
aise	-7838
inst	-7839
zing	-7840
▁1.5	-7841
▁Few	-7842
▁Lis	-7843
▁Ref	-7844
▁Sri	-7845
▁Ult	-7846
itate	-7847
vency	-7848
vered	-7849
▁2003,	-7850
▁DELHI	-7851
▁Kerry	-7852
▁indef	-7853
▁seize	-7854
▁split	-7855
▁vigor	-7856
▁Crisis	-7857
▁adults	-7858
▁assass	-7859
▁therap	-7860
adjusted	-7861
cription	-7862
▁article	-7863
▁doubled	-7864
▁forests	-7865
▁pledged	-7866
▁richest	-7867
▁Cambodia	-7868
▁generals	-7869
▁initiated	-7870
▁newspaper	-7871
▁constitute	-7872
▁newspapers	-7873
▁investigation	-7874
▁protectionist	-7875
▁straightforward	-7876
80	-7877
DA	-7878
asi	-7879
kes	-7880
oha	-7881
voc	-7882
asks	-7883
ille	-7884
uled	-7885
▁205	-7886
▁Jun	-7887
▁Tax	-7888
▁bab	-7889
▁haz	-7890
▁ing	-7891
▁kid	-7892
prime	-7893
▁Decl	-7894
▁note	-7895
atible	-7896
taking	-7897
▁camps	-7898
▁finds	-7899
▁mosqu	-7900
▁bought	-7901
▁median	-7902
▁precip	-7903
▁aggress	-7904
▁closing	-7905
▁pricing	-7906
▁Africans	-7907
industrial	-7908
▁accounted	-7909
▁benchmark	-7910
▁interview	-7911
▁earthquake	-7912
▁highlighted	-7913
▁predecessor	-7914
▁deleveraging	-7915
30	-7916
CD	-7917
EI	-7918
rav	-7919
▁WW	-7920
berg	-7921
gers	-7922
offs	-7923
rill	-7924
▁God	-7925
▁cyn	-7926
▁yes	-7927
Japan	-7928
iques	-7929
think	-7930
ullah	-7931
▁Lank	-7932
▁Marx	-7933
▁bias	-7934
▁jump	-7935
▁plus	-7936
▁rend	-7937
▁vice	-7938
alling	-7939
▁consp	-7940
▁revel	-7941
▁corner	-7942
▁exempl	-7943
▁regain	-7944
▁seeing	-7945
▁solely	-7946
▁deliber	-7947
▁looming	-7948
▁surface	-7949
▁football	-7950
▁founding	-7951
▁governor	-7952
▁restored	-7953
▁socially	-7954
▁tendency	-7955
▁Greenspan	-7956
▁preparing	-7957
▁unpredict	-7958
▁accomplish	-7959
▁criticized	-7960
▁reflecting	-7961
▁assumptions	-7962
▁concessions	-7963
▁livelihoods	-7964
▁revolutions	-7965
▁settlements	-7966
▁temperature	-7967
▁bureaucratic	-7968
▁specifically	-7969
▁professionals	-7970
▁demonstrations	-7971
HO	-7972
IF	-7973
▁&	-7974
asy	-7975
lov	-7976
▁$6	-7977
fold	-7978
▁Gen	-7979
▁dog	-7980
▁Mahm	-7981
▁Next	-7982
▁buff	-7983
▁calm	-7984
▁flee	-7985
▁hike	-7986
ieties	-7987
▁Doing	-7988
▁Elect	-7989
▁Prize	-7990
▁grant	-7991
▁rally	-7992
▁recur	-7993
▁zones	-7994
General	-7995
assador	-7996
leading	-7997
▁Making	-7998
▁School	-7999
▁advent	-8000
▁endors	-8001
▁stream	-8002
▁unfold	-8003
▁Rouhani	-8004
▁brother	-8005
▁dioxide	-8006
▁entails	-8007
▁exhaust	-8008
▁virtual	-8009
▁advisers	-8010
▁minimize	-8011
▁completed	-8012
▁irrespons	-8013
▁reporting	-8014
▁entrenched	-8015
▁irrelevant	-8016
▁treatments	-8017
▁unexpected	-8018
▁accelerated	-8019
▁accumulation	-8020
▁predecessors	-8021
CO	-8022
ky	-8023
▁Ay	-8024
▁pu	-8025
iary	-8026
lict	-8027
occo	-8028
▁Env	-8029
▁bio	-8030
▁web	-8031
ropri	-8032
sheet	-8033
▁Doha	-8034
▁Real	-8035
▁outf	-8036
▁admit	-8037
▁fraud	-8038
▁waves	-8039
▁Lisbon	-8040
▁System	-8041
▁impris	-8042
▁smooth	-8043
▁Morocco	-8044
▁affects	-8045
▁classic	-8046
▁college	-8047
▁drought	-8048
▁mothers	-8049
▁sending	-8050
▁vicious	-8051
▁discount	-8052
▁implying	-8053
▁premature	-8054
▁prisoners	-8055
▁resilient	-8056
▁unpopular	-8057
▁convincing	-8058
▁intentions	-8059
▁ineffective	-8060
▁speculative	-8061
▁representative	-8062
RID	-8063
igm	-8064
▁(“	-8065
▁TV	-8066
brid	-8067
emer	-8068
high	-8069
tech	-8070
▁Bre	-8071
▁Day	-8072
▁Lad	-8073
▁MAD	-8074
▁Pre	-8075
▁Shi	-8076
▁isn	-8077
aping	-8078
house	-8079
itime	-8080
▁leng	-8081
▁odds	-8082
iating	-8083
▁coinc	-8084
▁crude	-8085
▁hydro	-8086
control	-8087
▁deemed	-8088
▁fortun	-8089
▁harmon	-8090
▁obtain	-8091
▁scarce	-8092
▁Economy	-8093
▁contact	-8094
▁corresp	-8095
▁islands	-8096
▁signals	-8097
▁arguably	-8098
▁cultures	-8099
▁fraction	-8100
▁forecasts	-8101
▁providers	-8102
▁returning	-8103
▁Ultimately	-8104
▁allocation	-8105
▁enterprise	-8106
▁infectious	-8107
▁insecurity	-8108
▁philosophy	-8109
▁prevention	-8110
▁recognizes	-8111
▁antibiotics	-8112
▁civilization	-8113
BI	-8114
”)	-8115
iol	-8116
sch	-8117
▁$10	-8118
▁mun	-8119
backs	-8120
inces	-8121
usive	-8122
▁Tony	-8123
▁pact	-8124
▁pays	-8125
▁tiny	-8126
▁turb	-8127
apping	-8128
morrow	-8129
valued	-8130
▁Franç	-8131
▁Gülen	-8132
▁align	-8133
▁safer	-8134
ounding	-8135
▁BERLIN	-8136
▁animal	-8137
▁approx	-8138
▁player	-8139
▁rebels	-8140
▁beliefs	-8141
▁Protocol	-8142
▁ambition	-8143
▁describe	-8144
▁informed	-8145
▁tomorrow	-8146
▁defending	-8147
▁acceptance	-8148
▁complexity	-8149
▁reasonably	-8150
▁Association	-8151
▁urbanization	-8152
▁intellectuals	-8153
-7	-8154
EU	-8155
LO	-8156
no	-8157
tor	-8158
vey	-8159
prom	-8160
▁300	-8161
alley	-8162
ranch	-8163
▁Alex	-8164
▁Food	-8165
▁Mich	-8166
▁cart	-8167
▁cold	-8168
▁flat	-8169
▁mism	-8170
▁spok	-8171
▁ster	-8172
liance	-8173
ocracy	-8174
▁fluct	-8175
▁polio	-8176
society	-8177
▁MADRID	-8178
▁feared	-8179
▁impede	-8180
▁losers	-8181
ominated	-8182
▁Mahmoud	-8183
▁consent	-8184
▁degrees	-8185
▁devices	-8186
▁dismant	-8187
▁exchang	-8188
▁landing	-8189
▁legally	-8190
▁trained	-8191
▁unknown	-8192
▁worries	-8193
ideration	-8194
▁assuming	-8195
▁coherent	-8196
investment	-8197
productive	-8198
▁emphasize	-8199
▁extremist	-8200
▁functions	-8201
▁hospitals	-8202
▁plausible	-8203
▁recapital	-8204
▁globalized	-8205
▁officially	-8206
▁violations	-8207
▁operational	-8208
▁stakeholders	-8209
▁temperatures	-8210
yc	-8211
ael	-8212
ben	-8213
spe	-8214
▁Op	-8215
aked	-8216
orse	-8217
▁Def	-8218
▁Had	-8219
▁Pop	-8220
▁Sol	-8221
▁Squ	-8222
▁bon	-8223
erson	-8224
erted	-8225
occup	-8226
utors	-8227
▁Dire	-8228
▁Does	-8229
▁SDGs	-8230
▁Serv	-8231
▁grav	-8232
▁Micro	-8233
▁Ocean	-8234
▁crowd	-8235
▁grasp	-8236
▁teams	-8237
▁upper	-8238
▁utter	-8239
ologies	-8240
▁bitter	-8241
▁casual	-8242
▁earned	-8243
▁reveal	-8244
▁window	-8245
▁devoted	-8246
▁drivers	-8247
▁malaise	-8248
▁ratings	-8249
▁surpass	-8250
▁tremend	-8251
▁employed	-8252
▁epidemic	-8253
▁mutually	-8254
▁securing	-8255
▁diplomats	-8256
▁headlines	-8257
▁medicines	-8258
▁nutrition	-8259
▁successes	-8260
Palestinian	-8261
▁Initiative	-8262
▁instrument	-8263
▁existential	-8264
▁architecture	-8265
▁transmission	-8266
▁consideration	-8267
,"	-8268
eu	-8269
ua	-8270
des	-8271
ket	-8272
uum	-8273
▁22	-8274
▁Sa	-8275
arat	-8276
conf	-8277
utor	-8278
▁Cup	-8279
▁pra	-8280
▁rid	-8281
otten	-8282
▁amid	-8283
▁enjo	-8284
▁soil	-8285
icipal	-8286
▁2009.	-8287
▁burst	-8288
▁grows	-8289
▁incap	-8290
▁roles	-8291
▁League	-8292
▁Shinzo	-8293
▁checks	-8294
▁permit	-8295
▁soared	-8296
▁starts	-8297
▁tragic	-8298
cyclical	-8299
▁forever	-8300
▁rebuild	-8301
▁western	-8302
▁Friedman	-8303
▁choosing	-8304
▁enduring	-8305
▁engaging	-8306
▁excluded	-8307
▁tradable	-8308
▁widening	-8309
▁Churchill	-8310
▁Otherwise	-8311
▁buildings	-8312
▁respected	-8313
▁expectancy	-8314
▁distinction	-8315
▁enlargement	-8316
▁exclusively	-8317
▁interesting	-8318
GB	-8319
bar	-8320
uma	-8321
▁id	-8322
▁na	-8323
abwe	-8324
left	-8325
velt	-8326
▁Lar	-8327
armed	-8328
atell	-8329
eterm	-8330
icted	-8331
izers	-8332
▁Mand	-8333
▁Zimb	-8334
▁club	-8335
▁ramp	-8336
▁sees	-8337
▁spot	-8338
▁topp	-8339
rugman	-8340
▁award	-8341
▁elder	-8342
▁gases	-8343
▁sheet	-8344
osevelt	-8345
▁Crimea	-8346
▁Rwanda	-8347
▁Valley	-8348
▁deepen	-8349
▁Algeria	-8350
▁traders	-8351
▁unified	-8352
▁whereby	-8353
▁winners	-8354
▁writing	-8355
▁François	-8356
▁Zimbabwe	-8357
▁director	-8358
▁entities	-8359
▁scholars	-8360
▁symptoms	-8361
▁scenarios	-8362
▁disruption	-8363
▁irrational	-8364
▁bondholders	-8365
▁speculation	-8366
▁Constitutional	-8367
▁redistribution	-8368
PA	-8369
ps	-8370
yo	-8371
iat	-8372
room	-8373
▁Vol	-8374
▁rub	-8375
▁sad	-8376
front	-8377
skept	-8378
▁Bund	-8379
▁Mont	-8380
▁Stud	-8381
▁abol	-8382
▁feat	-8383
▁flag	-8384
▁item	-8385
▁lift	-8386
▁maln	-8387
▁nets	-8388
▁suit	-8389
▁town	-8390
▁yang	-8391
▁James	-8392
▁Lanka	-8393
▁Mario	-8394
▁alleg	-8395
▁angry	-8396
▁breat	-8397
▁ignor	-8398
▁steel	-8399
▁stems	-8400
inating	-8401
▁Minist	-8402
▁Simply	-8403
▁excell	-8404
▁houses	-8405
▁tempor	-8406
▁Koreans	-8407
▁Whereas	-8408
▁assumes	-8409
▁focuses	-8410
▁harmful	-8411
▁orderly	-8412
▁request	-8413
▁deployed	-8414
▁embedded	-8415
▁hegemony	-8416
▁incorpor	-8417
▁occupied	-8418
employment	-8419
▁Roosevelt	-8420
▁appealing	-8421
▁confirmed	-8422
▁constantly	-8423
▁traditions	-8424
▁preferences	-8425
▁overwhelmingly	-8426
tic	-8427
▁6%	-8428
▁Ed	-8429
▁NP	-8430
need	-8431
▁1960	-8432
▁anch	-8433
▁bust	-8434
▁cool	-8435
▁myth	-8436
▁pump	-8437
saving	-8438
▁Above	-8439
▁Armen	-8440
▁brink	-8441
▁fault	-8442
▁surre	-8443
▁Sharon	-8444
▁absent	-8445
▁firmly	-8446
▁rivals	-8447
▁shaped	-8448
▁Environ	-8449
▁Krugman	-8450
▁automob	-8451
▁biology	-8452
▁impover	-8453
▁inequal	-8454
▁attacked	-8455
▁entitled	-8456
▁Recession	-8457
▁occurring	-8458
▁surprised	-8459
▁translate	-8460
▁compensate	-8461
▁responding	-8462
▁trajectory	-8463
▁consolidate	-8464
▁Conservative	-8465
▁inequalities	-8466
oe	-8467
”:	-8468
FTA	-8469
ONG	-8470
PEC	-8471
iro	-8472
odd	-8473
▁8%	-8474
▁IP	-8475
▁TB	-8476
abet	-8477
eter	-8478
▁Web	-8479
▁gar	-8480
▁raw	-8481
▁tab	-8482
▁tum	-8483
ander	-8484
ester	-8485
▁1997	-8486
▁SOEs	-8487
▁edge	-8488
▁erod	-8489
▁fish	-8490
▁king	-8491
▁mira	-8492
▁sake	-8493
▁flour	-8494
▁incon	-8495
▁radio	-8496
▁Bosnia	-8497
▁Iraqis	-8498
▁bridge	-8499
▁demise	-8500
▁hatred	-8501
▁repair	-8502
iliation	-8503
inations	-8504
▁Charles	-8505
▁applies	-8506
▁charged	-8507
▁complac	-8508
▁confirm	-8509
▁evolved	-8510
▁kilomet	-8511
▁monitor	-8512
▁soaring	-8513
▁republic	-8514
▁stemming	-8515
▁appointed	-8516
▁contained	-8517
▁engineers	-8518
▁magnitude	-8519
▁municipal	-8520
▁precedent	-8521
▁prevailed	-8522
▁diminished	-8523
▁impression	-8524
▁suggesting	-8525
▁distributed	-8526
▁predictions	-8527
▁availability	-8528
▁biodiversity	-8529
▁dysfunctional	-8530
▁disintegration	-8531
▁representation	-8532
HA	-8533
Sem	-8534
ito	-8535
ups	-8536
step	-8537
▁box	-8538
aning	-8539
lovak	-8540
ounce	-8541
ounds	-8542
produ	-8543
rutin	-8544
▁Sino	-8545
▁curt	-8546
orious	-8547
▁phone	-8548
▁roots	-8549
▁tasks	-8550
viously	-8551
▁Fourth	-8552
▁agents	-8553
▁letter	-8554
▁listen	-8555
▁purely	-8556
▁spiral	-8557
▁theore	-8558
▁voices	-8559
▁winner	-8560
▁History	-8561
▁Liberal	-8562
▁Twitter	-8563
▁bargain	-8564
▁declare	-8565
▁founded	-8566
▁lawyers	-8567
▁portray	-8568
ratically	-8569
▁detailed	-8570
▁recessions	-8571
▁derivatives	-8572
▁distinguish	-8573
▁excessively	-8574
▁justification	-8575
▁characteristics	-8576
ny	-8577
ulg	-8578
▁Mo	-8579
▁ho	-8580
riad	-8581
▁Fut	-8582
▁lux	-8583
▁Gord	-8584
▁Hait	-8585
▁caut	-8586
▁cure	-8587
▁wife	-8588
irical	-8589
ispens	-8590
▁2014.	-8591
▁Apple	-8592
▁Right	-8593
▁depth	-8594
▁lands	-8595
▁mixed	-8596
▁trick	-8597
▁Square	-8598
▁Terror	-8599
▁cycles	-8600
▁deadly	-8601
▁preval	-8602
▁satell	-8603
▁answers	-8604
▁arrived	-8605
▁carries	-8606
▁convert	-8607
▁outrage	-8608
▁ranking	-8609
▁scrutin	-8610
▁serving	-8611
▁Director	-8612
▁captured	-8613
▁orthodox	-8614
▁reversal	-8615
▁supervis	-8616
performing	-8617
▁offensive	-8618
▁oversight	-8619
▁aggression	-8620
▁boundaries	-8621
▁connection	-8622
▁indefinite	-8623
▁temporarily	-8624
▁unacceptable	-8625
▁psychological	-8626
LS	-8627
BOC	-8628
▁Ku	-8629
anes	-8630
esty	-8631
laud	-8632
risk	-8633
wage	-8634
▁McC	-8635
▁McK	-8636
aired	-8637
liers	-8638
owing	-8639
riend	-8640
▁tied	-8641
guided	-8642
siders	-8643
▁1,000	-8644
▁Stand	-8645
▁indif	-8646
▁ought	-8647
▁patri	-8648
▁stick	-8649
▁Greeks	-8650
▁Within	-8651
▁detain	-8652
▁provoc	-8653
▁sports	-8654
▁vacuum	-8655
ortheast	-8656
▁Science	-8657
▁consume	-8658
▁elderly	-8659
▁fishing	-8660
▁ordered	-8661
▁scandal	-8662
▁bailouts	-8663
▁confined	-8664
▁fragment	-8665
▁accepting	-8666
▁discovery	-8667
▁liability	-8668
▁secretary	-8669
▁spreading	-8670
▁superpower	-8671
▁techniques	-8672
▁Corporation	-8673
▁financially	-8674
▁negotiation	-8675
▁privatization	-8676
▁recommendations	-8677
Wh	-8678
▁‘	-8679
dec	-8680
mod	-8681
anth	-8682
▁AKP	-8683
dated	-8684
green	-8685
trans	-8686
▁Bhut	-8687
▁Mart	-8688
▁NGOs	-8689
▁News	-8690
▁hind	-8691
global	-8692
regard	-8693
resist	-8694
▁Civil	-8695
▁drove	-8696
▁dying	-8697
▁navig	-8698
▁relax	-8699
comings	-8700
▁Empire	-8701
▁bright	-8702
▁mathem	-8703
▁missed	-8704
▁prompt	-8705
ologists	-8706
▁Juncker	-8707
▁Neither	-8708
▁Senator	-8709
▁Success	-8710
▁damaged	-8711
▁encount	-8712
▁fastest	-8713
▁install	-8714
▁warfare	-8715
▁Catholic	-8716
▁Emerging	-8717
▁breaking	-8718
▁carrying	-8719
▁eventual	-8720
▁interact	-8721
▁maritime	-8722
▁opposing	-8723
▁overhaul	-8724
▁overlook	-8725
▁promoted	-8726
ifications	-8727
▁Consensus	-8728
▁Following	-8729
▁Sometimes	-8730
▁countless	-8731
▁encourages	-8732
▁highlights	-8733
▁undermines	-8734
▁accumulated	-8735
▁approaching	-8736
▁frustration	-8737
▁protections	-8738
▁applications	-8739
▁deflationary	-8740
▁Globalization	-8741
▁transnational	-8742
OM	-8743
thy	-8744
▁sn	-8745
AIDS	-8746
AVEN	-8747
inct	-8748
ione	-8749
isms	-8750
onym	-8751
quis	-8752
▁$50	-8753
▁Sad	-8754
▁lic	-8755
▁phr	-8756
▁rac	-8757
▁sky	-8758
▁sle	-8759
bonds	-8760
comed	-8761
oping	-8762
osion	-8763
rafat	-8764
vedev	-8765
▁Gene	-8766
▁Post	-8767
▁Time	-8768
▁coff	-8769
▁succ	-8770
▁Chief	-8771
▁HAVEN	-8772
▁actor	-8773
▁hyper	-8774
▁peril	-8775
▁spoke	-8776
▁units	-8777
enophob	-8778
▁behalf	-8779
▁sounds	-8780
▁erosion	-8781
▁loyalty	-8782
▁silence	-8783
▁imported	-8784
▁ministry	-8785
▁thousand	-8786
▁genuinely	-8787
▁militants	-8788
▁recovered	-8789
▁struggles	-8790
▁Economists	-8791
▁destroying	-8792
▁resentment	-8793
▁tremendous	-8794
▁degradation	-8795
▁diminishing	-8796
▁foreseeable	-8797
▁shortcomings	-8798
UR	-8799
vy	-8800
zi	-8801
▁x	-8802
5%,	-8803
500	-8804
amm	-8805
erg	-8806
▁80	-8807
hors	-8808
▁CIA	-8809
▁Est	-8810
▁Fuk	-8811
▁Sam	-8812
▁eat	-8813
▁ice	-8814
arget	-8815
arted	-8816
iants	-8817
▁Vice	-8818
▁hide	-8819
▁site	-8820
▁toug	-8821
▁warm	-8822
owners	-8823
weight	-8824
▁Marsh	-8825
▁hence	-8826
▁notes	-8827
consist	-8828
▁Fiscal	-8829
▁Report	-8830
▁behave	-8831
▁dozens	-8832
▁racial	-8833
▁relied	-8834
▁taught	-8835
▁unanim	-8836
▁vested	-8837
▁Article	-8838
▁Bolivia	-8839
▁blocked	-8840
▁delayed	-8841
▁monopol	-8842
▁Lebanese	-8843
▁Medvedev	-8844
▁insisted	-8845
▁recorded	-8846
▁spectrum	-8847
▁Community	-8848
▁advancing	-8849
▁performed	-8850
▁correspond	-8851
▁frameworks	-8852
▁kilometers	-8853
▁undertaken	-8854
▁association	-8855
▁disparities	-8856
▁irresponsible	-8857
▁unpredictable	-8858
▁reconstruction	-8859
In	-8860
Sh	-8861
tw	-8862
col	-8863
ixt	-8864
▁Pu	-8865
arer	-8866
hart	-8867
spec	-8868
▁Age	-8869
▁Bor	-8870
▁Hen	-8871
▁Lee	-8872
▁rot	-8873
world	-8874
▁fier	-8875
▁gene	-8876
▁hire	-8877
idance	-8878
normal	-8879
profit	-8880
unning	-8881
▁Catal	-8882
▁McKin	-8883
▁Niger	-8884
▁annex	-8885
▁artic	-8886
▁chair	-8887
▁fifth	-8888
▁lobby	-8889
▁weigh	-8890
▁Histor	-8891
▁advers	-8892
▁immune	-8893
▁repeat	-8894
▁savers	-8895
▁Finland	-8896
▁ceiling	-8897
▁condemn	-8898
▁exagger	-8899
▁formula	-8900
▁issuing	-8901
▁passing	-8902
▁reading	-8903
▁torture	-8904
▁tourism	-8905
▁unusual	-8906
▁admitted	-8907
▁comprise	-8908
▁fairness	-8909
▁inaction	-8910
▁watching	-8911
▁welcomed	-8912
▁allocated	-8913
▁discourse	-8914
▁entertain	-8915
▁extending	-8916
▁gathering	-8917
▁hostility	-8918
▁reference	-8919
▁sacrifice	-8920
▁censorship	-8921
▁controlling	-8922
▁disarmament	-8923
▁requirement	-8924
▁restructure	-8925
RA	-8926
UN	-8927
YO	-8928
ym	-8929
anz	-8930
but	-8931
▁AM	-8932
OKYO	-8933
lers	-8934
▁BEI	-8935
▁ven	-8936
orage	-8937
uties	-8938
▁puzz	-8939
encing	-8940
ilater	-8941
▁TOKYO	-8942
▁ample	-8943
▁bolst	-8944
▁craft	-8945
▁incur	-8946
▁intim	-8947
▁rises	-8948
▁steep	-8949
▁teach	-8950
lusions	-8951
▁Arafat	-8952
▁Gordon	-8953
▁notice	-8954
▁Qaddafi	-8955
▁Sanders	-8956
▁records	-8957
▁revised	-8958
▁village	-8959
▁2008-200	-8960
▁Iranians	-8961
▁Together	-8962
▁chairman	-8963
▁downside	-8964
▁feelings	-8965
▁pipeline	-8966
ilaterally	-8967
management	-8968
▁dismissed	-8969
▁factories	-8970
▁graduates	-8971
▁portfolio	-8972
▁professor	-8973
▁adequately	-8974
▁deterrence	-8975
▁exacerbate	-8976
▁insurgency	-8977
▁misleading	-8978
▁separation	-8979
▁connections	-8980
▁philosopher	-8981
▁unnecessary	-8982
▁demonstrates	-8983
IB	-8984
pel	-8985
sum	-8986
▁$8	-8987
▁28	-8988
▁Us	-8989
Russ	-8990
SELS	-8991
▁aug	-8992
▁mel	-8993
aksin	-8994
apons	-8995
ashes	-8996
▁BRUS	-8997
▁Jose	-8998
▁horr	-8999
▁olig	-9000
▁pock	-9001
▁semi	-9002
▁vide	-9003
▁Brown	-9004
▁Davos	-9005
▁Moham	-9006
▁Would	-9007
▁alter	-9008
▁array	-9009
▁inhab	-9010
▁maneu	-9011
▁slump	-9012
.&#160;	-9013
ulators	-9014
▁bloody	-9015
▁occurs	-9016
▁orders	-9017
▁resemb	-9018
▁reserv	-9019
▁unreal	-9020
ittances	-9021
▁asymmet	-9022
▁debtors	-9023
▁discred	-9024
▁interim	-9025
▁minimal	-9026
▁BRUSSELS	-9027
▁formally	-9028
▁imminent	-9029
▁incompet	-9030
▁maximize	-9031
▁province	-9032
▁stations	-9033
ispensable	-9034
▁condemned	-9035
▁diagnosis	-9036
▁forgotten	-9037
▁Developing	-9038
▁benefiting	-9039
▁discontent	-9040
▁disruptive	-9041
▁enrichment	-9042
▁anticipated	-9043
proliferation	-9044
▁representing	-9045
5%.	-9046
oul	-9047
cile	-9048
ials	-9049
nedy	-9050
that	-9051
▁Roy	-9052
atter	-9053
esity	-9054
essed	-9055
iform	-9056
isons	-9057
▁Gaul	-9058
▁Less	-9059
▁Pope	-9060
▁Wars	-9061
▁beat	-9062
▁brib	-9063
▁loud	-9064
rators	-9065
uously	-9066
vation	-9067
▁2007.	-9068
▁allev	-9069
▁griev	-9070
▁immun	-9071
▁miles	-9072
▁proof	-9073
Western	-9074
achment	-9075
anthrop	-9076
aunting	-9077
defense	-9078
lovakia	-9079
▁Leader	-9080
▁absurd	-9081
▁basket	-9082
▁locked	-9083
▁timing	-9084
▁Islands	-9085
▁bombing	-9086
▁contest	-9087
▁horizon	-9088
▁located	-9089
▁spurred	-9090
▁unclear	-9091
fficiency	-9092
istically	-9093
▁dictator	-9094
▁normally	-9095
▁partisan	-9096
▁reminder	-9097
▁speaking	-9098
▁subjects	-9099
▁attracted	-9100
▁dimension	-9101
▁imbalance	-9102
▁inconsist	-9103
▁reconcile	-9104
▁tolerance	-9105
▁Christians	-9106
▁punishment	-9107
▁expectation	-9108
▁conservation	-9109
▁entrepreneur	-9110
▁manufacturers	-9111
▁Infrastructure	-9112
▁democratically	-9113
awa	-9114
nel	-9115
▁CD	-9116
izer	-9117
life	-9118
trad	-9119
▁FDI	-9120
▁vit	-9121
Semit	-9122
added	-9123
andom	-9124
uated	-9125
▁Good	-9126
▁grim	-9127
▁guer	-9128
▁heed	-9129
▁plot	-9130
▁rain	-9131
▁stal	-9132
▁tide	-9133
▁acted	-9134
▁error	-9135
▁hikes	-9136
▁named	-9137
▁squee	-9138
▁trump	-9139
igenous	-9140
▁Saudis	-9141
▁acquis	-9142
▁differ	-9143
▁induce	-9144
▁injust	-9145
▁persec	-9146
▁sphere	-9147
communic	-9148
▁Kennedy	-9149
▁coastal	-9150
▁engines	-9151
▁exceeds	-9152
▁intoler	-9153
▁notable	-9154
▁suffers	-9155
▁Agricult	-9156
▁acquired	-9157
▁alarming	-9158
▁cohesion	-9159
▁contains	-9160
▁distance	-9161
▁guidance	-9162
▁quarters	-9163
▁stagnant	-9164
▁exchanges	-9165
▁rationale	-9166
▁suspicion	-9167
▁capitalist	-9168
▁collection	-9169
▁exceptions	-9170
▁identities	-9171
▁incomplete	-9172
▁profitable	-9173
▁triggering	-9174
▁application	-9175
▁deregulation	-9176
▁polarization	-9177
▁Congressional	-9178
▁conservatives	-9179
▁interconnected	-9180
LA	-9181
eft	-9182
ino	-9183
iph	-9184
mas	-9185
▁35	-9186
▁Ev	-9187
city	-9188
cked	-9189
ford	-9190
ivic	-9191
olly	-9192
▁$2.	-9193
▁Dam	-9194
▁Tok	-9195
▁Wen	-9196
▁syn	-9197
▁tap	-9198
aying	-9199
ulent	-9200
▁Mass	-9201
▁Move	-9202
▁diet	-9203
▁empt	-9204
▁keen	-9205
▁subt	-9206
elfare	-9207
▁Cairo	-9208
▁Chair	-9209
▁Delhi	-9210
▁appet	-9211
▁dozen	-9212
▁incre	-9213
▁neuro	-9214
▁pione	-9215
▁rebel	-9216
▁resum	-9217
▁retal	-9218
▁spons	-9219
▁swift	-9220
angible	-9221
liberal	-9222
▁Almost	-9223
▁Either	-9224
▁Sunnis	-9225
▁ballot	-9226
▁errors	-9227
▁hiring	-9228
▁poised	-9229
▁relent	-9230
▁100,000	-9231
▁Summers	-9232
▁charism	-9233
▁invited	-9234
▁venture	-9235
ependence	-9236
▁diagnost	-9237
▁distrust	-9238
▁impunity	-9239
▁regulate	-9240
▁warnings	-9241
▁departure	-9242
▁depressed	-9243
▁exclusion	-9244
▁exclusive	-9245
▁regulated	-9246
▁creativity	-9247
▁deployment	-9248
▁temptation	-9249
▁accordingly	-9250
▁constitutes	-9251
▁efficiently	-9252
▁negotiators	-9253
▁commentators	-9254
▁deliberately	-9255
Le	-9256
jo	-9257
aze	-9258
eal	-9259
imm	-9260
▁Ha	-9261
aret	-9262
iasm	-9263
irac	-9264
ship	-9265
▁Kaz	-9266
▁Raj	-9267
▁Too	-9268
▁alc	-9269
▁ost	-9270
range	-9271
▁Poor	-9272
▁Roma	-9273
▁grab	-9274
▁resh	-9275
▁stif	-9276
▁thin	-9277
abetes	-9278
▁Round	-9279
▁Tokyo	-9280
▁avert	-9281
▁metap	-9282
▁refin	-9283
▁Chirac	-9284
▁nobody	-9285
▁phrase	-9286
▁random	-9287
▁strain	-9288
▁customs	-9289
▁intimid	-9290
▁placing	-9291
▁portion	-9292
▁postwar	-9293
▁satisfy	-9294
▁sitting	-9295
▁tempted	-9296
▁contempl	-9297
▁fighters	-9298
▁ignoring	-9299
▁liberals	-9300
▁militias	-9301
▁villages	-9302
▁childhood	-9303
▁empirical	-9304
▁illiberal	-9305
▁imperfect	-9306
▁permitted	-9307
▁pervasive	-9308
▁voluntary	-9309
▁conviction	-9310
▁guidelines	-9311
▁reportedly	-9312
▁substitute	-9313
▁reinforcing	-9314
▁transaction	-9315
▁facilitating	-9316
▁subsequently	-9317
▁approximately	-9318
ka	-9319
ago	-9320
elf	-9321
unk	-9322
▁9%	-9323
▁Gl	-9324
▁Ra	-9325
aval	-9326
imal	-9327
ques	-9328
▁Abu	-9329
▁CCP	-9330
▁Vik	-9331
▁bus	-9332
▁cry	-9333
▁hus	-9334
Qaeda	-9335
lined	-9336
othes	-9337
otism	-9338
stone	-9339
▁Mali	-9340
▁edit	-9341
▁reun	-9342
▁seat	-9343
▁subs	-9344
arious	-9345
ocking	-9346
▁Singh	-9347
▁lifet	-9348
▁monet	-9349
▁owned	-9350
▁tanks	-9351
▁tells	-9352
▁unite	-9353
▁Geneva	-9354
▁debtor	-9355
▁doctor	-9356
▁ethics	-9357
▁fertil	-9358
▁filled	-9359
▁habits	-9360
▁mining	-9361
▁seized	-9362
▁Freedom	-9363
▁burning	-9364
▁council	-9365
▁drawing	-9366
▁hegemon	-9367
▁passion	-9368
▁privacy	-9369
▁retreat	-9370
▁storage	-9371
▁defaults	-9372
▁diminish	-9373
▁endorsed	-9374
▁enthusia	-9375
▁printing	-9376
▁producer	-9377
▁removing	-9378
▁xenophob	-9379
▁Peninsula	-9380
▁meanwhile	-9381
▁Australian	-9382
▁discourage	-9383
▁sanitation	-9384
▁dangerously	-9385
▁projections	-9386
▁transitions	-9387
▁understands	-9388
▁accomplished	-9389
▁aggressively	-9390
▁stabilization	-9391
25	-9392
sm	-9393
yp	-9394
dad	-9395
fur	-9396
ica	-9397
law	-9398
▁8.	-9399
▁IT	-9400
aint	-9401
asse	-9402
asty	-9403
made	-9404
mble	-9405
wood	-9406
▁Equ	-9407
▁Leg	-9408
▁flu	-9409
▁mil	-9410
▁pil	-9411
▁unh	-9412
▁unm	-9413
▁van	-9414
▁vib	-9415
ghdad	-9416
ravel	-9417
▁Debt	-9418
▁Long	-9419
▁airc	-9420
▁aren	-9421
erated	-9422
retion	-9423
▁Basel	-9424
▁ambig	-9425
▁feels	-9426
▁greed	-9427
▁names	-9428
▁param	-9429
▁sport	-9430
▁wield	-9431
looking	-9432
private	-9433
▁Kazakh	-9434
▁ingred	-9435
▁master	-9436
▁parity	-9437
▁replic	-9438
▁Olympic	-9439
▁handful	-9440
▁knowing	-9441
▁propose	-9442
▁separat	-9443
▁aircraft	-9444
▁distress	-9445
▁facility	-9446
▁illusion	-9447
▁symbolic	-9448
▁budgetary	-9449
▁equitable	-9450
▁overnight	-9451
▁qualified	-9452
▁routinely	-9453
▁Throughout	-9454
▁biological	-9455
▁electronic	-9456
▁frustrated	-9457
▁comfortable	-9458
▁statistical	-9459
▁Policymakers	-9460
▁automatically	-9461
▁profitability	-9462
▁environmentally	-9463
Ps	-9464
bu	-9465
vin	-9466
JING	-9467
kans	-9468
▁Jac	-9469
▁NPT	-9470
▁Nep	-9471
World	-9472
field	-9473
fifth	-9474
▁2030	-9475
▁Near	-9476
▁bulk	-9477
▁meat	-9478
▁pron	-9479
▁unle	-9480
Soviet	-9481
orders	-9482
uggish	-9483
▁Banks	-9484
▁Index	-9485
▁Water	-9486
▁accus	-9487
▁bases	-9488
▁fatal	-9489
▁loose	-9490
▁pivot	-9491
▁prest	-9492
▁topic	-9493
▁towns	-9494
levance	-9495
station	-9496
▁bacter	-9497
▁entity	-9498
▁handle	-9499
▁hazard	-9500
▁inputs	-9501
▁lender	-9502
▁robots	-9503
▁slogan	-9504
▁thinks	-9505
▁Belgium	-9506
▁Charter	-9507
▁obesity	-9508
▁settled	-9509
▁spreads	-9510
▁uniform	-9511
▁urgency	-9512
▁Strategy	-9513
▁audience	-9514
▁daunting	-9515
▁preoccup	-9516
▁resisted	-9517
▁tactical	-9518
▁theories	-9519
▁Brazilian	-9520
▁Egyptians	-9521
▁arbitrary	-9522
▁criminals	-9523
▁incumbent	-9524
▁indicator	-9525
▁literally	-9526
▁overthrow	-9527
▁attracting	-9528
▁capability	-9529
▁enthusiasm	-9530
▁indigenous	-9531
▁bureaucrats	-9532
▁experiments	-9533
▁perceptions	-9534
▁spectacular	-9535
▁transforming	-9536
70	-9537
BC	-9538
jan	-9539
ont	-9540
▁Ug	-9541
arus	-9542
elts	-9543
ukov	-9544
uras	-9545
▁Six	-9546
▁Spe	-9547
▁Yan	-9548
atics	-9549
avoid	-9550
▁Rein	-9551
▁Rome	-9552
▁WWII	-9553
▁pund	-9554
▁shot	-9555
terror	-9556
▁2030.	-9557
▁Nepal	-9558
▁Popul	-9559
▁habit	-9560
▁marks	-9561
▁matur	-9562
▁throw	-9563
Israeli	-9564
ourcing	-9565
▁entail	-9566
▁fisher	-9567
▁interm	-9568
▁orient	-9569
▁phones	-9570
arations	-9571
▁BEIJING	-9572
▁boosted	-9573
▁caution	-9574
▁clients	-9575
▁covered	-9576
▁dissent	-9577
▁helpful	-9578
▁partial	-9579
enhancing	-9580
▁defining	-9581
▁factions	-9582
▁frontier	-9583
▁infected	-9584
▁packages	-9585
▁whenever	-9586
▁breakdown	-9587
▁incapable	-9588
▁paralysis	-9589
▁promotion	-9590
▁reasoning	-9591
▁scientist	-9592
▁witnessed	-9593
▁infections	-9594
▁influenced	-9595
▁preserving	-9596
▁succession	-9597
▁Declaration	-9598
▁citizenship	-9599
▁remittances	-9600
▁revelations	-9601
▁evolutionary	-9602
▁impoverished	-9603
▁possibilities	-9604
.,	-9605
cho	-9606
esh	-9607
iki	-9608
irt	-9609
rol	-9610
Arab	-9611
aped	-9612
bial	-9613
ugos	-9614
▁Opp	-9615
▁Rem	-9616
-2008	-9617
iates	-9618
oline	-9619
▁1989	-9620
▁Pact	-9621
▁Prem	-9622
▁elev	-9623
▁gest	-9624
▁wins	-9625
idable	-9626
needed	-9627
▁Games	-9628
▁Sinai	-9629
▁boast	-9630
▁breed	-9631
▁fruit	-9632
▁label	-9633
▁naval	-9634
▁pleas	-9635
▁reign	-9636
atollah	-9637
atories	-9638
capital	-9639
limited	-9640
ugoslav	-9641
▁Darfur	-9642
▁Former	-9643
▁Future	-9644
▁abrupt	-9645
▁barrel	-9646
▁lately	-9647
▁luxury	-9648
▁myriad	-9649
▁shrink	-9650
▁square	-9651
▁tested	-9652
▁thrive	-9653
liaments	-9654
▁Michael	-9655
▁Project	-9656
▁Thaksin	-9657
▁insight	-9658
▁logical	-9659
▁prestig	-9660
▁readily	-9661
▁succumb	-9662
communist	-9663
▁paradigm	-9664
▁reckless	-9665
▁Microsoft	-9666
▁disregard	-9667
▁extension	-9668
▁misguided	-9669
▁personnel	-9670
▁decisively	-9671
▁ecosystems	-9672
▁formidable	-9673
▁psychology	-9674
▁remarkably	-9675
▁distortions	-9676
▁exceptional	-9677
▁philanthrop	-9678
▁calculations	-9679
▁indispensable	-9680
EM	-9681
FOR	-9682
dig	-9683
▁CN	-9684
▁Ol	-9685
▁Up	-9686
achs	-9687
bean	-9688
bear	-9689
gian	-9690
icks	-9691
inav	-9692
ohol	-9693
thal	-9694
▁Kir	-9695
▁Tam	-9696
▁dan	-9697
▁mir	-9698
▁sli	-9699
Islam	-9700
after	-9701
iracy	-9702
▁Mark	-9703
▁Pric	-9704
▁fees	-9705
▁hate	-9706
ranted	-9707
rising	-9708
seless	-9709
▁2020.	-9710
▁Haiti	-9711
▁cards	-9712
▁coerc	-9713
▁games	-9714
▁midst	-9715
▁rigor	-9716
andinav	-9717
iencies	-9718
induced	-9719
outhern	-9720
version	-9721
▁Arctic	-9722
▁Better	-9723
▁Viktor	-9724
▁banned	-9725
▁breast	-9726
▁denial	-9727
▁detect	-9728
▁favors	-9729
▁lifted	-9730
▁overly	-9731
▁unleas	-9732
▁Belarus	-9733
▁Silicon	-9734
▁emerges	-9735
▁endorse	-9736
▁farming	-9737
▁inspire	-9738
▁mindset	-9739
▁origins	-9740
▁reveals	-9741
▁revived	-9742
▁rewards	-9743
▁vibrant	-9744
financial	-9745
▁McKinsey	-9746
▁Movement	-9747
▁appetite	-9748
▁backward	-9749
▁diabetes	-9750
▁morality	-9751
▁outflows	-9752
▁addresses	-9753
▁assessing	-9754
▁believing	-9755
▁considers	-9756
▁crackdown	-9757
▁Ironically	-9758
▁Kazakhstan	-9759
▁Protection	-9760
▁coordinate	-9761
▁composition	-9762
▁determining	-9763
▁probability	-9764
▁underground	-9765
▁malnutrition	-9766
▁participating	-9767
▁Representatives	-9768
90	-9769
afe	-9770
epr	-9771
aste	-9772
erto	-9773
sett	-9774
▁Ach	-9775
▁Ser	-9776
▁cum	-9777
▁twe	-9778
attle	-9779
ports	-9780
▁Coal	-9781
▁Open	-9782
▁blue	-9783
▁boss	-9784
▁hier	-9785
▁monu	-9786
▁outp	-9787
anship	-9788
cially	-9789
eltsin	-9790
headed	-9791
ocaust	-9792
▁1989,	-9793
▁afflu	-9794
▁atroc	-9795
▁forge	-9796
▁offsh	-9797
▁scene	-9798
▁seeds	-9799
ajority	-9800
iration	-9801
▁Thanks	-9802
▁adhere	-9803
▁aggrav	-9804
▁attain	-9805
▁fierce	-9806
▁punish	-9807
▁solved	-9808
▁string	-9809
educated	-9810
▁Leaders	-9811
▁Private	-9812
▁Special	-9813
▁Yeltsin	-9814
▁arsenal	-9815
▁essence	-9816
▁factory	-9817
▁physics	-9818
▁trapped	-9819
▁–&#160;	-9820
▁Exchange	-9821
▁Interest	-9822
▁Marshall	-9823
▁averaged	-9824
▁memories	-9825
▁predomin	-9826
▁receives	-9827
▁renegoti	-9828
▁scrutiny	-9829
▁automatic	-9830
▁inherited	-9831
▁reforming	-9832
▁socialist	-9833
▁adaptation	-9834
▁ambassador	-9835
▁discretion	-9836
▁peripheral	-9837
▁renewables	-9838
▁interaction	-9839
▁outstanding	-9840
▁parliaments	-9841
▁interference	-9842
▁normalization	-9843
▁democratization	-9844
!”	-9845
-3	-9846
SR	-9847
Pro	-9848
ela	-9849
gra	-9850
rov	-9851
▁26	-9852
▁ES	-9853
▁La	-9854
rock	-9855
umer	-9856
will	-9857
▁Att	-9858
▁Bay	-9859
▁Mic	-9860
achev	-9861
overs	-9862
pered	-9863
▁1950	-9864
▁fled	-9865
▁mega	-9866
▁mild	-9867
▁rice	-9868
ieving	-9869
▁Exper	-9870
▁Royal	-9871
▁Sachs	-9872
▁cited	-9873
▁empty	-9874
▁erode	-9875
▁music	-9876
▁rests	-9877
▁touch	-9878
ariably	-9879
raining	-9880
riendly	-9881
▁Franco	-9882
▁Puerto	-9883
▁bipart	-9884
▁hurric	-9885
▁silent	-9886
▁Current	-9887
▁Increas	-9888
▁Romania	-9889
▁alcohol	-9890
▁dubious	-9891
▁outlets	-9892
▁recruit	-9893
▁strange	-9894
▁surveys	-9895
developed	-9896
▁Everyone	-9897
▁cautious	-9898
▁insights	-9899
▁instinct	-9900
▁lifetime	-9901
▁mistrust	-9902
▁overhang	-9903
corruption	-9904
▁Inflation	-9905
▁decentral	-9906
▁depending	-9907
▁formation	-9908
development	-9909
▁attributed	-9910
▁coalitions	-9911
▁compliance	-9912
▁documented	-9913
▁inherently	-9914
▁nomination	-9915
▁originally	-9916
▁presumably	-9917
▁protracted	-9918
▁respective	-9919
▁conclusions	-9920
▁unification	-9921
▁fluctuations	-9922
▁deterioration	-9923
zh	-9924
án	-9925
ARC	-9926
aur	-9927
big	-9928
iza	-9929
ows	-9930
rim	-9931
sky	-9932
too	-9933
ych	-9934
▁2,	-9935
▁fr	-9936
▁Cor	-9937
▁Jud	-9938
▁Ste	-9939
▁esp	-9940
licop	-9941
▁Dodd	-9942
▁cogn	-9943
▁grip	-9944
▁mudd	-9945
▁phot	-9946
▁ring	-9947
▁sick	-9948
Brexit	-9949
arians	-9950
ivable	-9951
states	-9952
▁2002,	-9953
▁2005.	-9954
▁Black	-9955
▁Henry	-9956
▁Nazis	-9957
▁cliff	-9958
▁drone	-9959
▁enshr	-9960
▁foods	-9961
▁keeps	-9962
▁march	-9963
▁proxy	-9964
iversal	-9965
▁benign	-9966
▁excuse	-9967
▁stages	-9968
▁Gazprom	-9969
▁Nothing	-9970
▁Yanukov	-9971
▁closest	-9972
▁existed	-9973
▁harness	-9974
▁heading	-9975
▁obliged	-9976
▁removal	-9977
▁rethink	-9978
▁secured	-9979
▁therapy	-9980
dominated	-9981
effective	-9982
efficient	-9983
regulated	-9984
▁Abdullah	-9985
▁adjusted	-9986
▁amounted	-9987
▁freedoms	-9988
▁invented	-9989
▁treating	-9990
ologically	-9991
▁Scandinav	-9992
▁dividends	-9993
▁worsening	-9994
▁fragmented	-9995
▁reluctance	-9996
▁restricted	-9997
▁undergoing	-9998
▁containment	-9999
▁collectively	-10000
▁unilaterally	-10001
▁breakthroughs	-10002
▁fragmentation	-10003
▁underestimated	-10004
Af	-10005
Ind	-10006
upp	-10007
zen	-10008
▁Ox	-10009
FORD	-10010
aire	-10011
gans	-10012
rian	-10013
wait	-10014
▁$40	-10015
▁150	-10016
▁Hig	-10017
▁bin	-10018
▁fab	-10019
Frank	-10020
derón	-10021
itant	-10022
▁1991	-10023
▁Cost	-10024
▁PBOC	-10025
▁Prov	-10026
▁aver	-10027
▁clar	-10028
▁cush	-10029
▁kick	-10030
▁rage	-10031
▁1999,	-10032
▁Ghana	-10033
▁Scott	-10034
▁Swiss	-10035
▁euros	-10036
▁genet	-10037
▁likes	-10038
▁reaff	-10039
▁reson	-10040
▁shoot	-10041
attered	-10042
keeping	-10043
▁Action	-10044
▁Asians	-10045
▁Gaulle	-10046
▁Joseph	-10047
▁grants	-10048
▁marine	-10049
▁rebell	-10050
▁strang	-10051
idential	-10052
illusion	-10053
intended	-10054
▁Mohamed	-10055
▁authors	-10056
▁despair	-10057
▁disclos	-10058
▁founder	-10059
▁lifting	-10060
▁offices	-10061
▁unravel	-10062
▁Military	-10063
▁Xiaoping	-10064
▁disputed	-10065
▁episodes	-10066
▁equipped	-10067
▁massacre	-10068
▁mistaken	-10069
▁refusing	-10070
▁suppress	-10071
▁Eurobonds	-10072
▁Socialist	-10073
▁conscious	-10074
▁defensive	-10075
▁radically	-10076
▁restraint	-10077
▁statehood	-10078
▁suppliers	-10079
▁Yanukovych	-10080
▁grievances	-10081
▁motivation	-10082
▁advertising	-10083
▁disruptions	-10084
▁recommended	-10085
▁Revolutionary	-10086
PJ	-10087
aba	-10088
cep	-10089
ken	-10090
mal	-10091
▁Av	-10092
▁et	-10093
good	-10094
onic	-10095
▁Has	-10096
▁Wil	-10097
▁wre	-10098
cture	-10099
icket	-10100
rance	-10101
roads	-10102
start	-10103
▁2020	-10104
▁Gorb	-10105
▁Nord	-10106
▁Prom	-10107
▁feet	-10108
▁shel	-10109
▁tone	-10110
arrass	-10111
uating	-10112
▁drast	-10113
▁sched	-10114
▁sheer	-10115
▁store	-10116
▁urged	-10117
athered	-10118
▁Twenty	-10119
▁arrive	-10120
▁buyers	-10121
▁duties	-10122
▁freeze	-10123
▁plight	-10124
▁sevent	-10125
▁worsen	-10126
affected	-10127
financed	-10128
▁Balkans	-10129
▁Markets	-10130
▁Premier	-10131
▁Similar	-10132
▁breakup	-10133
▁compare	-10134
▁denying	-10135
▁distric	-10136
▁episode	-10137
▁futures	-10138
▁gravity	-10139
▁journey	-10140
▁migrant	-10141
▁smoking	-10142
izational	-10143
roductive	-10144
rudential	-10145
ugoslavia	-10146
▁Calderón	-10147
▁Recently	-10148
▁blocking	-10149
▁lobbying	-10150
▁mainland	-10151
▁organize	-10152
▁prompted	-10153
▁radicals	-10154
▁ratified	-10155
▁troubles	-10156
▁Ayatollah	-10157
▁Companies	-10158
▁Gorbachev	-10159
▁broadcast	-10160
▁concerted	-10161
▁documents	-10162
▁unleashed	-10163
▁withstand	-10164
▁appearance	-10165
▁ecological	-10166
▁ministries	-10167
▁centralized	-10168
▁discredited	-10169
▁implication	-10170
▁replacement	-10171
▁Specifically	-10172
▁conversation	-10173
▁marginalized	-10174
▁beneficiaries	-10175
▁disappointing	-10176
TT	-10177
iam	-10178
ova	-10179
ped	-10180
ski	-10181
yip	-10182
agog	-10183
avor	-10184
ften	-10185
▁fro	-10186
▁thw	-10187
eline	-10188
rians	-10189
ronts	-10190
vigor	-10191
▁Fear	-10192
▁Sant	-10193
▁Soon	-10194
▁aged	-10195
▁baby	-10196
▁fant	-10197
▁shed	-10198
▁unth	-10199
ighted	-10200
omfort	-10201
oughly	-10202
▁Hindu	-10203
▁Laden	-10204
▁grass	-10205
▁prize	-10206
▁vague	-10207
etitive	-10208
riminal	-10209
▁Confuc	-10210
▁Kuwait	-10211
▁Tayyip	-10212
▁defect	-10213
▁enroll	-10214
▁gotten	-10215
▁ideals	-10216
▁masses	-10217
▁physic	-10218
▁spends	-10219
▁vastly	-10220
icularly	-10221
location	-10222
regional	-10223
▁Baghdad	-10224
▁Swedish	-10225
▁adviser	-10226
▁agendas	-10227
▁antagon	-10228
▁combine	-10229
▁pundits	-10230
▁station	-10231
estically	-10232
reduction	-10233
▁Southern	-10234
▁borrowed	-10235
▁deciding	-10236
▁decrease	-10237
▁displace	-10238
▁favorite	-10239
▁gasoline	-10240
▁imagined	-10241
▁location	-10242
▁maneuver	-10243
▁postpone	-10244
▁Holocaust	-10245
▁ceasefire	-10246
▁combating	-10247
▁districts	-10248
▁enhancing	-10249
▁historian	-10250
▁indicated	-10251
▁intensity	-10252
▁reactions	-10253
▁schooling	-10254
▁struggled	-10255
▁abandoning	-10256
▁autocratic	-10257
▁safeguards	-10258
▁sentiments	-10259
▁systematic	-10260
▁facilitated	-10261
▁introducing	-10262
▁demonstrating	-10263
FS	-10264
If	-10265
awn	-10266
exas	-10267
uepr	-10268
▁AMR	-10269
▁Dig	-10270
▁Liu	-10271
▁Rio	-10272
▁tub	-10273
board	-10274
richt	-10275
value	-10276
worth	-10277
▁Mikh	-10278
▁OPEC	-10279
▁cler	-10280
▁park	-10281
▁ship	-10282
▁wary	-10283
atural	-10284
ensity	-10285
etting	-10286
ferent	-10287
▁Recep	-10288
▁Smith	-10289
▁guess	-10290
▁homel	-10291
finance	-10292
ography	-10293
quarter	-10294
▁Forces	-10295
▁Martin	-10296
▁Refuge	-10297
▁hidden	-10298
▁insurg	-10299
▁lacked	-10300
▁poison	-10301
▁potent	-10302
▁soccer	-10303
▁tribun	-10304
astricht	-10305
▁Banking	-10306
▁monthly	-10307
▁stagger	-10308
itization	-10309
▁activist	-10310
▁emotions	-10311
▁excesses	-10312
▁quantity	-10313
especially	-10314
▁Obviously	-10315
▁attacking	-10316
▁proposing	-10317
▁provinces	-10318
▁skeptical	-10319
▁atrocities	-10320
▁casualties	-10321
▁deliberate	-10322
▁disturbing	-10323
▁enthusiast	-10324
▁heightened	-10325
▁indication	-10326
▁invariably	-10327
▁compromises	-10328
▁practically	-10329
▁exploitation	-10330
▁indefinitely	-10331
▁diversification	-10332
irs	-10333
isk	-10334
nov	-10335
reb	-10336
char	-10337
disc	-10338
last	-10339
▁Hug	-10340
▁Old	-10341
▁WHO	-10342
▁peg	-10343
acked	-10344
ceans	-10345
fired	-10346
phone	-10347
vable	-10348
▁Kash	-10349
▁Prop	-10350
▁hang	-10351
▁loos	-10352
▁mant	-10353
▁nerv	-10354
▁Event	-10355
▁Offic	-10356
▁bleak	-10357
▁clout	-10358
▁items	-10359
▁outwe	-10360
▁ports	-10361
▁unres	-10362
roughts	-10363
▁Budget	-10364
▁Uganda	-10365
▁devise	-10366
▁drives	-10367
▁embass	-10368
▁floods	-10369
▁fright	-10370
▁guided	-10371
▁judged	-10372
▁metric	-10373
▁pretty	-10374
▁rememb	-10375
▁traded	-10376
▁triple	-10377
▁wishes	-10378
▁Jacques	-10379
▁Johnson	-10380
▁Mandela	-10381
▁letting	-10382
▁militar	-10383
▁patents	-10384
▁reaches	-10385
▁Ministry	-10386
▁Politics	-10387
▁activism	-10388
▁equities	-10389
▁prevents	-10390
▁signaled	-10391
▁assertive	-10392
▁generates	-10393
▁insisting	-10394
▁mandatory	-10395
▁outsiders	-10396
▁satellite	-10397
▁upgrading	-10398
▁accessible	-10399
▁cosmopolit	-10400
▁skepticism	-10401
▁sustaining	-10402
▁intensified	-10403
▁intensifying	-10404
▁interdependence	-10405
▁multilateralism	-10406
▁vulnerabilities	-10407
27	-10408
ki	-10409
aku	-10410
ida	-10411
pre	-10412
▁ST	-10413
atan	-10414
case	-10415
eded	-10416
iege	-10417
osni	-10418
▁Dem	-10419
▁ICT	-10420
▁Tob	-10421
▁ham	-10422
eches	-10423
ipras	-10424
ulous	-10425
▁1995	-10426
▁Aben	-10427
▁Biny	-10428
▁Care	-10429
▁Well	-10430
▁cere	-10431
▁crus	-10432
▁tech	-10433
ibbean	-10434
incial	-10435
ushima	-10436
▁Guard	-10437
▁Hosni	-10438
▁Panel	-10439
▁Texas	-10440
▁bless	-10441
▁clash	-10442
▁climb	-10443
▁embod	-10444
▁mired	-10445
▁socio	-10446
autiful	-10447
diction	-10448
ordable	-10449
welfare	-10450
▁Syriza	-10451
▁beings	-10452
▁giants	-10453
▁nomine	-10454
▁quotas	-10455
▁stockp	-10456
▁unhapp	-10457
▁Affairs	-10458
▁Earlier	-10459
▁Tsipras	-10460
▁destiny	-10461
▁endless	-10462
▁examine	-10463
▁extract	-10464
▁husband	-10465
▁pockets	-10466
▁rampant	-10467
▁subsidy	-10468
▁utterly	-10469
▁vehicle	-10470
▁assembly	-10471
▁doubling	-10472
▁enforced	-10473
▁referred	-10474
▁tolerate	-10475
▁violated	-10476
&#45;&#45;	-10477
▁Caribbean	-10478
▁Investors	-10479
▁academics	-10480
▁allegedly	-10481
▁compelled	-10482
▁declaring	-10483
▁explosion	-10484
▁launching	-10485
▁Maastricht	-10486
▁automation	-10487
▁bipartisan	-10488
▁continuous	-10489
▁militarily	-10490
▁reflection	-10491
▁supplement	-10492
▁unresolved	-10493
▁continental	-10494
▁contributes	-10495
▁humiliation	-10496
▁legislators	-10497
▁permanently	-10498
▁unrealistic	-10499
▁uncertainties	-10500
▁industrialized	-10501
-5	-10502
UL	-10503
aug	-10504
lan	-10505
uay	-10506
▁Ko	-10507
▁om	-10508
anch	-10509
burg	-10510
euro	-10511
idal	-10512
ilty	-10513
kind	-10514
▁Ecu	-10515
▁uni	-10516
5,000	-10517
andhi	-10518
ellen	-10519
ercul	-10520
ungry	-10521
winds	-10522
▁Rico	-10523
▁Thai	-10524
▁damp	-10525
▁scre	-10526
▁2030,	-10527
▁cripp	-10528
▁effic	-10529
▁erect	-10530
▁shame	-10531
▁Common	-10532
▁Marine	-10533
▁Nearly	-10534
▁inward	-10535
▁native	-10536
▁outset	-10537
▁revolt	-10538
▁Certain	-10539
▁Mikhail	-10540
▁broaden	-10541
▁compact	-10542
▁hardest	-10543
▁inhabit	-10544
▁pillars	-10545
▁pressed	-10546
▁stalled	-10547
▁symptom	-10548
erculosis	-10549
▁Binyamin	-10550
▁consumed	-10551
▁feedback	-10552
▁opponent	-10553
▁segments	-10554
celeration	-10555
▁Abenomics	-10556
▁Fukushima	-10557
▁correctly	-10558
▁exploited	-10559
▁forefront	-10560
▁maintains	-10561
▁rejecting	-10562
▁replacing	-10563
▁&#45;&#45;	-10564
▁liberalism	-10565
▁overcoming	-10566
▁complacency	-10567
▁elimination	-10568
▁exemplified	-10569
▁resolutions	-10570
▁technocratic	-10571
/1	-10572
AL	-10573
omy	-10574
unc	-10575
who	-10576
▁Pi	-10577
away	-10578
omas	-10579
▁Hel	-10580
▁Job	-10581
▁NCD	-10582
▁Val	-10583
▁Was	-10584
▁dil	-10585
▁rum	-10586
enter	-10587
icago	-10588
itous	-10589
ousse	-10590
roika	-10591
▁Amaz	-10592
▁Jour	-10593
▁Main	-10594
▁Stra	-10595
▁Wild	-10596
▁elig	-10597
▁hast	-10598
▁nost	-10599
▁rapp	-10600
▁synt	-10601
▁thor	-10602
▁urge	-10603
German	-10604
Muslim	-10605
assion	-10606
enders	-10607
funded	-10608
people	-10609
▁Moral	-10610
▁booms	-10611
▁dealt	-10612
▁inhib	-10613
▁redef	-10614
atively	-10615
herence	-10616
igation	-10617
inarily	-10618
itement	-10619
itizens	-10620
reating	-10621
umbling	-10622
▁Libyan	-10623
▁Yellen	-10624
▁bluepr	-10625
▁genome	-10626
▁nightm	-10627
▁season	-10628
▁wasted	-10629
changing	-10630
friendly	-10631
▁credits	-10632
▁durable	-10633
▁enlight	-10634
▁harvest	-10635
▁holders	-10636
▁margins	-10637
▁motives	-10638
▁studied	-10639
▁tougher	-10640
▁unequal	-10641
insurance	-10642
resistant	-10643
▁Nowadays	-10644
▁droughts	-10645
▁instance	-10646
▁sluggish	-10647
▁survived	-10648
▁undercut	-10649
▁advocated	-10650
▁champions	-10651
▁embarrass	-10652
▁empowered	-10653
▁geography	-10654
▁ignorance	-10655
▁intermedi	-10656
▁advocating	-10657
▁competence	-10658
▁comprising	-10659
▁rebuilding	-10660
▁accommodate	-10661
▁concentrate	-10662
▁disappeared	-10663
▁disillusion	-10664
▁incremental	-10665
▁trafficking	-10666
▁manufactured	-10667
▁telecommunic	-10668
As	-10669
▁i	-10670
non	-10671
rev	-10672
▁AT	-10673
▁ri	-10674
alls	-10675
ania	-10676
fulf	-10677
uble	-10678
uddh	-10679
▁DPJ	-10680
▁Jim	-10681
▁dry	-10682
▁voc	-10683
archs	-10684
human	-10685
oting	-10686
▁Cauc	-10687
▁Ever	-10688
▁Zeal	-10689
▁intu	-10690
▁sale	-10691
pelled	-10692
ttoman	-10693
usions	-10694
▁1950’	-10695
▁Annan	-10696
▁Buddh	-10697
▁Cypri	-10698
▁Secur	-10699
▁bombs	-10700
▁downg	-10701
▁envis	-10702
▁fract	-10703
▁hypoc	-10704
▁theme	-10705
Qaddafi	-10706
economy	-10707
ication	-10708
▁McCain	-10709
▁affair	-10710
▁consec	-10711
▁counts	-10712
▁electr	-10713
▁fabric	-10714
▁hoping	-10715
▁influx	-10716
▁oceans	-10717
▁prejud	-10718
▁Ecuador	-10719
▁bearing	-10720
▁clarity	-10721
▁clearer	-10722
▁emulate	-10723
▁extends	-10724
▁passage	-10725
▁provoke	-10726
▁solving	-10727
▁suscept	-10728
▁affluent	-10729
▁disposal	-10730
▁drinking	-10731
▁flooding	-10732
▁hardship	-10733
▁metaphor	-10734
▁reminded	-10735
▁revision	-10736
▁salaries	-10737
▁speeches	-10738
▁stunning	-10739
▁thinkers	-10740
▁fertility	-10741
▁mentioned	-10742
▁neglected	-10743
▁reinvigor	-10744
▁scheduled	-10745
▁unlimited	-10746
▁dimensions	-10747
▁escalation	-10748
withstanding	-10749
▁theoretical	-10750
▁domestically	-10751
▁jurisdiction	-10752
▁subsidiaries	-10753
▁totalitarian	-10754
▁strategically	-10755
▁entrepreneurial	-10756
IL	-10757
PM	-10758
WF	-10759
apt	-10760
bán	-10761
via	-10762
feld	-10763
scar	-10764
▁12%	-10765
▁35%	-10766
▁75%	-10767
▁Fox	-10768
▁Rog	-10769
▁Tea	-10770
▁haw	-10771
▁hij	-10772
Claud	-10773
ammar	-10774
digit	-10775
eness	-10776
ivial	-10777
▁$500	-10778
▁100%	-10779
▁1979	-10780
▁1992	-10781
▁1999	-10782
▁Alan	-10783
▁Cels	-10784
▁MDGs	-10785
▁Oslo	-10786
▁abst	-10787
▁dual	-10788
▁rush	-10789
Claude	-10790
dollar	-10791
enable	-10792
reated	-10793
▁1990,	-10794
▁1991,	-10795
▁1997,	-10796
▁2001.	-10797
▁Anglo	-10798
▁Canad	-10799
▁Orbán	-10800
▁Peter	-10801
▁civic	-10802
▁intra	-10803
▁maybe	-10804
▁panel	-10805
▁swaps	-10806
▁tries	-10807
▁voter	-10808
inkable	-10809
rategic	-10810
▁Gandhi	-10811
▁Prince	-10812
▁Regard	-10813
▁defore	-10814
▁deputy	-10815
▁desert	-10816
▁firing	-10817
▁makers	-10818
▁rounds	-10819
▁spoken	-10820
capacity	-10821
▁Between	-10822
▁Celsius	-10823
▁Chicago	-10824
▁Goldman	-10825
▁Muammar	-10826
▁Workers	-10827
▁acquies	-10828
▁battles	-10829
▁booming	-10830
▁conting	-10831
▁coupled	-10832
▁cynical	-10833
▁endured	-10834
▁lowered	-10835
▁prudent	-10836
▁unavoid	-10837
icultural	-10838
olidarity	-10839
▁Franklin	-10840
▁Scottish	-10841
▁abundant	-10842
▁applying	-10843
▁deserves	-10844
▁evolving	-10845
▁examined	-10846
▁friendly	-10847
▁literacy	-10848
▁militant	-10849
▁missions	-10850
▁offshore	-10851
▁respects	-10852
▁scarcity	-10853
▁talented	-10854
▁tangible	-10855
▁Christmas	-10856
▁Hungarian	-10857
▁certainty	-10858
▁collected	-10859
▁distorted	-10860
▁execution	-10861
▁fostering	-10862
▁intensify	-10863
▁mobilized	-10864
▁secession	-10865
▁suspected	-10866
▁suspended	-10867
otechnology	-10868
▁Venezuelan	-10869
▁Yugoslavia	-10870
▁accurately	-10871
▁autonomous	-10872
▁behavioral	-10873
▁emphasizes	-10874
▁journalist	-10875
▁portfolios	-10876
▁provincial	-10877
▁staggering	-10878
▁destination	-10879
▁limitations	-10880
▁personality	-10881
▁disagreement	-10882
-4	-10883
TB	-10884
za	-10885
bul	-10886
acit	-10887
iors	-10888
ulum	-10889
▁Cro	-10890
▁Ext	-10891
▁Ide	-10892
▁Pat	-10893
▁Yas	-10894
▁gal	-10895
▁owe	-10896
ruits	-10897
skill	-10898
spons	-10899
umbai	-10900
▁Fail	-10901
▁Hugo	-10902
▁Mayn	-10903
▁Snow	-10904
▁Vien	-10905
▁epic	-10906
▁issu	-10907
▁narr	-10908
▁peer	-10909
engine	-10910
inians	-10911
lywood	-10912
school	-10913
social	-10914
▁Guant	-10915
▁River	-10916
▁borne	-10917
▁fever	-10918
▁globe	-10919
▁overe	-10920
▁preca	-10921
▁reper	-10922
▁unden	-10923
erating	-10924
ighting	-10925
ussions	-10926
weapons	-10927
▁Around	-10928
▁Bundes	-10929
▁breaks	-10930
▁clever	-10931
▁miscon	-10932
▁overst	-10933
▁suited	-10934
breaking	-10935
▁Zealand	-10936
▁apparat	-10937
▁cushion	-10938
▁discern	-10939
▁foolish	-10940
▁ignores	-10941
▁linking	-10942
▁nervous	-10943
▁procure	-10944
▁restaur	-10945
▁Administ	-10946
▁Children	-10947
▁category	-10948
▁consists	-10949
▁covering	-10950
▁gathered	-10951
▁incident	-10952
▁sweeping	-10953
▁teaching	-10954
▁incidents	-10955
▁liberties	-10956
▁somewhere	-10957
denominated	-10958
functioning	-10959
▁escalating	-10960
▁fulfilling	-10961
▁insistence	-10962
▁narratives	-10963
▁peacefully	-10964
▁privileged	-10965
▁remembered	-10966
▁assessments	-10967
▁consecutive	-10968
▁contentious	-10969
▁controversy	-10970
▁emphasizing	-10971
▁exaggerated	-10972
▁immunization	-10973
▁longstanding	-10974
▁nationalists	-10975
▁Environmental	-10976
▁unfortunately	-10977
▁organizational	-10978
IR	-10979
▁¥	-10980
emy	-10981
fty	-10982
net	-10983
pts	-10984
rey	-10985
vio	-10986
▁9.	-10987
asus	-10988
iger	-10989
imil	-10990
umes	-10991
▁Ins	-10992
▁gam	-10993
▁ped	-10994
aspor	-10995
child	-10996
isive	-10997
isted	-10998
roche	-10999
yield	-11000
▁Crit	-11001
▁Marg	-11002
▁Mold	-11003
▁Shah	-11004
▁Stan	-11005
▁Tian	-11006
▁akin	-11007
▁blog	-11008
cribed	-11009
▁2000.	-11010
▁2017,	-11011
▁Could	-11012
▁conqu	-11013
▁cruel	-11014
▁defer	-11015
▁divor	-11016
▁infer	-11017
▁quasi	-11018
▁secre	-11019
▁spear	-11020
▁spike	-11021
ignific	-11022
ologist	-11023
▁Manuel	-11024
▁Michel	-11025
▁Review	-11026
▁anonym	-11027
▁arises	-11028
▁eroded	-11029
▁fronts	-11030
▁lethal	-11031
▁pillar	-11032
▁sensit	-11033
▁stalem	-11034
▁Journal	-11035
▁Maynard	-11036
▁anytime	-11037
▁assured	-11038
▁careers	-11039
▁diaspor	-11040
▁expects	-11041
▁fallout	-11042
▁flowing	-11043
▁hostage	-11044
▁mineral	-11045
▁reacted	-11046
▁readers	-11047
▁shouldn	-11048
▁trusted	-11049
rochement	-11050
▁Reinhart	-11051
▁centrist	-11052
▁clearing	-11053
▁commonly	-11054
▁scandals	-11055
▁shocking	-11056
▁stressed	-11057
▁universe	-11058
▁channeled	-11059
▁exceeding	-11060
▁exercises	-11061
▁healthier	-11062
▁infection	-11063
▁moderates	-11064
▁orthodoxy	-11065
▁troubling	-11066
▁violation	-11067
▁attraction	-11068
▁committing	-11069
▁complained	-11070
▁preference	-11071
▁proclaimed	-11072
▁unintended	-11073
▁businessmen	-11074
▁conditional	-11075
▁publication	-11076
▁civilizations	-11077
▁deteriorating	-11078
▁dictatorships	-11079
▁disagreements	-11080
CH	-11081
ED	-11082
kh	-11083
vo	-11084
arc	-11085
exp	-11086
ule	-11087
▁(2	-11088
blem	-11089
igil	-11090
neum	-11091
quir	-11092
rush	-11093
seen	-11094
▁Mel	-11095
▁Ret	-11096
▁Teh	-11097
▁cra	-11098
▁jun	-11099
▁mad	-11100
▁sat	-11101
apter	-11102
fuels	-11103
group	-11104
osity	-11105
speed	-11106
▁2017	-11107
▁AIIB	-11108
▁Bulg	-11109
▁Imag	-11110
▁Lula	-11111
▁Youn	-11112
▁medi	-11113
▁nutr	-11114
perial	-11115
reason	-11116
struct	-11117
▁1979,	-11118
▁2050,	-11119
▁Barro	-11120
▁Euras	-11121
▁Force	-11122
▁Parad	-11123
▁blunt	-11124
▁brave	-11125
▁exped	-11126
▁floor	-11127
▁forum	-11128
▁frict	-11129
▁irony	-11130
▁prone	-11131
▁river	-11132
▁spark	-11133
acities	-11134
conserv	-11135
tenance	-11136
▁Thomas	-11137
▁compel	-11138
▁cultiv	-11139
▁curric	-11140
▁hearts	-11141
▁oversh	-11142
▁switch	-11143
▁thrown	-11144
▁visits	-11145
▁Syrians	-11146
▁desired	-11147
▁elusive	-11148
▁guiding	-11149
▁inherit	-11150
▁morally	-11151
▁officer	-11152
▁regards	-11153
▁totally	-11154
▁trivial	-11155
dependent	-11156
▁exceeded	-11157
▁impeding	-11158
▁instruct	-11159
▁integral	-11160
▁killings	-11161
▁linkages	-11162
▁maternal	-11163
▁outweigh	-11164
▁pointing	-11165
▁psychiat	-11166
▁strictly	-11167
▁tackling	-11168
▁traction	-11169
▁accompany	-11170
▁beautiful	-11171
▁broadband	-11172
▁cognitive	-11173
▁describes	-11174
▁excellent	-11175
▁insolvent	-11176
▁nightmare	-11177
▁perfectly	-11178
▁reformers	-11179
▁relevance	-11180
▁substance	-11181
▁surrender	-11182
▁Bundesbank	-11183
▁anticipate	-11184
▁diagnostic	-11185
▁insolvency	-11186
▁processing	-11187
▁accusations	-11188
▁communicate	-11189
▁correlation	-11190
▁identifying	-11191
▁interpreted	-11192
▁maintenance	-11193
▁shareholder	-11194
▁stimulating	-11195
▁technocrats	-11196
▁undertaking	-11197
▁headquarters	-11198
▁indifference	-11199
▁deforestation	-11200
▁underestimate	-11201
ui	-11202
due	-11203
ros	-11204
▁BO	-11205
aved	-11206
chen	-11207
namo	-11208
ndra	-11209
role	-11210
▁Exp	-11211
▁Len	-11212
▁Mem	-11213
▁fer	-11214
▁lik	-11215
blown	-11216
eding	-11217
great	-11218
issue	-11219
ringe	-11220
ánamo	-11221
▁Fram	-11222
▁Zhou	-11223
▁Zion	-11224
▁ampl	-11225
▁copy	-11226
▁reap	-11227
▁sist	-11228
▁swap	-11229
▁walk	-11230
▁west	-11231
asions	-11232
determ	-11233
orking	-11234
requis	-11235
ulture	-11236
▁Cuban	-11237
▁Money	-11238
▁Techn	-11239
▁bears	-11240
▁centr	-11241
▁color	-11242
▁exert	-11243
▁fired	-11244
▁holid	-11245
▁inaug	-11246
▁magaz	-11247
▁movie	-11248
▁pregn	-11249
▁score	-11250
▁swept	-11251
▁swing	-11252
porting	-11253
▁Mechan	-11254
▁Mumbai	-11255
▁Rousse	-11256
▁Scient	-11257
▁Vienna	-11258
▁conced	-11259
▁dreams	-11260
▁embark	-11261
▁evolve	-11262
▁illust	-11263
▁misman	-11264
▁remedy	-11265
▁unjust	-11266
▁appeals	-11267
▁circles	-11268
▁ensuing	-11269
▁hearing	-11270
▁permits	-11271
▁plunged	-11272
▁proflig	-11273
▁refuses	-11274
▁stepped	-11275
▁strains	-11276
▁tighten	-11277
ilization	-11278
prisingly	-11279
sponsored	-11280
▁Caucasus	-11281
▁Contrary	-11282
▁Italians	-11283
▁determin	-11284
▁evaluate	-11285
▁operates	-11286
▁perverse	-11287
▁preceded	-11288
▁presents	-11289
▁prestige	-11290
▁uprising	-11291
▁Euroskept	-11292
▁embracing	-11293
▁fragility	-11294
▁necessity	-11295
▁plummeted	-11296
▁postponed	-11297
▁satisfied	-11298
▁strengths	-11299
▁varieties	-11300
▁Ukrainians	-11301
▁accumulate	-11302
▁distressed	-11303
▁distribute	-11304
▁historians	-11305
▁indirectly	-11306
▁liberation	-11307
▁personally	-11308
▁eradication	-11309
▁forthcoming	-11310
▁prohibition	-11311
▁residential	-11312
▁restoration	-11313
▁transferred	-11314
▁unavoidable	-11315
▁unthinkable	-11316
▁vaccination	-11317
▁explanations	-11318
▁rapprochement	-11319
QE	-11320
abe	-11321
ano	-11322
lie	-11323
mir	-11324
nes	-11325
”).	-11326
▁$9	-11327
▁90	-11328
▁Lu	-11329
▁–&	-11330
inis	-11331
moon	-11332
raid	-11333
rend	-11334
uits	-11335
▁$20	-11336
▁Hum	-11337
▁Mat	-11338
▁Tim	-11339
▁ath	-11340
▁bea	-11341
▁etc	-11342
▁ske	-11343
acies	-11344
ariff	-11345
gical	-11346
iably	-11347
imity	-11348
peror	-11349
▁1998	-11350
▁Carn	-11351
▁Silk	-11352
▁Step	-11353
▁Tric	-11354
▁fans	-11355
▁tank	-11356
▁unim	-11357
▁wasn	-11358
acious	-11359
risome	-11360
roleum	-11361
▁1998,	-11362
▁Alban	-11363
▁NAFTA	-11364
▁Renzi	-11365
▁chess	-11366
▁embar	-11367
▁inner	-11368
▁penet	-11369
▁slack	-11370
▁title	-11371
balance	-11372
▁Amazon	-11373
▁anyway	-11374
▁boards	-11375
▁doomed	-11376
▁expose	-11377
▁nostal	-11378
▁patron	-11379
▁reiter	-11380
▁rivers	-11381
▁tenure	-11382
▁evasion	-11383
▁helicop	-11384
▁moments	-11385
▁pledges	-11386
▁supreme	-11387
▁watched	-11388
▁Criminal	-11389
▁Managing	-11390
▁Margaret	-11391
▁agreeing	-11392
▁customer	-11393
▁executed	-11394
▁initiate	-11395
▁irrevers	-11396
▁proceeds	-11397
▁sympathy	-11398
▁thriving	-11399
▁Argentine	-11400
▁apparatus	-11401
▁enshrined	-11402
▁exhausted	-11403
▁headwinds	-11404
▁prerequis	-11405
▁resistant	-11406
▁revealing	-11407
▁reversing	-11408
▁socialism	-11409
▁worrisome	-11410
information	-11411
▁Guantánamo	-11412
▁homeowners	-11413
▁insurgents	-11414
▁prohibited	-11415
▁structured	-11416
▁witnessing	-11417
▁Politicians	-11418
▁appreciated	-11419
▁cosmopolitan	-11420
▁highlighting	-11421
▁interactions	-11422
JP	-11423
di	-11424
▁£	-11425
ais	-11426
dis	-11427
isi	-11428
sub	-11429
▁Ki	-11430
bing	-11431
clos	-11432
icit	-11433
mert	-11434
ules	-11435
▁($1	-11436
▁Dec	-11437
▁Kyi	-11438
▁Nap	-11439
▁Zed	-11440
icked	-11441
▁Acad	-11442
▁Dani	-11443
▁Deal	-11444
▁Left	-11445
▁diam	-11446
▁junt	-11447
▁leap	-11448
▁sums	-11449
▁tear	-11450
atical	-11451
manuel	-11452
solete	-11453
▁Poles	-11454
▁Using	-11455
▁doors	-11456
▁smugg	-11457
▁vigil	-11458
manship	-11459
ropical	-11460
seekers	-11461
▁Across	-11462
▁Baltic	-11463
▁Credit	-11464
▁Tehran	-11465
▁coffee	-11466
▁convey	-11467
▁guilty	-11468
▁humili	-11469
▁ostens	-11470
▁recipe	-11471
▁regret	-11472
▁silver	-11473
▁writer	-11474
balanced	-11475
▁Armenia	-11476
▁Digital	-11477
▁arrival	-11478
▁clashes	-11479
▁inspect	-11480
▁miracle	-11481
▁optimal	-11482
▁rebound	-11483
▁symbols	-11484
▁transit	-11485
▁unhappy	-11486
elligence	-11487
▁Olympics	-11488
▁comments	-11489
▁concepts	-11490
▁finished	-11491
▁guerrill	-11492
▁persists	-11493
▁proposes	-11494
▁sacrific	-11495
▁blueprint	-11496
▁comprises	-11497
▁dissatisf	-11498
▁exporting	-11499
▁immigrant	-11500
▁impending	-11501
▁injustice	-11502
▁leveraged	-11503
▁locations	-11504
▁pluralism	-11505
▁stalemate	-11506
▁subjected	-11507
▁Regardless	-11508
▁achievable	-11509
▁compounded	-11510
▁containing	-11511
▁preventive	-11512
▁suspicious	-11513
▁appointment	-11514
▁persecution	-11515
▁restricting	-11516
▁artificially	-11517
▁transitional	-11518
▁contradictory	-11519
▁demonstration	-11520
▁systematically	-11521
yl	-11522
”;	-11523
MEs	-11524
bec	-11525
gar	-11526
usp	-11527
▁du	-11528
▁ox	-11529
What	-11530
heid	-11531
ilip	-11532
ourg	-11533
▁9/1	-11534
▁Ash	-11535
▁COP	-11536
▁GNP	-11537
▁Kat	-11538
▁Low	-11539
aming	-11540
borne	-11541
inked	-11542
ovsky	-11543
rates	-11544
roots	-11545
▁Adam	-11546
▁Life	-11547
▁boyc	-11548
▁jail	-11549
▁vind	-11550
50,000	-11551
arting	-11552
astics	-11553
azeera	-11554
handed	-11555
rawing	-11556
urning	-11557
utable	-11558
▁2,000	-11559
▁Advis	-11560
▁Fifth	-11561
▁Impro	-11562
▁calam	-11563
▁delic	-11564
▁disse	-11565
▁inert	-11566
▁pages	-11567
▁plain	-11568
▁sever	-11569
▁shall	-11570
▁sugar	-11571
▁trees	-11572
certain	-11573
elected	-11574
▁Castro	-11575
▁Modern	-11576
▁Olmert	-11577
▁caliph	-11578
▁crunch	-11579
▁detail	-11580
▁enjoys	-11581
▁exempt	-11582
▁lesser	-11583
▁ranked	-11584
▁ratify	-11585
▁recons	-11586
▁resume	-11587
▁scores	-11588
▁shield	-11589
ractable	-11590
▁Imagine	-11591
▁Moldova	-11592
▁adapted	-11593
▁distort	-11594
▁embargo	-11595
▁ensures	-11596
▁faction	-11597
▁fortune	-11598
▁oversee	-11599
▁penalty	-11600
▁plastic	-11601
▁specter	-11602
▁viewing	-11603
▁Citizens	-11604
▁everyday	-11605
▁innovate	-11606
▁opinions	-11607
▁resemble	-11608
▁retrench	-11609
▁selected	-11610
▁wherever	-11611
▁Achieving	-11612
▁Certainly	-11613
▁Communism	-11614
▁celebrate	-11615
▁criticize	-11616
▁dedicated	-11617
▁democrats	-11618
▁disorders	-11619
▁languages	-11620
▁marketing	-11621
▁modernize	-11622
▁pipelines	-11623
▁conspiracy	-11624
▁enrollment	-11625
▁mitigating	-11626
▁overlooked	-11627
▁performing	-11628
▁reassuring	-11629
▁recovering	-11630
▁reinforces	-11631
▁responsive	-11632
▁exploration	-11633
▁persistence	-11634
Proliferation	-11635
▁Unemployment	-11636
▁environments	-11637
▁perpetrators	-11638
▁exceptionally	-11639
▁unwillingness	-11640
ta	-11641
ads	-11642
aya	-11643
oup	-11644
san	-11645
sol	-11646
▁ax	-11647
arre	-11648
igue	-11649
play	-11650
rows	-11651
star	-11652
▁Com	-11653
▁Dal	-11654
▁Ice	-11655
▁Lag	-11656
▁Lux	-11657
▁PLO	-11658
▁Pot	-11659
▁Suu	-11660
▁gay	-11661
▁odd	-11662
aires	-11663
angan	-11664
arrhe	-11665
benef	-11666
eling	-11667
rones	-11668
▁1967	-11669
▁1996	-11670
▁Anti	-11671
▁Resp	-11672
▁ages	-11673
▁busy	-11674
▁drew	-11675
▁gang	-11676
▁glut	-11677
▁impe	-11678
▁owes	-11679
▁plag	-11680
▁spin	-11681
ighbor	-11682
inence	-11683
member	-11684
orrect	-11685
unting	-11686
wealth	-11687
▁Congo	-11688
▁Domin	-11689
▁aston	-11690
▁cance	-11691
▁drops	-11692
▁freer	-11693
▁junta	-11694
▁pneum	-11695
▁veget	-11696
▁video	-11697
akening	-11698
instein	-11699
rafting	-11700
sighted	-11701
ustomed	-11702
▁Sharif	-11703
▁burned	-11704
▁endang	-11705
▁reperc	-11706
▁tactic	-11707
▁tended	-11708
equality	-11709
majority	-11710
ortunate	-11711
resource	-11712
▁Poverty	-11713
▁Service	-11714
▁Society	-11715
▁anxious	-11716
▁bonuses	-11717
▁coexist	-11718
▁illiter	-11719
▁insists	-11720
▁intends	-11721
▁leftist	-11722
▁manager	-11723
▁nominee	-11724
▁renewal	-11725
▁revital	-11726
▁signing	-11727
political	-11728
▁Medicare	-11729
▁Rousseff	-11730
▁capitals	-11731
▁efficacy	-11732
▁exporter	-11733
▁headline	-11734
▁moreover	-11735
▁obsolete	-11736
▁perceive	-11737
▁reactors	-11738
▁stopping	-11739
▁Catalonia	-11740
▁eradicate	-11741
▁explosive	-11742
▁pessimism	-11743
▁privately	-11744
▁realizing	-11745
▁rebellion	-11746
▁Solidarity	-11747
▁annexation	-11748
▁calculated	-11749
▁collapsing	-11750
▁convenient	-11751
▁discussing	-11752
▁oppression	-11753
▁reconsider	-11754
▁regulating	-11755
▁successive	-11756
▁surrounded	-11757
▁allegations	-11758
▁intervening	-11759
▁preoccupied	-11760
▁procurement	-11761
▁realization	-11762
▁Independence	-11763
▁consultation	-11764
▁occasionally	-11765
▁prescription	-11766
▁assassination	-11767
▁predominantly	-11768
▁repercussions	-11769
▁reunification	-11770
▁Representative	-11771
AT	-11772
EF	-11773
MT	-11774
No	-11775
St	-11776
uh	-11777
”?	-11778
TIP	-11779
ady	-11780
dep	-11781
gue	-11782
hon	-11783
map	-11784
opt	-11785
wed	-11786
▁Ji	-11787
▁ug	-11788
Iran	-11789
amac	-11790
chev	-11791
culi	-11792
keep	-11793
▁$3.	-11794
▁16%	-11795
▁Dub	-11796
▁Fac	-11797
▁III	-11798
▁Jos	-11799
▁Kac	-11800
▁Ram	-11801
▁aro	-11802
▁cod	-11803
▁hoc	-11804
▁lov	-11805
▁pes	-11806
▁tie	-11807
athan	-11808
itage	-11809
rants	-11810
▁$200	-11811
▁Azer	-11812
▁Exec	-11813
▁Mult	-11814
▁Nare	-11815
▁auto	-11816
▁ride	-11817
▁skin	-11818
▁stro	-11819
ercant	-11820
idding	-11821
ubborn	-11822
▁2006.	-11823
▁2016.	-11824
▁2020,	-11825
▁Dream	-11826
▁Monti	-11827
▁Short	-11828
▁Turks	-11829
▁brill	-11830
▁drama	-11831
▁ships	-11832
▁sober	-11833
▁tacit	-11834
amacare	-11835
nuclear	-11836
service	-11837
▁Altern	-11838
▁Khrush	-11839
▁Warsaw	-11840
▁commem	-11841
▁comply	-11842
▁devote	-11843
▁misery	-11844
▁motion	-11845
▁nearby	-11846
▁overhe	-11847
▁peculi	-11848
▁portra	-11849
▁repeal	-11850
▁timely	-11851
▁underw	-11852
▁worthy	-11853
iniscent	-11854
▁Kashmir	-11855
▁Protest	-11856
▁advised	-11857
▁bridges	-11858
▁decides	-11859
▁embassy	-11860
▁jointly	-11861
▁outlays	-11862
▁payroll	-11863
▁presupp	-11864
▁surging	-11865
▁Building	-11866
▁Canadian	-11867
▁Narendra	-11868
▁bacteria	-11869
▁commerce	-11870
▁crossing	-11871
▁daughter	-11872
▁gridlock	-11873
▁studying	-11874
▁balancing	-11875
▁directors	-11876
▁organisms	-11877
▁recipient	-11878
▁repayment	-11879
▁withdrawn	-11880
▁Eventually	-11881
▁Khrushchev	-11882
▁compatible	-11883
▁disposable	-11884
▁extraction	-11885
▁intervened	-11886
▁irrigation	-11887
▁mitigation	-11888
▁quantities	-11889
▁recipients	-11890
▁repressive	-11891
▁calculation	-11892
▁enlightened	-11893
▁imagination	-11894
▁outsourcing	-11895
▁resignation	-11896
▁specialized	-11897
▁suppression	-11898
▁unfortunate	-11899
establishment	-11900
▁disadvantage	-11901
▁inconsistent	-11902
▁persistently	-11903
▁multicultural	-11904
▁fundamentalism	-11905
▁investigations	-11906
ali	-11907
inf	-11908
pop	-11909
umi	-11910
zai	-11911
-20,	-11912
apid	-11913
etus	-11914
ills	-11915
lege	-11916
upid	-11917
▁1.2	-11918
▁17%	-11919
▁Cru	-11920
▁Imm	-11921
▁Moz	-11922
▁Rab	-11923
▁SWF	-11924
▁Ten	-11925
▁Xin	-11926
▁cow	-11927
▁fee	-11928
▁mig	-11929
▁rav	-11930
appro	-11931
eters	-11932
uming	-11933
▁1.5%	-11934
▁Hass	-11935
▁Kiss	-11936
▁Mitt	-11937
▁Self	-11938
▁adds	-11939
▁band	-11940
▁butt	-11941
▁chol	-11942
▁cite	-11943
▁echo	-11944
▁gamb	-11945
▁gift	-11946
▁glim	-11947
▁hall	-11948
▁obsc	-11949
▁peas	-11950
▁poet	-11951
▁woes	-11952
artial	-11953
fiscal	-11954
riched	-11955
▁About	-11956
▁Boris	-11957
▁Osama	-11958
▁Small	-11959
▁arrog	-11960
▁deple	-11961
▁exile	-11962
▁fires	-11963
▁naive	-11964
▁overl	-11965
▁rever	-11966
▁royal	-11967
▁veter	-11968
oshenko	-11969
▁Rogoff	-11970
▁afraid	-11971
▁branch	-11972
▁broker	-11973
▁clause	-11974
▁havens	-11975
▁merits	-11976
▁myster	-11977
▁picked	-11978
▁safely	-11979
▁storms	-11980
▁uncomp	-11981
▁winter	-11982
▁wouldn	-11983
Japanese	-11984
appropri	-11985
children	-11986
oliberal	-11987
▁Jazeera	-11988
▁Ottoman	-11989
▁analogy	-11990
▁beneath	-11991
▁derived	-11992
▁ensured	-11993
▁fleeing	-11994
▁footing	-11995
▁illustr	-11996
▁maximum	-11997
▁minutes	-11998
▁publish	-11999
▁rivalry	-12000
▁useless	-12001
iological	-12002
producing	-12003
▁Eurozone	-12004
▁confused	-12005
▁dividend	-12006
▁flourish	-12007
▁navigate	-12008
▁obtained	-12009
▁prevails	-12010
▁reviving	-12011
▁stubborn	-12012
▁Confucian	-12013
▁Mechanism	-12014
▁competent	-12015
▁diffusion	-12016
▁illnesses	-12017
▁paralyzed	-12018
▁proximity	-12019
▁slaughter	-12020
▁trillions	-12021
conditional	-12022
▁cumulative	-12023
▁explaining	-12024
▁geographic	-12025
▁imprisoned	-12026
▁journalism	-12027
▁literature	-12028
▁manageable	-12029
▁manipulate	-12030
▁multiplier	-12031
▁ostensibly	-12032
▁pragmatism	-12033
▁supportive	-12034
▁destabilize	-12035
▁discoveries	-12036
▁intelligent	-12037
▁intractable	-12038
▁materialize	-12039
▁connectivity	-12040
▁complementary	-12041
▁decentralized	-12042
▁entertainment	-12043
▁Administration	-12044
▁extraordinarily	-12045
-9	-12046
FSF	-12047
ati	-12048
bai	-12049
hud	-12050
rah	-12051
”),	-12052
▁EM	-12053
▁Fl	-12054
UNIC	-12055
arde	-12056
enda	-12057
inqu	-12058
obil	-12059
prot	-12060
viol	-12061
▁1.3	-12062
▁JPM	-12063
▁cam	-12064
▁hem	-12065
▁luc	-12066
▁rus	-12067
anmen	-12068
arest	-12069
books	-12070
ework	-12071
found	-12072
lings	-12073
month	-12074
perty	-12075
quiry	-12076
▁1994	-12077
▁Deut	-12078
▁Flor	-12079
▁Hans	-12080
▁Stat	-12081
acking	-12082
artime	-12083
chenko	-12084
comers	-12085
rapped	-12086
ulence	-12087
▁Young	-12088
▁cling	-12089
▁embry	-12090
▁farms	-12091
▁posts	-12092
▁ruler	-12093
▁siege	-12094
▁slows	-12095
▁steam	-12096
▁tyran	-12097
iliated	-12098
▁Anyone	-12099
▁Madrid	-12100
▁Rising	-12101
▁anchor	-12102
▁assemb	-12103
▁betray	-12104
▁cement	-12105
▁dubbed	-12106
▁harass	-12107
▁hugely	-12108
▁plague	-12109
▁proves	-12110
▁subtle	-12111
▁Consequ	-12112
▁Cypriot	-12113
▁Looking	-12114
▁Overall	-12115
▁Paradox	-12116
▁Studies	-12117
▁Trichet	-12118
▁aligned	-12119
▁crossed	-12120
▁herself	-12121
▁hopeful	-12122
▁impasse	-12123
▁invaded	-12124
▁organic	-12125
▁outsize	-12126
▁passive	-12127
▁quietly	-12128
▁unleash	-12129
▁verdict	-12130
democracy	-12131
▁Orthodox	-12132
▁allocate	-12133
▁inclined	-12134
▁maturity	-12135
▁messages	-12136
▁pandemic	-12137
▁protects	-12138
▁resigned	-12139
▁sentence	-12140
▁shopping	-12141
▁skeptics	-12142
▁treasury	-12143
▁2008-2009	-12144
▁Kissinger	-12145
▁Northeast	-12146
▁Tiananmen	-12147
▁alleviate	-12148
▁denounced	-12149
▁everybody	-12150
▁frequency	-12151
▁identical	-12152
▁particles	-12153
▁radiation	-12154
▁relatives	-12155
▁surpassed	-12156
▁Resolution	-12157
▁accustomed	-12158
▁constraint	-12159
▁convention	-12160
▁internally	-12161
▁moderation	-12162
▁geopolitics	-12163
▁proceedings	-12164
▁signatories	-12165
▁superiority	-12166
▁undervalued	-12167
▁incompatible	-12168
▁peacekeeping	-12169
▁satisfaction	-12170
▁conditionality	-12171
▁understandably	-12172
▁fundamentalists	-12173
-6	-12174
At	-12175
FP	-12176
SB	-12177
uy	-12178
ORE	-12179
dem	-12180
ede	-12181
iri	-12182
▁Je	-12183
-198	-12184
ales	-12185
bott	-12186
from	-12187
gone	-12188
hips	-12189
okes	-12190
runt	-12191
stop	-12192
xual	-12193
▁Ale	-12194
▁Bad	-12195
▁Bah	-12196
▁Bes	-12197
▁Cap	-12198
▁Gra	-12199
▁Hay	-12200
amous	-12201
arded	-12202
dling	-12203
grown	-12204
jiang	-12205
ogene	-12206
otion	-12207
wered	-12208
▁IPCC	-12209
▁Tanz	-12210
▁belt	-12211
▁bind	-12212
▁boon	-12213
▁inse	-12214
▁ling	-12215
▁page	-12216
▁ruth	-12217
estyle	-12218
itated	-12219
▁1995,	-12220
▁2000’	-12221
▁Hence	-12222
▁Innov	-12223
▁Maybe	-12224
▁cloud	-12225
▁exhib	-12226
▁mayor	-12227
▁scram	-12228
▁spell	-12229
▁verge	-12230
defined	-12231
uctions	-12232
▁Bhutto	-12233
▁Darwin	-12234
▁Luxemb	-12235
▁Maduro	-12236
▁Milton	-12237
▁Silvio	-12238
▁Warren	-12239
▁apolog	-12240
▁athlet	-12241
▁atomic	-12242
▁buffer	-12243
▁forged	-12244
▁heroic	-12245
▁hungry	-12246
▁subord	-12247
▁traits	-12248
▁unsett	-12249
▁upside	-12250
▁virtue	-12251
▁Critics	-12252
▁Equally	-12253
▁Malaria	-12254
▁approve	-12255
▁arising	-12256
▁awarded	-12257
▁demagog	-12258
▁diarrhe	-12259
▁earning	-12260
▁handled	-12261
▁horrors	-12262
▁retired	-12263
▁violate	-12264
▁volunte	-12265
establish	-12266
▁dividing	-12267
▁employer	-12268
▁envision	-12269
▁exciting	-12270
▁floating	-12271
▁hypothes	-12272
▁imprison	-12273
▁landmark	-12274
▁promotes	-12275
▁succeeds	-12276
▁vigorous	-12277
▁Colombian	-12278
▁avoidance	-12279
▁ballistic	-12280
▁brutality	-12281
▁penalties	-12282
▁privilege	-12283
▁unfolding	-12284
▁automobile	-12285
▁capacities	-12286
▁classified	-12287
▁correction	-12288
▁depositors	-12289
▁enormously	-12290
▁jeopardize	-12291
▁prediction	-12292
▁registered	-12293
▁sacrifices	-12294
▁subsidized	-12295
▁suggestion	-12296
▁ingredients	-12297
▁inhabitants	-12298
▁manufacture	-12299
▁proposition	-12300
▁questioning	-12301
▁reminiscent	-12302
▁speculators	-12303
▁susceptible	-12304
▁underscores	-12305
▁displacement	-12306
▁geographical	-12307
▁incompetence	-12308
▁perspectives	-12309
▁ratification	-12310
▁administrations	-12311
DB	-12312
TC	-12313
iy	-12314
wa	-12315
bes	-12316
▁Hy	-12317
▁nu	-12318
....	-12319
aven	-12320
held	-12321
host	-12322
risy	-12323
teen	-12324
▁BOJ	-12325
▁Dif	-12326
▁Rob	-12327
▁pin	-12328
▁ves	-12329
anged	-12330
heads	-12331
iency	-12332
ierra	-12333
igers	-12334
ighed	-12335
ivism	-12336
liest	-12337
nings	-12338
tered	-12339
wards	-12340
▁Conc	-12341
▁Dise	-12342
▁Drug	-12343
▁Ehud	-12344
▁FARC	-12345
▁Home	-12346
▁Kenn	-12347
▁Murd	-12348
▁TTIP	-12349
▁Trad	-12350
▁Uber	-12351
▁Urug	-12352
▁forb	-12353
▁guns	-12354
▁plut	-12355
▁samp	-12356
▁tape	-12357
enment	-12358
hingya	-12359
isible	-12360
ittees	-12361
▁1992,	-12362
▁Croat	-12363
▁Istan	-12364
▁Large	-12365
▁Stock	-12366
▁Years	-12367
▁disen	-12368
▁endow	-12369
▁heral	-12370
▁inexp	-12371
▁lingu	-12372
▁loses	-12373
▁opted	-12374
▁paths	-12375
▁peers	-12376
▁repud	-12377
▁ridic	-12378
▁shore	-12379
▁traum	-12380
angered	-12381
changed	-12382
▁Damasc	-12383
▁Higher	-12384
▁device	-12385
▁gamble	-12386
▁hosted	-12387
▁intact	-12388
▁length	-12389
▁oldest	-12390
dictions	-12391
▁College	-12392
▁Florida	-12393
▁Iceland	-12394
▁Persian	-12395
▁Uruguay	-12396
▁counted	-12397
▁crowded	-12398
▁exclude	-12399
▁explore	-12400
▁illicit	-12401
▁impeded	-12402
▁profile	-12403
▁proving	-12404
▁realism	-12405
▁rejects	-12406
▁sparked	-12407
▁utility	-12408
▁varying	-12409
▁wartime	-12410
▁Istanbul	-12411
▁defenses	-12412
▁diaspora	-12413
▁engineer	-12414
▁incurred	-12415
▁modified	-12416
▁mosquito	-12417
▁outdated	-12418
▁provoked	-12419
▁rigorous	-12420
▁taxpayer	-12421
▁Framework	-12422
▁Universal	-12423
▁accidents	-12424
▁amendment	-12425
▁colleague	-12426
▁constrain	-12427
▁diversify	-12428
▁governors	-12429
▁inflicted	-12430
▁judgments	-12431
▁notorious	-12432
▁persuaded	-12433
established	-12434
▁Liberation	-12435
▁complaints	-12436
▁credential	-12437
▁critically	-12438
▁disability	-12439
▁disorderly	-12440
▁grassroots	-12441
▁groundwork	-12442
▁positioned	-12443
▁privileges	-12444
▁profoundly	-12445
▁questioned	-12446
▁radicalism	-12447
▁relentless	-12448
▁variations	-12449
▁wealthiest	-12450
▁constructed	-12451
▁empowerment	-12452
▁entitlement	-12453
▁forecasting	-12454
▁integrating	-12455
▁mathematics	-12456
▁prosecution	-12457
▁specialists	-12458
▁substantive	-12459
▁technically	-12460
▁transmitted	-12461
▁Historically	-12462
▁participated	-12463
▁retrenchment	-12464
▁consequential	-12465
▁corresponding	-12466
▁jurisdictions	-12467
BM	-12468
ID	-12469
nn	-12470
▁­	-12471
ato	-12472
azi	-12473
ker	-12474
mit	-12475
▁Ho	-12476
▁SP	-12477
abao	-12478
acle	-12479
aque	-12480
dest	-12481
ifts	-12482
itim	-12483
lead	-12484
lose	-12485
otal	-12486
sche	-12487
▁13%	-12488
▁30-	-12489
▁Ent	-12490
▁LDP	-12491
▁cig	-12492
▁lax	-12493
▁sta	-12494
UNICH	-12495
abled	-12496
annon	-12497
chest	-12498
cular	-12499
heres	-12500
lived	-12501
orbyn	-12502
oston	-12503
owitz	-12504
stein	-12505
▁CEOs	-12506
▁HONG	-12507
▁KONG	-12508
▁Need	-12509
▁Pres	-12510
▁Senk	-12511
▁Vict	-12512
▁bets	-12513
▁boys	-12514
▁dece	-12515
▁hamp	-12516
▁mixt	-12517
▁nurs	-12518
▁omin	-12519
▁seed	-12520
▁stip	-12521
▁ugly	-12522
▁unve	-12523
imicro	-12524
inable	-12525
liners	-12526
ourced	-12527
umping	-12528
▁Child	-12529
▁Seoul	-12530
▁Think	-12531
▁energ	-12532
▁havoc	-12533
▁horse	-12534
▁inval	-12535
▁lofty	-12536
▁lucky	-12537
▁magic	-12538
▁meets	-12539
▁stamp	-12540
▁stuff	-12541
▁theor	-12542
America	-12543
ifiable	-12544
working	-12545
▁Accord	-12546
▁Agenda	-12547
▁Atomic	-12548
▁Boston	-12549
▁Jiabao	-12550
▁MUNICH	-12551
▁Sierra	-12552
▁batter	-12553
▁golden	-12554
▁hybrid	-12555
▁inclus	-12556
▁meters	-12557
▁pieces	-12558
▁render	-12559
▁sacred	-12560
ercantil	-12561
military	-12562
▁Failure	-12563
▁cleaner	-12564
▁courses	-12565
▁dictate	-12566
▁fertile	-12567
▁forging	-12568
▁forming	-12569
▁gesture	-12570
▁nurture	-12571
▁reprodu	-12572
▁retains	-12573
▁shorter	-12574
▁tighter	-12575
▁Rohingya	-12576
▁Standard	-12577
▁centered	-12578
▁coercion	-12579
▁deepened	-12580
▁exported	-12581
▁horrific	-12582
▁illiquid	-12583
▁precious	-12584
▁reformed	-12585
▁rendered	-12586
▁retained	-12587
▁settings	-12588
▁standoff	-12589
▁Alexander	-12590
▁Executive	-12591
▁Governing	-12592
▁Relations	-12593
▁commander	-12594
▁disrupted	-12595
▁lifestyle	-12596
▁measuring	-12597
▁modernity	-12598
▁unchanged	-12599
▁uncomfort	-12600
▁watershed	-12601
▁categories	-12602
▁definitive	-12603
▁eighteenth	-12604
▁exploiting	-12605
▁predicting	-12606
▁prosecutor	-12607
▁successors	-12608
▁automobiles	-12609
▁battlefield	-12610
▁charismatic	-12611
▁Intelligence	-12612
▁indebtedness	-12613
▁irreversible	-12614
▁jeopardizing	-12615
▁overcapacity	-12616
▁acknowledging	-12617
▁contradiction	-12618
▁discretionary	-12619
▁unconditional	-12620
ams	-12621
ota	-12622
rip	-12623
▁GM	-12624
azir	-12625
date	-12626
drop	-12627
fast	-12628
greg	-12629
ikud	-12630
inge	-12631
iral	-12632
isen	-12633
laim	-12634
mail	-12635
poor	-12636
▁Ill	-12637
▁Pow	-12638
▁RMB	-12639
▁Rad	-12640
▁Slo	-12641
▁biz	-12642
▁lit	-12643
eless	-12644
izumi	-12645
overy	-12646
ucing	-12647
urned	-12648
▁0.5%	-12649
▁Camp	-12650
▁Disc	-12651
▁Maur	-12652
▁SMEs	-12653
▁cert	-12654
▁cher	-12655
▁harb	-12656
▁swit	-12657
▁tant	-12658
▁twin	-12659
▁unsu	-12660
Brazil	-12661
irates	-12662
issile	-12663
ledged	-12664
system	-12665
utting	-12666
▁Harry	-12667
▁Sadly	-12668
▁alert	-12669
▁drain	-12670
▁realm	-12671
▁riots	-12672
▁sorts	-12673
irected	-12674
urances	-12675
▁Corbyn	-12676
▁Napole	-12677
▁Oxford	-12678
▁Powell	-12679
▁Thirty	-12680
▁Wilson	-12681
▁Zedong	-12682
▁assign	-12683
▁boosts	-12684
▁breath	-12685
▁column	-12686
▁crowds	-12687
▁dismal	-12688
▁heated	-12689
▁lasted	-12690
▁mirror	-12691
▁papers	-12692
▁repaid	-12693
▁stores	-12694
▁surviv	-12695
▁taxing	-12696
▁trauma	-12697
payments	-12698
▁Koizumi	-12699
▁Liberia	-12700
▁augment	-12701
▁bizarre	-12702
▁curtail	-12703
▁descend	-12704
▁imposes	-12705
▁lagging	-12706
▁longest	-12707
▁millenn	-12708
▁obscure	-12709
▁overest	-12710
▁picking	-12711
▁precond	-12712
▁primacy	-12713
▁reactor	-12714
▁refrain	-12715
▁skyrock	-12716
▁staying	-12717
▁virtues	-12718
▁visions	-12719
economics	-12720
▁Cultural	-12721
▁Emmanuel	-12722
▁brothers	-12723
▁catalyst	-12724
▁composed	-12725
▁embodied	-12726
▁exposing	-12727
▁likewise	-12728
▁markedly	-12729
▁mountain	-12730
▁murdered	-12731
▁sizeable	-12732
▁solvency	-12733
▁spurring	-12734
imicrobial	-12735
▁Taiwanese	-12736
▁amounting	-12737
▁apartheid	-12738
▁chemicals	-12739
▁decreased	-12740
▁detention	-12741
▁installed	-12742
▁peninsula	-12743
▁prevalent	-12744
▁rebalance	-12745
▁resembles	-12746
▁supplying	-12747
▁viability	-12748
▁Inequality	-12749
▁analytical	-12750
▁conducting	-12751
▁expressing	-12752
▁objections	-12753
▁organizing	-12754
▁prevalence	-12755
▁properties	-12756
▁tendencies	-12757
▁turbulence	-12758
▁description	-12759
▁meaningless	-12760
▁pessimistic	-12761
▁restrictive	-12762
▁strengthens	-12763
▁unregulated	-12764
▁voluntarily	-12765
▁acceleration	-12766
▁associations	-12767
▁constituency	-12768
▁coordinating	-12769
▁deficiencies	-12770
▁enthusiastic	-12771
▁exacerbating	-12772
▁governmental	-12773
▁questionable	-12774
▁demonstrators	-12775
▁interdependent	-12776
▁technologically	-12777
AP	-12778
PE	-12779
dog	-12780
eas	-12781
een	-12782
gor	-12783
hot	-12784
lem	-12785
rot	-12786
uni	-12787
▁Ap	-12788
▁IA	-12789
▁IR	-12790
atab	-12791
atur	-12792
ihil	-12793
imon	-12794
inea	-12795
iped	-12796
rior	-12797
uana	-12798
▁11%	-12799
▁2%.	-12800
▁400	-12801
▁BJP	-12802
▁CIT	-12803
▁MIL	-12804
▁SAN	-12805
▁Var	-12806
▁bag	-12807
▁nic	-12808
▁sed	-12809
▁sla	-12810
▁ton	-12811
,000.	-12812
apego	-12813
auses	-12814
chant	-12815
heric	-12816
odork	-12817
ouses	-12818
overe	-12819
reach	-12820
rooms	-12821
▁1993	-12822
▁Gore	-12823
▁Niet	-12824
▁Test	-12825
▁Work	-12826
▁Yush	-12827
▁bell	-12828
▁bird	-12829
▁buck	-12830
▁dies	-12831
▁dose	-12832
▁hint	-12833
▁hurd	-12834
▁ills	-12835
▁lags	-12836
▁laud	-12837
▁mend	-12838
▁shop	-12839
▁stir	-12840
▁sway	-12841
▁teen	-12842
▁webs	-12843
around	-12844
decade	-12845
fforts	-12846
killed	-12847
placed	-12848
public	-12849
▁Glass	-12850
▁Leone	-12851
▁Likud	-12852
▁boats	-12853
▁disgu	-12854
▁faire	-12855
▁franc	-12856
▁recal	-12857
serving	-12858
▁Bannon	-12859
▁Chechn	-12860
▁Hassan	-12861
▁Target	-12862
▁ancest	-12863
▁galvan	-12864
▁pestic	-12865
▁praise	-12866
▁pulled	-12867
▁rocket	-12868
▁speaks	-12869
▁suprem	-12870
▁talked	-12871
▁trades	-12872
▁varied	-12873
Semitism	-12874
utionary	-12875
▁Azerbai	-12876
▁Bahrain	-12877
▁Khodork	-12878
▁Support	-12879
▁William	-12880
▁analyze	-12881
▁convict	-12882
▁debated	-12883
▁depress	-12884
▁hitting	-12885
▁locally	-12886
▁militia	-12887
▁mixture	-12888
▁morning	-12889
▁plagued	-12890
▁preempt	-12891
▁priorit	-12892
▁rescued	-12893
▁scapego	-12894
▁simpler	-12895
▁talents	-12896
▁weakens	-12897
criptions	-12898
▁Americas	-12899
▁Damascus	-12900
▁Facility	-12901
▁Medicaid	-12902
▁Tanzania	-12903
▁confirms	-12904
▁defended	-12905
▁divisive	-12906
▁embarked	-12907
▁employee	-12908
▁expropri	-12909
▁extremes	-12910
▁incoming	-12911
▁magazine	-12912
▁mandates	-12913
▁misunder	-12914
▁narrowly	-12915
▁reassert	-12916
▁sequence	-12917
▁traveled	-12918
▁tropical	-12919
▁vigilant	-12920
ranational	-12921
revolution	-12922
▁donations	-12923
▁evidently	-12924
▁fulfilled	-12925
▁listening	-12926
▁occupying	-12927
▁pneumonia	-12928
▁qualities	-12929
▁resisting	-12930
▁submitted	-12931
engineering	-12932
▁accordance	-12933
▁committees	-12934
▁domination	-12935
▁imposition	-12936
▁innovators	-12937
▁proponents	-12938
▁separatist	-12939
▁starvation	-12940
▁coincidence	-12941
▁conflicting	-12942
▁genetically	-12943
▁inspiration	-12944
▁retaliation	-12945
▁sensitivity	-12946
▁withdrawing	-12947
▁Khodorkovsky	-12948
▁imprisonment	-12949
▁prerequisite	-12950
▁accommodation	-12951
▁disadvantaged	-12952
▁neighborhoods	-12953
15	-12954
EV	-12955
fl	-12956
aki	-12957
▁37	-12958
▁65	-12959
arth	-12960
asht	-12961
awat	-12962
dule	-12963
edge	-12964
lood	-12965
lude	-12966
mand	-12967
paid	-12968
plan	-12969
zhen	-12970
▁85%	-12971
▁EMU	-12972
▁Hur	-12973
▁Lou	-12974
▁Rod	-12975
▁coc	-12976
▁gig	-12977
,000,	-12978
chner	-12979
icter	-12980
intao	-12981
mount	-12982
opian	-12983
oving	-12984
print	-12985
umber	-12986
▁1945	-12987
▁Area	-12988
▁Karl	-12989
▁Land	-12990
▁Rest	-12991
▁Salv	-12992
▁eman	-12993
▁ende	-12994
▁flam	-12995
▁mine	-12996
▁nice	-12997
▁wear	-12998
ainted	-12999
arming	-13000
collar	-13001
eville	-13002
scious	-13003
▁2003.	-13004
▁Major	-13005
▁Peres	-13006
▁Recon	-13007
▁Tamil	-13008
▁Which	-13009
▁encro	-13010
▁films	-13011
▁fines	-13012
▁grain	-13013
▁knock	-13014
▁reval	-13015
▁upris	-13016
▁walls	-13017
arching	-13018
benefit	-13019
entiful	-13020
itating	-13021
minated	-13022
ulatory	-13023
▁Carter	-13024
▁Coming	-13025
▁Jintao	-13026
▁Latvia	-13027
▁Strong	-13028
▁banker	-13029
▁contam	-13030
▁delays	-13031
▁divert	-13032
▁elabor	-13033
▁finger	-13034
▁fusion	-13035
▁glance	-13036
▁insult	-13037
▁motive	-13038
▁resett	-13039
▁uneven	-13040
ependent	-13041
▁Morales	-13042
▁blaming	-13043
▁clinics	-13044
▁contend	-13045
▁dispers	-13046
▁educate	-13047
▁endemic	-13048
▁fascism	-13049
▁isolate	-13050
▁manages	-13051
▁shelter	-13052
▁volumes	-13053
ilitating	-13054
reasuries	-13055
▁Chechnya	-13056
▁Mohammed	-13057
▁deadline	-13058
▁depended	-13059
▁graduate	-13060
▁handling	-13061
▁inflated	-13062
▁jihadist	-13063
▁patience	-13064
▁sanction	-13065
▁servants	-13066
▁stricter	-13067
confidence	-13068
▁Strategic	-13069
▁admission	-13070
▁comparing	-13071
▁designing	-13072
▁hegemonic	-13073
▁invention	-13074
▁lucrative	-13075
▁newcomers	-13076
▁oligarchs	-13077
▁outbreaks	-13078
▁populated	-13079
▁possesses	-13080
▁selective	-13081
▁uprisings	-13082
▁Affordable	-13083
▁Azerbaijan	-13084
▁Management	-13085
▁asymmetric	-13086
▁commentary	-13087
▁compassion	-13088
▁continuity	-13089
▁divergence	-13090
▁engineered	-13091
▁financiers	-13092
▁implicitly	-13093
▁influences	-13094
▁multipolar	-13095
▁possession	-13096
▁professors	-13097
▁translated	-13098
▁undeniable	-13099
particularly	-13100
▁advancement	-13101
▁imperatives	-13102
▁manipulated	-13103
▁nationality	-13104
globalization	-13105
▁reproductive	-13106
▁systemically	-13107
▁tuberculosis	-13108
▁collaborative	-13109
▁independently	-13110
▁distributional	-13111
▁transformative	-13112
AM	-13113
NE	-13114
PI	-13115
rö	-13116
ña	-13117
200	-13118
awi	-13119
ero	-13120
pse	-13121
rup	-13122
▁31	-13123
▁75	-13124
▁Il	-13125
▁Py	-13126
Chin	-13127
bond	-13128
game	-13129
hend	-13130
lant	-13131
ldom	-13132
lide	-13133
pace	-13134
pins	-13135
▁190	-13136
▁45%	-13137
▁GCC	-13138
▁KGB	-13139
▁Lim	-13140
▁Mun	-13141
▁Nav	-13142
▁OMT	-13143
▁awa	-13144
▁fur	-13145
▁geo	-13146
▁tip	-13147
inery	-13148
irmed	-13149
isure	-13150
ndrom	-13151
pling	-13152
track	-13153
äuble	-13154
▁1973	-13155
▁IAEA	-13156
▁Jeff	-13157
▁Lear	-13158
▁Sure	-13159
▁acid	-13160
▁mole	-13161
▁pend	-13162
▁sche	-13163
▁soul	-13164
▁wire	-13165
akable	-13166
anches	-13167
etched	-13168
hengen	-13169
parent	-13170
rehend	-13171
▁2017.	-13172
▁backs	-13173
▁curve	-13174
▁datab	-13175
▁doses	-13176
▁heter	-13177
▁onset	-13178
▁owner	-13179
▁scant	-13180
▁sleep	-13181
▁versa	-13182
▁widen	-13183
Chinese	-13184
fledged	-13185
icament	-13186
lasting	-13187
million	-13188
politik	-13189
rection	-13190
▁eating	-13191
▁famine	-13192
▁listed	-13193
▁mantra	-13194
▁mature	-13195
▁opaque	-13196
▁puzzle	-13197
▁shorts	-13198
▁stupid	-13199
▁theirs	-13200
▁tissue	-13201
▁troika	-13202
▁urging	-13203
▁yellow	-13204
▁Barroso	-13205
▁Czechos	-13206
▁Drawing	-13207
▁Senkaku	-13208
▁barrier	-13209
▁cheaply	-13210
▁cholera	-13211
▁fiction	-13212
▁heating	-13213
▁impetus	-13214
▁inertia	-13215
▁injured	-13216
▁inquiry	-13217
▁matched	-13218
▁orchest	-13219
▁outward	-13220
▁persons	-13221
▁secrecy	-13222
▁shocked	-13223
▁stature	-13224
▁unequiv	-13225
terrorism	-13226
▁Bulgaria	-13227
▁Schengen	-13228
▁Schäuble	-13229
▁abstract	-13230
▁airports	-13231
▁bombings	-13232
▁convened	-13233
▁deprived	-13234
▁diarrhea	-13235
▁duration	-13236
▁elevated	-13237
▁emission	-13238
▁enjoying	-13239
▁enriched	-13240
▁improves	-13241
▁monarchy	-13242
▁paternal	-13243
▁premiums	-13244
▁protocol	-13245
▁punished	-13246
▁rankings	-13247
▁reassure	-13248
▁remedies	-13249
▁resolute	-13250
▁supplied	-13251
▁tailored	-13252
▁takeover	-13253
▁tourists	-13254
▁uniquely	-13255
▁upheaval	-13256
▁visiting	-13257
generation	-13258
▁Hollywood	-13259
▁Wolfowitz	-13260
▁alienated	-13261
▁asserting	-13262
▁automated	-13263
▁collapses	-13264
▁confusion	-13265
▁murderous	-13266
▁plentiful	-13267
▁signaling	-13268
▁tightened	-13269
▁wealthier	-13270
▁worldview	-13271
▁Individual	-13272
▁absolutely	-13273
▁assurances	-13274
▁circumvent	-13275
▁delegation	-13276
▁dependency	-13277
▁depreciate	-13278
▁depressing	-13279
▁describing	-13280
▁devastated	-13281
▁fertilizer	-13282
▁measurable	-13283
▁mobilizing	-13284
▁pronounced	-13285
▁prudential	-13286
▁resurgence	-13287
▁compromised	-13288
▁credentials	-13289
▁illustrates	-13290
▁respondents	-13291
▁supervisory	-13292
determination	-13293
▁deteriorated	-13294
▁experimental	-13295
▁distinguished	-13296
▁socioeconomic	-13297
▁disappointment	-13298
▁fundamentalist	-13299
cr	-13300
GEN	-13301
aza	-13302
bel	-13303
mes	-13304
ofi	-13305
usk	-13306
▁Di	-13307
▁Dr	-13308
▁Id	-13309
▁OS	-13310
▁Po	-13311
▁ze	-13312
0027	-13313
even	-13314
iber	-13315
list	-13316
olen	-13317
▁14%	-13318
▁2.5	-13319
▁22%	-13320
▁Adv	-13321
▁Beg	-13322
▁Fam	-13323
▁Men	-13324
▁Way	-13325
▁bom	-13326
▁dup	-13327
▁gau	-13328
▁lin	-13329
-2015	-13330
asset	-13331
erved	-13332
icate	-13333
inism	-13334
ivest	-13335
luded	-13336
maker	-13337
merce	-13338
ombie	-13339
onies	-13340
ourge	-13341
peace	-13342
▁Data	-13343
▁Hard	-13344
▁NCDs	-13345
▁Seas	-13346
▁beef	-13347
▁biom	-13348
▁carn	-13349
▁chau	-13350
▁corn	-13351
▁drow	-13352
▁fest	-13353
▁kids	-13354
▁lest	-13355
▁neur	-13356
▁oust	-13357
▁rall	-13358
▁sand	-13359
▁soci	-13360
▁user	-13361
Russia	-13362
atched	-13363
equity	-13364
erance	-13365
inston	-13366
target	-13367
▁2050.	-13368
▁Early	-13369
▁Faced	-13370
▁Press	-13371
▁arena	-13372
▁ethos	-13373
▁grapp	-13374
▁kilog	-13375
▁loved	-13376
▁quota	-13377
▁sanct	-13378
▁shake	-13379
▁slide	-13380
▁undes	-13381
itimate	-13382
licting	-13383
taining	-13384
▁10,000	-13385
▁Guinea	-13386
▁Karzai	-13387
▁Recogn	-13388
▁Things	-13389
▁abound	-13390
▁adoles	-13391
▁affirm	-13392
▁agrees	-13393
▁bypass	-13394
▁church	-13395
▁covert	-13396
▁drones	-13397
▁endure	-13398
▁futile	-13399
▁metrop	-13400
▁milest	-13401
▁neglig	-13402
▁passes	-13403
▁plunge	-13404
▁racist	-13405
▁seldom	-13406
▁sister	-13407
▁unimag	-13408
specific	-13409
tradable	-13410
▁Challen	-13411
▁Enlight	-13412
▁Lagarde	-13413
▁Volcker	-13414
▁Winston	-13415
▁beating	-13416
▁counsel	-13417
▁curbing	-13418
▁divorce	-13419
▁dragged	-13420
▁fearful	-13421
▁mergers	-13422
▁premise	-13423
▁tripled	-13424
▁vessels	-13425
▁widened	-13426
▁writers	-13427
president	-13428
▁Einstein	-13429
▁Progress	-13430
▁Regional	-13431
▁Services	-13432
▁Slovakia	-13433
▁asserted	-13434
▁backdrop	-13435
▁calculus	-13436
▁contempt	-13437
▁converge	-13438
▁fortunes	-13439
▁hardline	-13440
▁peculiar	-13441
▁populous	-13442
▁requests	-13443
▁schedule	-13444
▁sciences	-13445
▁smoothly	-13446
▁societal	-13447
▁tortured	-13448
fulfilling	-13449
▁Francisco	-13450
▁adjusting	-13451
▁assertion	-13452
▁capturing	-13453
▁classical	-13454
▁deterrent	-13455
▁disparate	-13456
▁enforcing	-13457
▁inspiring	-13458
▁jihadists	-13459
▁mercantil	-13460
▁nostalgia	-13461
▁occasions	-13462
▁proactive	-13463
▁religions	-13464
▁reporters	-13465
▁sidelines	-13466
▁spillover	-13467
▁unskilled	-13468
▁upholding	-13469
▁workplace	-13470
▁Securities	-13471
▁Yushchenko	-13472
▁determines	-13473
▁developers	-13474
▁endangered	-13475
▁injections	-13476
▁monopolies	-13477
▁overvalued	-13478
▁unbalanced	-13479
▁Agriculture	-13480
▁campaigning	-13481
▁circulation	-13482
▁conferences	-13483
▁disciplines	-13484
▁examination	-13485
▁forgiveness	-13486
▁predicament	-13487
▁presupposes	-13488
▁preventable	-13489
▁prosecutors	-13490
▁Agricultural	-13491
▁condemnation	-13492
▁Transatlantic	-13493
▁inclusiveness	-13494
▁supranational	-13495
▁Czechoslovakia	-13496
▁constituencies	-13497
GH	-13498
GI	-13499
-2.	-13500
IFA	-13501
abs	-13502
ado	-13503
igl	-13504
xon	-13505
▁36	-13506
▁38	-13507
▁CH	-13508
▁IV	-13509
▁Ib	-13510
▁LA	-13511
▁ME	-13512
Year	-13513
arag	-13514
eous	-13515
furt	-13516
hent	-13517
rape	-13518
ribe	-13519
west	-13520
▁0.2	-13521
▁24%	-13522
▁Amb	-13523
▁Cho	-13524
▁FSB	-13525
▁Ger	-13526
▁Min	-13527
▁Taj	-13528
▁Yuk	-13529
▁boy	-13530
▁eve	-13531
▁sor	-13532
▁tor	-13533
ambig	-13534
apped	-13535
aware	-13536
cribe	-13537
oment	-13538
ukuni	-13539
▁10%.	-13540
▁2050	-13541
▁Alas	-13542
▁Belt	-13543
▁Dmit	-13544
▁Rums	-13545
▁bull	-13546
▁disd	-13547
▁fake	-13548
▁fits	-13549
▁hack	-13550
▁offs	-13551
▁rape	-13552
▁ruin	-13553
▁tall	-13554
anding	-13555
arctic	-13556
fueled	-13557
ijuana	-13558
iteers	-13559
linked	-13560
ompass	-13561
paying	-13562
ridden	-13563
strong	-13564
supply	-13565
▁Along	-13566
▁Guate	-13567
▁carri	-13568
▁clubs	-13569
▁hosts	-13570
▁hotel	-13571
▁robot	-13572
▁stops	-13573
▁strip	-13574
▁taboo	-13575
archies	-13576
issance	-13577
managed	-13578
western	-13579
▁Bhutan	-13580
▁Little	-13581
▁Nature	-13582
▁Nordic	-13583
▁Sovere	-13584
▁bailed	-13585
▁bullet	-13586
▁correl	-13587
▁diseng	-13588
▁helium	-13589
▁heroes	-13590
▁medioc	-13591
▁screen	-13592
▁squand	-13593
▁strife	-13594
▁wisely	-13595
▁worlds	-13596
berspace	-13597
business	-13598
thinking	-13599
▁Croatia	-13600
▁Efforts	-13601
▁Medical	-13602
▁Nicarag	-13603
▁appease	-13604
▁bloated	-13605
▁convene	-13606
▁debacle	-13607
▁defines	-13608
▁drastic	-13609
▁fantasy	-13610
▁fraught	-13611
▁holiday	-13612
▁leisure	-13613
▁redress	-13614
▁reminds	-13615
▁selfish	-13616
▁session	-13617
▁slavery	-13618
▁starkly	-13619
▁toppled	-13620
▁turnout	-13621
▁undergo	-13622
▁warrant	-13623
▁Austrian	-13624
▁Democrat	-13625
▁Mohammad	-13626
▁Rumsfeld	-13627
▁Salvador	-13628
▁Xinjiang	-13629
▁Yasukuni	-13630
▁analyses	-13631
▁athletes	-13632
▁operated	-13633
▁recourse	-13634
▁textbook	-13635
▁tribunal	-13636
▁audiences	-13637
▁civilized	-13638
▁combining	-13639
▁encompass	-13640
▁epidemics	-13641
▁excluding	-13642
▁expecting	-13643
▁machinery	-13644
▁northeast	-13645
▁obsession	-13646
▁parallels	-13647
▁preceding	-13648
▁procedure	-13649
▁reformist	-13650
▁shattered	-13651
▁synthetic	-13652
▁Luxembourg	-13653
▁Technology	-13654
▁celebrated	-13655
▁collecting	-13656
▁courageous	-13657
▁directions	-13658
▁excitement	-13659
▁healthcare	-13660
▁hypothesis	-13661
▁passionate	-13662
▁stabilized	-13663
▁succeeding	-13664
▁acquisition	-13665
▁adversaries	-13666
▁diversified	-13667
▁impediments	-13668
▁marketplace	-13669
▁overheating	-13670
▁proportions	-13671
▁unanimously	-13672
▁intimidation	-13673
▁mobilization	-13674
▁modification	-13675
▁similarities	-13676
▁underpinning	-13677
▁Conservatives	-13678
FA	-13679
Ob	-13680
ST	-13681
ae	-13682
vi	-13683
és	-13684
New	-13685
ora	-13686
pos	-13687
uns	-13688
zyń	-13689
EOUL	-13690
This	-13691
coin	-13692
flow	-13693
gery	-13694
hour	-13695
pers	-13696
yans	-13697
▁-0.	-13698
▁95%	-13699
▁Kem	-13700
▁Sum	-13701
▁Vot	-13702
▁ber	-13703
▁sab	-13704
▁sag	-13705
▁upt	-13706
South	-13707
asser	-13708
cence	-13709
craft	-13710
elior	-13711
erion	-13712
ieval	-13713
raged	-13714
rague	-13715
uters	-13716
▁0.7%	-13717
▁Brex	-13718
▁Hiro	-13719
▁José	-13720
▁Kofi	-13721
▁Ryan	-13722
▁USSR	-13723
▁adam	-13724
▁aven	-13725
▁conj	-13726
▁cycl	-13727
▁dent	-13728
▁inad	-13729
▁lean	-13730
▁rebu	-13731
▁wood	-13732
eating	-13733
erable	-13734
inally	-13735
omeini	-13736
return	-13737
▁Chern	-13738
▁Costa	-13739
▁Exxon	-13740
▁Himal	-13741
▁Larry	-13742
▁Local	-13743
▁SEOUL	-13744
▁agent	-13745
▁hawks	-13746
▁looph	-13747
▁purge	-13748
▁recyc	-13749
▁shark	-13750
▁stars	-13751
▁taxed	-13752
▁vowed	-13753
ettered	-13754
ialogue	-13755
increas	-13756
iscally	-13757
onsense	-13758
umption	-13759
▁Annual	-13760
▁Carney	-13761
▁Daniel	-13762
▁Kaczyń	-13763
▁Prague	-13764
▁Taking	-13765
▁Taylor	-13766
▁aiming	-13767
▁armies	-13768
▁autumn	-13769
▁bother	-13770
▁enters	-13771
▁fixing	-13772
▁humane	-13773
▁lawyer	-13774
▁myself	-13775
▁organs	-13776
▁scenes	-13777
▁spared	-13778
▁spokes	-13779
▁valued	-13780
▁wholly	-13781
ogeneous	-13782
▁200,000	-13783
▁Bosnian	-13784
▁Control	-13785
▁Experts	-13786
▁Murdoch	-13787
▁Tibetan	-13788
▁Working	-13789
▁amelior	-13790
▁anymore	-13791
▁devised	-13792
▁impacts	-13793
▁instant	-13794
▁mankind	-13795
▁married	-13796
▁revenge	-13797
▁scholar	-13798
▁seeming	-13799
▁segment	-13800
▁smarter	-13801
▁suspend	-13802
▁tyranny	-13803
Palestine	-13804
stitution	-13805
strategic	-13806
▁Buddhist	-13807
▁Consumer	-13808
▁Khomeini	-13809
▁aversion	-13810
▁brutally	-13811
▁combines	-13812
▁commemor	-13813
▁deadlock	-13814
▁delicate	-13815
▁develops	-13816
▁dilemmas	-13817
▁electron	-13818
▁grouping	-13819
▁inferior	-13820
▁plastics	-13821
▁stresses	-13822
▁worsened	-13823
▁Antarctic	-13824
▁Currently	-13825
▁Frankfurt	-13826
▁analogous	-13827
▁basically	-13828
▁bolstered	-13829
▁brilliant	-13830
▁caliphate	-13831
▁computing	-13832
▁conceived	-13833
▁criterion	-13834
▁exploring	-13835
▁fisheries	-13836
▁intensive	-13837
▁invisible	-13838
▁logistics	-13839
▁polarized	-13840
▁readiness	-13841
▁spiritual	-13842
▁untenable	-13843
▁victories	-13844
▁completing	-13845
▁conception	-13846
▁federalism	-13847
▁helicopter	-13848
▁laboratory	-13849
▁precarious	-13850
▁reiterated	-13851
▁simplistic	-13852
▁sovereigns	-13853
▁suppressed	-13854
▁Information	-13855
▁celebration	-13856
▁comparisons	-13857
▁corporation	-13858
▁departments	-13859
▁devastation	-13860
▁refinancing	-13861
▁administered	-13862
▁continuation	-13863
▁isolationism	-13864
▁liberalizing	-13865
▁disappearance	-13866
▁encouragement	-13867
▁dissatisfaction	-13868
da	-13869
00,	-13870
ahn	-13871
aky	-13872
bro	-13873
del	-13874
oko	-13875
onn	-13876
ouf	-13877
pie	-13878
uts	-13879
vol	-13880
▁39	-13881
▁Fe	-13882
▁Na	-13883
abad	-13884
ardo	-13885
best	-13886
ente	-13887
enum	-13888
ithm	-13889
khaz	-13890
olic	-13891
▁12.	-13892
▁120	-13893
▁Bit	-13894
▁BoE	-13895
▁Dom	-13896
▁Hom	-13897
▁god	-13898
▁nan	-13899
▁pit	-13900
There	-13901
agall	-13902
alism	-13903
avals	-13904
iller	-13905
imony	-13906
lical	-13907
plant	-13908
raded	-13909
▁9/11	-13910
▁Coll	-13911
▁FIFA	-13912
▁Meas	-13913
▁OSCE	-13914
▁Star	-13915
▁Yale	-13916
▁clim	-13917
▁culp	-13918
▁detr	-13919
▁disg	-13920
▁dust	-13921
▁hect	-13922
▁hubs	-13923
▁lows	-13924
▁plug	-13925
▁pond	-13926
arther	-13927
formed	-13928
ifting	-13929
izable	-13930
ndrome	-13931
▁1980,	-13932
▁1994,	-13933
▁Based	-13934
▁MILAN	-13935
▁Macro	-13936
▁Osset	-13937
▁Super	-13938
▁aided	-13939
▁autoc	-13940
▁burge	-13941
▁cardi	-13942
▁cheer	-13943
▁dirty	-13944
▁frame	-13945
▁liked	-13946
▁reloc	-13947
▁stone	-13948
Russian	-13949
Semitic	-13950
athetic	-13951
banking	-13952
estyles	-13953
overing	-13954
profile	-13955
science	-13956
versely	-13957
▁Diplom	-13958
▁Samuel	-13959
▁Shiite	-13960
▁bosses	-13961
▁breach	-13962
▁domain	-13963
▁framed	-13964
▁handed	-13965
▁staged	-13966
▁stolen	-13967
▁swings	-13968
▁topics	-13969
▁wounds	-13970
esterday	-13971
▁Britons	-13972
▁Greater	-13973
▁Himalay	-13974
▁Suppose	-13975
▁Wilders	-13976
▁assimil	-13977
▁chaotic	-13978
▁clarify	-13979
▁compuls	-13980
▁deepest	-13981
▁erratic	-13982
▁generic	-13983
▁lengthy	-13984
▁objects	-13985
▁pulling	-13986
▁repatri	-13987
▁replied	-13988
▁reviews	-13989
▁risking	-13990
▁sinking	-13991
▁squeeze	-13992
▁summits	-13993
▁tipping	-13994
▁unambig	-13995
▁weighed	-13996
▁wrought	-13997
organized	-13998
▁Currency	-13999
▁Election	-14000
▁Refugees	-14001
▁adapting	-14002
▁attended	-14003
▁blessing	-14004
▁burdened	-14005
▁compound	-14006
▁drilling	-14007
▁fiscally	-14008
▁homeland	-14009
▁infamous	-14010
▁punitive	-14011
▁rainfall	-14012
▁setbacks	-14013
▁settlers	-14014
▁severity	-14015
▁shutdown	-14016
▁sterling	-14017
▁Catholics	-14018
▁Something	-14019
▁appalling	-14020
▁behaviors	-14021
▁candidacy	-14022
▁contested	-14023
▁demograph	-14024
▁detriment	-14025
▁formulate	-14026
▁histories	-14027
▁homegrown	-14028
▁requested	-14029
▁stringent	-14030
▁underpins	-14031
▁Corruption	-14032
▁alienation	-14033
▁amendments	-14034
▁capitalize	-14035
▁condemning	-14036
▁dissidents	-14037
▁excellence	-14038
▁functional	-14039
▁invitation	-14040
▁majorities	-14041
▁patriotism	-14042
▁practition	-14043
▁recoveries	-14044
▁vocational	-14045
▁worthwhile	-14046
productivity	-14047
▁dismantling	-14048
▁endorsement	-14049
▁imperialism	-14050
▁modernizing	-14051
▁orientation	-14052
▁Scandinavian	-14053
▁consolidated	-14054
▁constraining	-14055
▁debilitating	-14056
▁devaluations	-14057
▁discouraging	-14058
▁shortsighted	-14059
▁mismanagement	-14060
▁precautionary	-14061
▁contradictions	-14062
▁radicalization	-14063
▁notwithstanding	-14064
OMC	-14065
aka	-14066
isa	-14067
iya	-14068
lom	-14069
ppo	-14070
ube	-14071
▁29	-14072
▁VI	-14073
ENHA	-14074
Shia	-14075
fits	-14076
habi	-14077
ildu	-14078
lick	-14079
only	-14080
post	-14081
rule	-14082
shed	-14083
▁11.	-14084
▁FBI	-14085
▁Gam	-14086
▁MPs	-14087
▁Pay	-14088
▁Row	-14089
▁Sor	-14090
▁din	-14091
▁dra	-14092
▁eup	-14093
▁lav	-14094
▁lip	-14095
▁rom	-14096
array	-14097
eller	-14098
onial	-14099
steps	-14100
umble	-14101
urban	-14102
▁2018	-14103
▁Bear	-14104
▁Case	-14105
▁Fair	-14106
▁Pent	-14107
▁Sale	-14108
▁Sett	-14109
▁Wood	-14110
▁Zika	-14111
▁evac	-14112
▁glac	-14113
▁hole	-14114
▁icon	-14115
▁mask	-14116
▁rupe	-14117
▁scri	-14118
▁sons	-14119
▁visa	-14120
aneous	-14121
ducive	-14122
hammad	-14123
iosity	-14124
itters	-14125
ousing	-14126
▁Abdel	-14127
▁Advoc	-14128
▁Guang	-14129
▁Hayek	-14130
▁Janet	-14131
▁Joint	-14132
▁Lower	-14133
▁Rabin	-14134
▁Trust	-14135
▁ballo	-14136
▁bread	-14137
▁decay	-14138
▁mines	-14139
▁misal	-14140
▁mouth	-14141
▁rehab	-14142
▁swath	-14143
▁vivid	-14144
ENHAGEN	-14145
ensible	-14146
etition	-14147
hemical	-14148
imposed	-14149
natural	-14150
▁Abkhaz	-14151
▁Danish	-14152
▁Deputy	-14153
▁Mozamb	-14154
▁Wealth	-14155
▁buildu	-14156
▁buried	-14157
▁client	-14158
▁couldn	-14159
▁fairer	-14160
▁flying	-14161
▁frozen	-14162
▁fruits	-14163
▁ironic	-14164
▁salary	-14165
▁submit	-14166
▁surged	-14167
▁unfore	-14168
Atlantic	-14169
aissance	-14170
iability	-14171
itigroup	-14172
ivestock	-14173
ourished	-14174
ructural	-14175
▁Getting	-14176
▁Respons	-14177
▁designs	-14178
▁emotion	-14179
▁fatigue	-14180
▁heights	-14181
▁intrins	-14182
▁killers	-14183
▁license	-14184
▁upgrade	-14185
▁wishful	-14186
▁wonders	-14187
President	-14188
emocratic	-14189
▁abruptly	-14190
▁arsenals	-14191
▁catalyze	-14192
▁congress	-14193
▁dropping	-14194
▁meddling	-14195
▁outgoing	-14196
▁retirees	-14197
▁rewarded	-14198
▁variable	-14199
▁yourself	-14200
▁Kaczyński	-14201
▁abundance	-14202
▁conducive	-14203
▁defenders	-14204
▁employing	-14205
▁hierarchy	-14206
▁hypocrisy	-14207
▁importers	-14208
▁interrupt	-14209
▁landslide	-14210
▁lingering	-14211
▁mentality	-14212
▁millennia	-14213
▁mountains	-14214
▁purchased	-14215
▁screening	-14216
▁textbooks	-14217
▁upheavals	-14218
▁violating	-14219
▁Brexiteers	-14220
▁COPENHAGEN	-14221
▁championed	-14222
▁comprehend	-14223
▁hardliners	-14224
▁ideologies	-14225
▁leveraging	-14226
▁minimizing	-14227
▁powerhouse	-14228
▁prosecuted	-14229
▁suspension	-14230
▁thoroughly	-14231
▁thoughtful	-14232
▁articulated	-14233
▁collaborate	-14234
▁contemplate	-14235
▁conventions	-14236
▁ministerial	-14237
▁observation	-14238
▁preparation	-14239
▁underscored	-14240
▁accumulating	-14241
▁disappointed	-14242
▁entitlements	-14243
▁inefficiency	-14244
▁Enlightenment	-14245
▁assertiveness	-14246
▁attractiveness	-14247
BA	-14248
CK	-14249
MI	-14250
Os	-14251
uj	-14252
ét	-14253
-15	-14254
Sax	-14255
Ste	-14256
You	-14257
bly	-14258
iah	-14259
rig	-14260
rob	-14261
vic	-14262
ïve	-14263
▁44	-14264
Cold	-14265
achu	-14266
akis	-14267
ashi	-14268
etty	-14269
exts	-14270
obyl	-14271
othe	-14272
resa	-14273
riel	-14274
rina	-14275
▁$0.	-14276
▁18%	-14277
▁Fif	-14278
▁Kor	-14279
▁MIT	-14280
▁Sar	-14281
▁lev	-14282
▁mic	-14283
▁obl	-14284
▁pac	-14285
▁von	-14286
Great	-14287
arbon	-14288
ensed	-14289
nesty	-14290
piece	-14291
röder	-14292
setts	-14293
surge	-14294
there	-14295
urate	-14296
▁CITY	-14297
▁Diet	-14298
▁Fort	-14299
▁Okin	-14300
▁Rica	-14301
▁Were	-14302
▁axis	-14303
▁bars	-14304
▁blat	-14305
▁cann	-14306
▁dams	-14307
▁owed	-14308
▁pour	-14309
▁swim	-14310
▁unch	-14311
▁unsc	-14312
▁wing	-14313
ANFORD	-14314
hecked	-14315
igence	-14316
losion	-14317
ulates	-14318
▁1989.	-14319
▁2002.	-14320
▁3,000	-14321
▁Ahmed	-14322
▁Dubai	-14323
▁Fidel	-14324
▁Patri	-14325
▁Uribe	-14326
▁downs	-14327
▁egreg	-14328
▁lists	-14329
▁overr	-14330
▁paved	-14331
▁preem	-14332
▁recru	-14333
▁rooms	-14334
▁scare	-14335
▁smoke	-14336
▁spots	-14337
▁suits	-14338
▁taste	-14339
▁tenth	-14340
▁timet	-14341
▁troop	-14342
amental	-14343
anguage	-14344
fashion	-14345
general	-14346
ignment	-14347
oufakis	-14348
repared	-14349
venient	-14350
violent	-14351
▁Bernie	-14352
▁Nobody	-14353
▁Return	-14354
▁admire	-14355
▁ascend	-14356
▁assure	-14357
▁astron	-14358
▁barbar	-14359
▁culmin	-14360
▁derail	-14361
▁divest	-14362
▁entang	-14363
▁hemisp	-14364
▁intend	-14365
▁lament	-14366
▁laying	-14367
▁occupy	-14368
▁phased	-14369
▁prolif	-14370
▁stayed	-14371
▁surrog	-14372
▁transc	-14373
▁upheld	-14374
Steagall	-14375
pectedly	-14376
whatever	-14377
▁300,000	-14378
▁Academy	-14379
▁Snowden	-14380
▁banning	-14381
▁buildup	-14382
▁chapter	-14383
▁charity	-14384
▁crafted	-14385
▁cronies	-14386
▁disdain	-14387
[...]
