<pad>	0
<unk>	0
<s>	0
</s>	0
——	-0
经济	-1
美国	-2
国家	-3
▁但	-4
一个	-5
20	-6
我们	-7
政府	-8
中国	-9
他们	-10
可能	-11
欧洲	-12
问题	-13
▁这	-14
世界	-15
可以	-16
▁在	-17
政治	-18
政策	-19
全球	-20
没有	-21
这一	-22
增长	-23
已经	-24
主义	-25
需要	-26
这些	-27
其他	-28
如果	-29
因为	-30
市场	-31
以及	-32
银行	-33
金融	-34
投资	-35
社会	-36
必须	-37
欧盟	-38
发展	-39
国际	-40
支持	-41
不是	-42
危机	-43
应该	-44
影响	-45
重要	-46
大的	-47
地区	-48
领导	-49
因此	-50
它们	-51
200	-52
19	-53
货币	-54
通过	-55
事实	-56
所有	-57
认为	-58
00	-59
▁而	-60
这样	-61
总统	-62
民主	-63
方面	-64
美元	-65
组织	-66
尽管	-67
的人	-68
201	-69
的是	-70
成为	-71
提供	-72
计划	-73
包括	-74
无法	-75
现在	-76
▁但是	-77
部分	-78
就是	-79
自己	-80
英国	-81
同时	-82
许多	-83
进行	-84
目标	-85
导致	-86
实现	-87
开始	-88
改革	-89
公司	-90
贸易	-91
欧元	-92
增加	-93
情况	-94
解决	-95
自由	-96
如此	-97
能够	-98
罗斯	-99
德国	-100
债务	-101
这个	-102
正在	-103
▁如果	-104
人们	-105
的一	-106
日本	-107
俄罗斯	-108
安全	-109
机构	-110
事实上	-111
带来	-112
印度	-113
企业	-114
收入	-115
财政	-116
主要	-117
的经济	-118
获得	-119
风险	-120
发生	-121
未来	-122
什么	-123
斯坦	-124
任何	-125
▁当	-126
世纪	-127
行动	-128
伊朗	-129
一些	-130
要求	-131
之间	-132
持续	-133
结果	-134
关系	-135
长期	-136
存在	-137
人的	-138
变化	-139
工作	-140
那些	-141
▁事实上	-142
技术	-143
这种	-144
到了	-145
基础	-146
资本	-147
那么	-148
作为	-149
年的	-150
目前	-151
生产	-152
国家的	-153
研究	-154
以色	-155
以色列	-156
稳定	-157
并不	-158
性的	-159
利亚	-160
领导人	-161
成功	-162
甚至	-163
造成	-164
更加	-165
▁此	-166
的国家	-167
不会	-168
采取	-169
联合	-170
最近	-171
中的	-172
法国	-173
也是	-174
时间	-175
更多	-176
对于	-177
建立	-178
价格	-179
特别	-180
比如	-181
国内	-182
成员	-183
不同	-184
决定	-185
过去	-186
利益	-187
这样的	-188
一种	-189
合作	-190
▁我们	-191
新的	-192
战争	-193
er	-194
规模	-195
十年	-196
如今	-197
an	-198
保护	-199
如何	-200
产生	-201
并且	-202
)。	-203
以来	-204
选择	-205
反对	-206
挑战	-207
一直	-208
严重	-209
历史	-210
希望	-211
继续	-212
面临	-213
▁因此	-214
力的	-215
公共	-216
教育	-217
央行	-218
威胁	-219
意味	-220
▁此外	-221
只有	-222
出现	-223
水平	-224
能源	-225
美国的	-226
他们的	-227
拉克	-228
作用	-229
on	-230
国的	-231
行为	-232
同样	-233
协议	-234
环境	-235
利率	-236
生活	-237
令人	-238
来说	-239
西方	-240
意味着	-241
成本	-242
选举	-243
气候	-244
措施	-245
希腊	-246
方案	-247
表明	-248
下降	-249
不能	-250
实际	-251
部门	-252
实施	-253
最终	-254
机会	-255
亿美元	-256
的问题	-257
消费	-258
似乎	-259
人民	-260
拥有	-261
欧元区	-262
竞争	-263
提高	-264
制度	-265
特朗	-266
战略	-267
上的	-268
DP	-269
学家	-270
伊斯	-271
接受	-272
特朗普	-273
还是	-274
),	-275
控制	-276
亚洲	-277
使用	-278
”。	-279
伊斯兰	-280
时候	-281
▁尽管	-282
原因	-283
谈判	-284
系统	-285
或者	-286
资产	-287
能力	-288
需求	-289
GDP	-290
不仅	-291
多数	-292
为了	-293
基金	-294
冲突	-295
▁美国	-296
是否	-297
他的	-298
巴马	-299
联盟	-300
改变	-301
服务	-302
和平	-303
方式	-304
奥巴马	-305
不可	-306
承诺	-307
随着	-308
资源	-309
一步	-310
仍然	-311
关键	-312
0%	-313
外交	-314
阿拉	-315
管理	-316
非洲	-317
军事	-318
特别是	-319
而且	-320
有效	-321
来自	-322
程度	-323
的政治	-324
降低	-325
非常	-326
委员	-327
体系	-328
资金	-329
人口	-330
减少	-331
共同	-332
是一个	-333
其中	-334
ar	-335
从而	-336
价值	-337
一样	-338
几乎	-339
由于	-340
▁”	-341
的情况	-342
得到	-343
而不是	-344
伊拉克	-345
受到	-346
en	-347
真正	-348
联合国	-349
▁这些	-350
监管	-351
叙利亚	-352
即使	-353
还有	-354
力量	-355
一次	-356
经济体	-357
各国	-358
阿拉伯	-359
▁这一	-360
重新	-361
的最	-362
就业	-363
的大	-364
劳动	-365
委员会	-366
完全	-367
虽然	-368
项目	-369
年代	-370
和其他	-371
自己的	-372
观点	-373
出口	-374
那样	-375
考虑	-376
土耳	-377
创造	-378
因素	-379
石油	-380
类似	-381
土耳其	-382
有可能	-383
▁与	-384
也许	-385
出了	-386
不断	-387
相反	-388
决策	-389
参与	-390
中国的	-391
者的	-392
移民	-393
▁他们	-394
变得	-395
避免	-396
as	-397
保持	-398
in	-399
确保	-400
帮助	-401
之一	-402
越来	-403
进一步	-404
化的	-405
越来越	-406
地方	-407
援助	-408
某些	-409
出的	-410
自身	-411
基本	-412
贷款	-413
▁不	-414
责任	-415
结构	-416
都是	-417
”,	-418
恐怖	-419
设施	-420
超过	-421
大部分	-422
将会	-423
运动	-424
中东	-425
赤字	-426
好的	-427
破坏	-428
发达	-429
活动	-430
领域	-431
今天	-432
根本	-433
之间的	-434
权力	-435
模式	-436
al	-437
关注	-438
取得	-439
巴勒	-440
利用	-441
巴勒斯坦	-442
了一	-443
武器	-444
限制	-445
民族	-446
起来	-447
个人	-448
知道	-449
制定	-450
地位	-451
家庭	-452
关于	-453
条件	-454
平等	-455
数据	-456
在于	-457
过程	-458
199	-459
%。	-460
现实	-461
公民	-462
城市	-463
只是	-464
独立	-465
ti	-466
表现	-467
民众	-468
失业	-469
很多	-470
方法	-471
具有	-472
努力	-473
法律	-474
通胀	-475
刺激	-476
贫困	-477
但是	-478
联储	-479
结束	-480
改善	-481
发展中	-482
危险	-483
成员国	-484
新兴	-485
的话	-486
▁对	-487
会议	-488
相当	-489
预算	-490
传统	-491
美联储	-492
▁他	-493
支出	-494
维持	-495
000	-496
信息	-497
首先	-498
革命	-499
▁从	-500
就会	-501
大量	-502
共和	-503
重要的	-504
推动	-505
至少	-506
状况	-507
私人	-508
事件	-509
之后	-510
应对	-511
▁中国	-512
的影响	-513
▁当然	-514
▁欧洲	-515
两个	-516
而是	-517
朝鲜	-518
的政策	-519
尼亚	-520
时代	-521
相关	-522
医疗	-523
当前	-524
上述	-525
巨大的	-526
健康	-527
气候变化	-528
or	-529
整个	-530
成了	-531
全世界	-532
上升	-533
试图	-534
直接	-535
的新	-536
第二	-537
是在	-538
创新	-539
繁荣	-540
可能会	-541
显然	-542
发现	-543
最后	-544
%,	-545
规则	-546
债券	-547
克兰	-548
错误	-549
及其	-550
税收	-551
压力	-552
乌克兰	-553
政权	-554
报告	-555
确定	-556
代表	-557
而言	-558
相对	-559
经济增长	-560
机制	-561
尤其	-562
基础设施	-563
这是	-564
平衡	-565
公众	-566
我们的	-567
根据	-568
人类	-569
▁我	-570
巴基	-571
日益	-572
极端	-573
用于	-574
之前	-575
巴基斯坦	-576
埃及	-577
▁比如	-578
可持续	-579
2008	-580
或许	-581
▁其	-582
必要	-583
制造	-584
所谓	-585
才能	-586
陷入	-587
此同时	-588
证明	-589
穆斯	-590
投资者	-591
标准	-592
▁如今	-593
不再	-594
选民	-595
的情况下	-596
穆斯林	-597
50	-598
意大	-599
衰退	-600
识到	-601
意大利	-602
官员	-603
更为	-604
科学	-605
交易	-606
后果	-607
做出	-608
失败	-609
流动	-610
30	-611
的时候	-612
文化	-613
达到	-614
明确	-615
进步	-616
布什	-617
扩大	-618
不可能	-619
唯一	-620
总理	-621
现代	-622
担心	-623
产品	-624
意义	-625
难以	-626
解释	-627
主权	-628
ash	-629
依然	-630
爆发	-631
预测	-632
金融危机	-633
相信	-634
理解	-635
难民	-636
商品	-637
普京	-638
拒绝	-639
商业	-640
一场	-641
十分	-642
权利	-643
并没有	-644
来的	-645
经济学家	-646
▁有	-647
分子	-648
es	-649
反应	-650
经济的	-651
今年	-652
10	-653
比亚	-654
大规模	-655
政府的	-656
理由	-657
统治	-658
▁S	-659
并非	-660
有的	-661
宗教	-662
进入	-663
大多数	-664
个月	-665
融资	-666
▁它	-667
60	-668
内部	-669
暴力	-670
行的	-671
引发	-672
依赖	-673
核心	-674
然而	-675
儿童	-676
更多的	-677
md	-678
不足	-679
手段	-680
这一点	-681
mdash	-682
问题的	-683
劳动力	-684
年前	-685
指出	-686
达成	-687
▁相反	-688
针对	-689
损失	-690
领袖	-691
外国	-692
重大	-693
排放	-694
承认	-695
每年	-696
;&	-697
削减	-698
调整	-699
有所	-700
缺乏	-701
工业	-702
讨论	-703
正确	-704
主义者	-705
带来的	-706
政策的	-707
工资	-708
媒体	-709
不到	-710
年轻	-711
准备	-712
范围	-713
MF	-714
干预	-715
只能	-716
愿意	-717
数字	-718
加入	-719
后的	-720
时期	-721
广泛	-722
,“	-723
期间	-724
正如	-725
视为	-726
伙伴	-727
汇率	-728
短期	-729
袭击	-730
的全球	-731
数量	-732
网络	-733
允许	-734
容易	-735
年来	-736
复苏	-737
议会	-738
阻止	-739
下的	-740
趋势	-741
IMF	-742
储蓄	-743
复杂	-744
应当	-745
无论	-746
进程	-747
阿富	-748
面对	-749
大学	-750
积极	-751
阿富汗	-752
条约	-753
毫无	-754
灾难	-755
自然	-756
协定	-757
形成	-758
财富	-759
发展中国家	-760
高的	-761
大幅	-762
紧缩	-763
主义的	-764
地区的	-765
也不	-766
建设	-767
知识	-768
经历	-769
欧洲央行	-770
▁与此同时	-771
宣布	-772
方面的	-773
仅仅	-774
中央	-775
共和党	-776
将在	-777
开发	-778
代价	-779
一位	-780
充分	-781
原则	-782
吸引	-783
了一个	-784
..	-785
集团	-786
过度	-787
巴西	-788
欧洲的	-789
去年	-790
第三	-791
道德	-792
11	-793
快速	-794
▁C	-795
▁首先	-796
▁虽然	-797
一致	-798
促进	-799
反映	-800
沙特	-801
调查	-802
合法	-803
女性	-804
恢复	-805
实际上	-806
开放	-807
有关	-808
迅速	-809
保证	-810
不平等	-811
失去	-812
往往	-813
联系	-814
最大的	-815
▁然而	-816
纽约	-817
办法	-818
困难	-819
投票	-820
好处	-821
平均	-822
承担	-823
经常	-824
并不是	-825
,000	-826
腐败	-827
通常	-828
感到	-829
它们的	-830
ic	-831
合理	-832
行业	-833
主席	-834
墨西	-835
疾病	-836
足够	-837
12	-838
一项	-839
所以	-840
治理	-841
之外	-842
墨西哥	-843
显示	-844
正是	-845
多的	-846
联邦	-847
宪法	-848
韩国	-849
市场的	-850
巨大	-851
某种	-852
简单	-853
助于	-854
形式	-855
工人	-856
工具	-857
提出	-858
it	-859
购买	-860
部长	-861
el	-862
有利	-863
▁现在	-864
的支持	-865
政党	-866
军队	-867
卫生	-868
在一	-869
预期	-870
死亡	-871
目的	-872
赢得	-873
确实	-874
支付	-875
潜在	-876
收益	-877
西班	-878
西班牙	-879
崩溃	-880
除了	-881
基于	-882
▁随着	-883
即便	-884
思想	-885
is	-886
中心	-887
曾经	-888
立场	-889
美国和	-890
5%	-891
引起	-892
国会	-893
加强	-894
批评	-895
为什么	-896
再次	-897
效果	-898
公开	-899
态度	-900
理论	-901
两国	-902
鼓励	-903
角色	-904
程度上	-905
:“	-906
储备	-907
经验	-908
▁“	-909
评估	-910
美国人	-911
精神	-912
处于	-913
分析	-914
国际货币	-915
也会	-916
任务	-917
寻求	-918
的主要	-919
生产率	-920
转移	-921
另一个	-922
执行	-923
▁一	-924
货币政策	-925
建议	-926
也有	-927
全球经济	-928
基金组织	-929
▁P	-930
它的	-931
经济学	-932
生物	-933
打击	-934
看到	-935
198	-936
▁这种	-937
的社会	-938
其他国家	-939
的不	-940
苏联	-941
2010	-942
▁该	-943
扩张	-944
速度	-945
的方式	-946
农业	-947
毕竟	-948
am	-949
发达国家	-950
遏制	-951
坚持	-952
强调	-953
本身	-954
追求	-955
只要	-956
妇女	-957
事情	-958
这场	-959
伦敦	-960
福利	-961
集中	-962
的信	-963
肯定	-964
优势	-965
全球化	-966
东西	-967
不管	-968
公平	-969
成立	-970
明显	-971
框架	-972
决策者	-973
人都	-974
实力	-975
生命	-976
所谓的	-977
人员	-978
想要	-979
完成	-980
▁更	-981
例子	-982
全面	-983
核武器	-984
tion	-985
外部	-986
群体	-987
贬值	-988
崛起	-989
是因为	-990
同意	-991
国际社会	-992
共产	-993
另一	-994
执政	-995
效率	-996
的结果	-997
国民	-998
第一	-999
担忧	-1000
转变	-1001
防止	-1002
治疗	-1003
很大	-1004
情绪	-1005
的一个	-1006
民粹	-1007
百万	-1008
▁由于	-1009
更大的	-1010
的政府	-1011
15	-1012
人权	-1013
▁为了	-1014
的风险	-1015
表示	-1016
使得	-1017
保险	-1018
的目标	-1019
”(	-1020
候选	-1021
动荡	-1022
负债	-1023
和经济	-1024
认识到	-1025
处理	-1026
大约	-1027
比例	-1028
▁A	-1029
的增长	-1030
▁这样	-1031
满足	-1032
种族	-1033
怀疑	-1034
问题上	-1035
天然	-1036
的欧洲	-1037
专家	-1038
供应	-1039
当局	-1040
分配	-1041
削弱	-1042
放弃	-1043
证据	-1044
犹太	-1045
统一	-1046
俄国	-1047
基因	-1048
秩序	-1049
造成的	-1050
当时	-1051
组成	-1052
at	-1053
il	-1054
膨胀	-1055
逐渐	-1056
有助于	-1057
re	-1058
例如	-1059
保守	-1060
都会	-1061
70	-1062
▁发	-1063
区域	-1064
转型	-1065
少数	-1066
真正的	-1067
燃料	-1068
系列	-1069
▁毕竟	-1070
也在	-1071
意识	-1072
策略	-1073
进口	-1074
常常	-1075
找到	-1076
相比	-1077
ro	-1078
做法	-1079
胜利	-1080
国际货币基金组织	-1081
强化	-1082
利润	-1083
马斯	-1084
可能性	-1085
▁M	-1086
民主党	-1087
一定	-1088
独裁	-1089
▁200	-1090
前景	-1091
很难	-1092
退出	-1093
的美国	-1094
一切	-1095
制裁	-1096
和政治	-1097
其实	-1098
将是	-1099
巴黎	-1100
各种	-1101
增长的	-1102
普遍	-1103
现象	-1104
▁结果	-1105
1.	-1106
严重的	-1107
政客	-1108
状态	-1109
2015	-1110
加剧	-1111
就像	-1112
正式	-1113
补贴	-1114
失业率	-1115
▁发自	-1116
值得	-1117
规定	-1118
解决方案	-1119
冲击	-1120
▁目前	-1121
分裂	-1122
负担	-1123
▁许多	-1124
也没有	-1125
大选	-1126
斗争	-1127
方向	-1128
糟糕	-1129
设计	-1130
不得	-1131
峰会	-1132
强大的	-1133
欧盟的	-1134
恶化	-1135
通货	-1136
需要的	-1137
人士	-1138
体制	-1139
的世界	-1140
18	-1141
了解	-1142
宽松	-1143
立法	-1144
事务	-1145
北约	-1146
观察	-1147
的重要	-1148
最高	-1149
清楚	-1150
人民币	-1151
二十	-1152
迫使	-1153
进展	-1154
消费者	-1155
克里	-1156
具体	-1157
波兰	-1158
年中	-1159
▁一个	-1160
提供了	-1161
回报	-1162
该国	-1163
的原因	-1164
的关键	-1165
美国总统	-1166
争论	-1167
角度	-1168
▁最后	-1169
宏观	-1170
注意	-1171
也就是	-1172
工程	-1173
负责	-1174
2011	-1175
势力	-1176
则是	-1177
▁对于	-1178
不过	-1179
精英	-1180
2012	-1181
25	-1182
即将	-1183
永远	-1184
竞选	-1185
远远	-1186
▁即使	-1187
▁而且	-1188
天然气	-1189
得多	-1190
技能	-1191
人和	-1192
债权	-1193
泡沫	-1194
障碍	-1195
个国家	-1196
▁5	-1197
不同的	-1198
提升	-1199
真实	-1200
而非	-1201
▁同样	-1202
的那样	-1203
内的	-1204
道路	-1205
th	-1206
官方	-1207
新闻	-1208
符合	-1209
增长率	-1210
局面	-1211
左右	-1212
总是	-1213
华盛	-1214
华盛顿	-1215
下跌	-1216
发挥	-1217
武装	-1218
很快	-1219
在美国	-1220
双方	-1221
▁R	-1222
并未	-1223
为止	-1224
投入	-1225
激励	-1226
ol	-1227
学生	-1228
有着	-1229
正常	-1230
▁它们	-1231
的国际	-1232
质量	-1233
共识	-1234
相互	-1235
▁但这	-1236
不但	-1237
至关	-1238
年以来	-1239
团结	-1240
想象	-1241
看来	-1242
空间	-1243
和社会	-1244
依靠	-1245
的对	-1246
阶级	-1247
90	-1248
贡献	-1249
这样做	-1250
信心	-1251
显著	-1252
om	-1253
总体	-1254
▁最	-1255
岗位	-1256
新兴市场	-1257
多少	-1258
世界银行	-1259
产业	-1260
效应	-1261
食品	-1262
重要的是	-1263
金融市场	-1264
土地	-1265
▁但在	-1266
可以在	-1267
也将	-1268
见的	-1269
竞争力	-1270
为何	-1271
之中	-1272
停滞	-1273
从未	-1274
尔德	-1275
▁欧盟	-1276
候选人	-1277
几十年	-1278
的能力	-1279
面临着	-1280
2013	-1281
当今	-1282
有人	-1283
脆弱	-1284
情况下	-1285
的高	-1286
和美国	-1287
ac	-1288
取决	-1289
本国	-1290
类似的	-1291
退休	-1292
▁要	-1293
取决于	-1294
而不	-1295
互联	-1296
是对	-1297
消息	-1298
信用	-1299
孩子	-1300
彻底	-1301
欢迎	-1302
禁止	-1303
教训	-1304
在过去	-1305
考虑到	-1306
一体	-1307
停止	-1308
盟友	-1309
有效的	-1310
2009	-1311
呼吁	-1312
局势	-1313
当地	-1314
阶段	-1315
不仅仅	-1316
▁F	-1317
法院	-1318
否则	-1319
巴嫩	-1320
接近	-1321
还要	-1322
变革	-1323
方针	-1324
黎巴嫩	-1325
2014	-1326
直到	-1327
流动性	-1328
的机会	-1329
更好	-1330
哈马斯	-1331
后者	-1332
遭到	-1333
▁自	-1334
▁因为	-1335
预计	-1336
都在	-1337
领土	-1338
结构性	-1339
有些	-1340
塞尔	-1341
计算	-1342
透明	-1343
所有这些	-1344
忽视	-1345
幸的是	-1346
外交政策	-1347
前的	-1348
身份	-1349
利比亚	-1350
当选	-1351
氧化	-1352
分之一	-1353
信任	-1354
ent	-1355
尤其是	-1356
替代	-1357
197	-1358
伤害	-1359
估计	-1360
最大	-1361
称为	-1362
▁G	-1363
克林	-1364
对其	-1365
摆脱	-1366
通货膨胀	-1367
单一	-1368
攻击	-1369
被迫	-1370
协调	-1371
汽车	-1372
真的	-1373
最近的	-1374
地产	-1375
中央银行	-1376
主导	-1377
对此	-1378
世界上	-1379
充满	-1380
的基础	-1381
指责	-1382
普通	-1383
学校	-1384
紧张	-1385
▁B	-1386
激进	-1387
除非	-1388
强烈	-1389
有限	-1390
萧条	-1391
面临的	-1392
ation	-1393
批准	-1394
但却	-1395
大国	-1396
更大	-1397
首相	-1398
万亿美元	-1399
旨在	-1400
出现了	-1401
地球	-1402
就能	-1403
自我	-1404
要么	-1405
恐怖主义	-1406
▁(	-1407
以上	-1408
是一	-1409
重组	-1410
年轻人	-1411
这类	-1412
警告	-1413
采用	-1414
推进	-1415
也可以	-1416
该地区	-1417
那里	-1418
过程中	-1419
分歧	-1420
大大	-1421
并在	-1422
破产	-1423
更好的	-1424
差异	-1425
当然	-1426
100	-1427
ed	-1428
安倍	-1429
互联网	-1430
怎样	-1431
痛苦	-1432
社区	-1433
股票	-1434
自身的	-1435
160	-1436
》(	-1437
右翼	-1438
约束	-1439
民族主义	-1440
遭受	-1441
▁人们	-1442
质疑	-1443
民粹主义	-1444
发表	-1445
寻找	-1446
生存	-1447
的一部分	-1448
发动	-1449
增强	-1450
现有	-1451
▁那么	-1452
转向	-1453
and	-1454
概念	-1455
世界的	-1456
发生的	-1457
是不	-1458
疑问	-1459
药物	-1460
带来了	-1461
正确的	-1462
周期	-1463
长的	-1464
那就是	-1465
得以	-1466
未能	-1467
集体	-1468
克尔	-1469
的行为	-1470
阻碍	-1471
▁根据	-1472
二氧化	-1473
而易	-1474
说法	-1475
开支	-1476
波动	-1477
争议	-1478
多样	-1479
比较	-1480
一直在	-1481
混乱	-1482
的观点	-1483
0.	-1484
2.	-1485
ou	-1486
来源	-1487
言论	-1488
在这	-1489
提振	-1490
有一	-1491
低于	-1492
供给	-1493
双边	-1494
实行	-1495
将其	-1496
程序	-1497
▁新	-1498
签署	-1499
量的	-1500
不得不	-1501
在未来	-1502
格兰	-1503
不确定	-1504
相当于	-1505
层面	-1506
性和	-1507
上涨	-1508
二战	-1509
取代	-1510
团体	-1511
在其	-1512
出来	-1513
取消	-1514
的确	-1515
而这	-1516
部队	-1517
今天的	-1518
有利于	-1519
举行	-1520
年后	-1521
成就	-1522
消除	-1523
#160	-1524
二氧化碳	-1525
自由贸易	-1526
保障	-1527
对手	-1528
最为	-1529
边境	-1530
et	-1531
重建	-1532
得到了	-1533
让我们	-1534
40	-1535
▁I	-1536
变暖	-1537
学习	-1538
阿根	-1539
的投资	-1540
获得了	-1541
另外	-1542
多边	-1543
▁政府	-1544
增加了	-1545
所带来的	-1546
受益	-1547
适应	-1548
▁正如	-1549
阿根廷	-1550
伊斯兰教	-1551
严格	-1552
几个	-1553
造成了	-1554
▁类似	-1555
80	-1556
尔兰	-1557
指标	-1558
的反	-1559
答案	-1560
随后	-1561
爱尔兰	-1562
▁D	-1563
包容	-1564
报道	-1565
指数	-1566
富裕	-1567
危机的	-1568
三个	-1569
凯恩	-1570
明白	-1571
▁没有	-1572
盈余	-1573
美洲	-1574
由此	-1575
的前	-1576
)、	-1577
乐观	-1578
内容	-1579
困境	-1580
差距	-1581
邻国	-1582
鉴于	-1583
意识到	-1584
ch	-1585
担任	-1586
监督	-1587
科技	-1588
房地产	-1589
基地	-1590
这意味着	-1591
放缓	-1592
▁英国	-1593
克林顿	-1594
金融机构	-1595
可靠	-1596
司法	-1597
的财政	-1598
帝国	-1599
扮演	-1600
温和	-1601
影响力	-1602
▁)	-1603
力于	-1604
强大	-1605
生活在	-1606
过于	-1607
▁一些	-1608
▁这是	-1609
反对派	-1610
的研究	-1611
左翼	-1612
▁这个	-1613
of	-1614
缺少	-1615
者们	-1616
可以通过	-1617
升值	-1618
理会	-1619
背景	-1620
量化	-1621
不应该	-1622
2007	-1623
以前	-1624
都有	-1625
▁德国	-1626
倾向	-1627
意愿	-1628
然后	-1629
辩论	-1630
取得了	-1631
众多	-1632
大陆	-1633
抗议	-1634
持有	-1635
矛盾	-1636
重点	-1637
▁T	-1638
加速	-1639
地缘	-1640
属于	-1641
管制	-1642
衡量	-1643
逊尼	-1644
10%	-1645
▁通过	-1646
安排	-1647
形态	-1648
可能是	-1649
定义	-1650
恐惧	-1651
成果	-1652
▁作为	-1653
导致了	-1654
提出了	-1655
le	-1656
宣称	-1657
德里	-1658
者和	-1659
▁只有	-1660
致力于	-1661
毫无疑问	-1662
ad	-1663
官僚	-1664
感觉	-1665
理念	-1666
这项	-1667
同样的	-1668
其它	-1669
给予	-1670
发布	-1671
相同	-1672
时刻	-1673
假设	-1674
足以	-1675
发生了	-1676
显而易	-1677
许多人	-1678
▁但如果	-1679
国有	-1680
的同时	-1681
告诉	-1682
妥协	-1683
很少	-1684
维亚	-1685
的可能性	-1686
机器	-1687
贫穷	-1688
之下	-1689
理想	-1690
▁就	-1691
全部	-1692
产生的	-1693
什叶	-1694
会在	-1695
杠杆	-1696
污染	-1697
记录	-1698
加沙	-1699
滋病	-1700
▁纽约	-1701
的改革	-1702
的计划	-1703
还没有	-1704
思维	-1705
日程	-1706
法案	-1707
至于	-1708
可持续发展	-1709
就必须	-1710
▁据	-1711
扩散	-1712
疫苗	-1713
都不	-1714
安理会	-1715
45	-1716
与其	-1717
捍卫	-1718
犯罪	-1719
粮食	-1720
”——	-1721
价值观	-1722
的民主	-1723
▁不幸的是	-1724
所未	-1725
银行的	-1726
所需要的	-1727
信贷	-1728
党派	-1729
才是	-1730
缺陷	-1731
走向	-1732
▁其次	-1733
艾滋病	-1734
我的	-1735
电视	-1736
违约	-1737
高达	-1738
▁类似地	-1739
克服	-1740
议院	-1741
发达经济体	-1742
掌握	-1743
的发展	-1744
下去	-1745
思考	-1746
示威	-1747
逊尼派	-1748
特别是在	-1749
展开	-1750
定的	-1751
地缘政治	-1752
意识形态	-1753
冷战	-1754
缓慢	-1755
访问	-1756
17	-1757
us	-1758
事会	-1759
尔多	-1760
损害	-1761
沙特阿拉伯	-1762
明智	-1763
遭遇	-1764
什叶派	-1765
之处	-1766
全国	-1767
具备	-1768
▁世界	-1769
危险的	-1770
毫不	-1771
表达	-1772
认识	-1773
所有的	-1774
▁特朗普	-1775
抵制	-1776
特征	-1777
账户	-1778
低的	-1779
对抗	-1780
深刻	-1781
需的	-1782
公司的	-1783
俄罗斯的	-1784
年间	-1785
拯救	-1786
提出的	-1787
足够的	-1788
这些国家	-1789
油价	-1790
▁2	-1791
两大	-1792
以后	-1793
按照	-1794
统计	-1795
▁20	-1796
主张	-1797
喜欢	-1798
外汇	-1799
说明	-1800
第一次	-1801
占领	-1802
荷兰	-1803
▁印度	-1804
历史上	-1805
os	-1806
描述	-1807
构建	-1808
牺牲	-1809
结论	-1810
著名	-1811
专业	-1812
受害	-1813
实验	-1814
有时	-1815
▁以	-1816
内战	-1817
启动	-1818
反映了	-1819
看起来	-1820
加上	-1821
占据	-1822
宣传	-1823
心理	-1824
用来	-1825
▁日本	-1826
是一种	-1827
的作用	-1828
的核心	-1829
屠杀	-1830
来看	-1831
美国在	-1832
问题是	-1833
内瑞	-1834
农民	-1835
法庭	-1836
这么	-1837
预防	-1838
香港	-1839
伊朗的	-1840
内瑞拉	-1841
稳定的	-1842
委内瑞拉	-1843
不受	-1844
实体	-1845
缅甸	-1846
政府和	-1847
一代	-1848
兄弟	-1849
几年	-1850
句话	-1851
奇怪	-1852
抑制	-1853
说服	-1854
▁实际上	-1855
习近	-1856
宏观经济	-1857
传播	-1858
传染	-1859
尊重	-1860
税率	-1861
萨德	-1862
习近平	-1863
制造业	-1864
经历了	-1865
▁E	-1866
形势	-1867
凯恩斯	-1868
就可以	-1869
的人口	-1870
▁of	-1871
促使	-1872
入侵	-1873
孤立	-1874
愤怒	-1875
是个	-1876
灵活	-1877
究竟	-1878
体现	-1879
推翻	-1880
因为它	-1881
巩固	-1882
起到	-1883
▁同时	-1884
欧洲人	-1885
农村	-1886
恰恰	-1887
跨国	-1888
伊斯兰国	-1889
14	-1890
行长	-1891
组织的	-1892
动力	-1893
故事	-1894
绿色	-1895
一体化	-1896
中产	-1897
尝试	-1898
权的	-1899
中国和	-1900
有一个	-1901
至关重要	-1902
刚刚	-1903
培训	-1904
外的	-1905
模型	-1906
了这一	-1907
更高的	-1908
的威胁	-1909
一点	-1910
两种	-1911
国防	-1912
斯科	-1913
时的	-1914
条款	-1915
能否	-1916
资本主义	-1917
所在	-1918
的未来	-1919
一起	-1920
义务	-1921
之路	-1922
人在	-1923
回归	-1924
巨额	-1925
议员	-1926
成功的	-1927
科学家	-1928
▁H	-1929
各地	-1930
情报	-1931
和金融	-1932
对美国	-1933
表现出	-1934
▁无论	-1935
合法性	-1936
世界经济	-1937
我们必须	-1938
量化宽松	-1939
但在	-1940
操纵	-1941
整体	-1942
森林	-1943
相似	-1944
高于	-1945
他在	-1946
早期	-1947
极大	-1948
引入	-1949
承受	-1950
潜力	-1951
纳税	-1952
诸多	-1953
这次	-1954
极为	-1955
ing	-1956
的长期	-1957
很大程度上	-1958
研发	-1959
股市	-1960
被认为	-1961
各国政府	-1962
化石	-1963
南非	-1964
特殊	-1965
几个月	-1966
的工作	-1967
第一个	-1968
阿萨德	-1969
一旦	-1970
出于	-1971
回到	-1972
她们	-1973
进行了	-1974
公正	-1975
包含	-1976
变成	-1977
对话	-1978
边界	-1979
借贷	-1980
测试	-1981
澳大	-1982
▁例如	-1983
共产主义	-1984
动物	-1985
在一起	-1986
新兴经济体	-1987
▁到	-1988
不满	-1989
月份	-1990
阿尔	-1991
▁全球	-1992
债权人	-1993
巴拉克	-1994
支持者	-1995
的金融	-1996
产量	-1997
中产阶级	-1998
亿美元的	-1999
私人部门	-2000
意见	-2001
格鲁	-2002
错误的	-2003
2000	-2004
于是	-2005
西洋	-2006
试验	-2007
前所未	-2008
澳大利亚	-2009
不愿	-2010
中所	-2011
任期	-2012
政治家	-2013
16	-2014
举措	-2015
公投	-2016
参加	-2017
无疑	-2018
2005	-2019
ter	-2020
▁最近	-2021
伙伴关系	-2022
也无法	-2023
在欧洲	-2024
默克尔	-2025
不可避免	-2026
ul	-2027
产出	-2028
大型	-2029
对待	-2030
资产负债	-2031
ur	-2032
决心	-2033
更不	-2034
标志	-2035
维护	-2036
贝尔	-2037
化石燃料	-2038
现状	-2039
解放	-2040
▁第二	-2041
变得更加	-2042
不太	-2043
▁法国	-2044
改革的	-2045
▁尽管如此	-2046
13	-2047
以此	-2048
医生	-2049
更高	-2050
....	-2051
采取行动	-2052
一般	-2053
仍在	-2054
导弹	-2055
涉及	-2056
结合	-2057
边缘	-2058
的挑战	-2059
也是如此	-2060
▁3	-2061
一系列	-2062
库尔德	-2063
的历史	-2064
资产负债表	-2065
想法	-2066
拉丁	-2067
更有	-2068
释放	-2069
▁——	-2070
不久	-2071
不利	-2072
做的	-2073
强硬	-2074
用的	-2075
过渡	-2076
大西洋	-2077
哥伦	-2078
评论	-2079
付出	-2080
▁伦敦	-2081
早已	-2082
高度	-2083
196	-2084
很可能	-2085
必要的	-2086
期望	-2087
▁而在	-2088
不仅仅是	-2089
哥伦比亚	-2090
劳动力市场	-2091
强制	-2092
流入	-2093
渴望	-2094
民主的	-2095
目前为止	-2096
中间	-2097
位于	-2098
平民	-2099
幸运	-2100
循环	-2101
职业	-2102
▁7	-2103
升级	-2104
斯特	-2105
营养	-2106
非法	-2107
500	-2108
▁在这	-2109
受到了	-2110
在经济	-2111
达到了	-2112
减税	-2113
构成	-2114
在全球	-2115
命运	-2116
绝对	-2117
的时间	-2118
ri	-2119
▁d	-2120
各方	-2121
资格	-2122
马克	-2123
的需求	-2124
被视为	-2125
货币联盟	-2126
住房	-2127
各自	-2128
比率	-2129
紧密	-2130
驱动	-2131
的地区	-2132
计划的	-2133
▁奥巴马	-2134
之时	-2135
回应	-2136
数百万	-2137
的中国	-2138
都没有	-2139
持久	-2140
约翰	-2141
超越	-2142
的措施	-2143
2016	-2144
以色列的	-2145
所面临的	-2146
民主国家	-2147
2%	-2148
作出	-2149
惩罚	-2150
现金	-2151
语言	-2152
之所以	-2153
发生在	-2154
不够	-2155
到的	-2156
声称	-2157
消失	-2158
还会	-2159
限于	-2160
21	-2161
▁换	-2162
之上	-2163
台湾	-2164
尚未	-2165
摧毁	-2166
数十	-2167
首次	-2168
▁今天	-2169
▁过去	-2170
▁除了	-2171
最重要的	-2172
居民	-2173
▁第三	-2174
同时也	-2175
有了	-2176
给了	-2177
的环境	-2178
瑞典	-2179
约旦	-2180
原因是	-2181
的行动	-2182
已经开始	-2183
万人	-2184
兴趣	-2185
再生	-2186
国外	-2187
激烈	-2188
通缩	-2189
的生活	-2190
选举中	-2191
▁为	-2192
看法	-2193
离开	-2194
支持的	-2195
多元	-2196
海洋	-2197
逻辑	-2198
▁也许	-2199
和中国	-2200
的努力	-2201
te	-2202
姆林	-2203
紧急	-2204
镇压	-2205
亿欧元	-2206
尔多安	-2207
的承诺	-2208
还需要	-2209
▁K	-2210
利班	-2211
员工	-2212
打破	-2213
正义	-2214
自动	-2215
要比	-2216
东盟	-2217
月的	-2218
观念	-2219
是如此	-2220
▁6	-2221
▁8	-2222
北京	-2223
尼日	-2224
强劲	-2225
演讲	-2226
能在	-2227
规划	-2228
▁简	-2229
交通	-2230
公约	-2231
马里	-2232
▁其他	-2233
未来的	-2234
▁W	-2235
人物	-2236
例外	-2237
忽略	-2238
怎么	-2239
疲软	-2240
穷人	-2241
组合	-2242
至今	-2243
ers	-2244
的方法	-2245
的领导	-2246
PP	-2247
▁L	-2248
基督	-2249
紧迫	-2250
让他们	-2251
尼斯	-2252
恐慌	-2253
成功地	-2254
的地方	-2255
▁俄罗斯	-2256
拉丁美洲	-2257
这个问题	-2258
建筑	-2259
而在	-2260
议程	-2261
超级	-2262
召开	-2263
太平	-2264
推行	-2265
言之	-2266
与美国	-2267
产生了	-2268
实现了	-2269
埃尔多安	-2270
下来	-2271
化和	-2272
细胞	-2273
艰难	-2274
目前的	-2275
陷入了	-2276
巴勒斯坦人	-2277
1%	-2278
任命	-2279
保留	-2280
平台	-2281
必然	-2282
拉美	-2283
随之	-2284
也不会	-2285
是为了	-2286
的银行	-2287
目的是	-2288
全球变暖	-2289
区别	-2290
度的	-2291
百分	-2292
纳德	-2293
过来	-2294
另一方面	-2295
un	-2296
▁4	-2297
一下	-2298
诚然	-2299
存在的	-2300
采取了	-2301
领导的	-2302
暴露	-2303
证券	-2304
身上	-2305
迹象	-2306
低收入	-2307
互相	-2308
以下	-2309
借款	-2310
发行	-2311
是有	-2312
消灭	-2313
短缺	-2314
让人	-2315
遵守	-2316
阵营	-2317
▁其中	-2318
和投资	-2319
塔利班	-2320
是美国	-2321
的利益	-2322
恐怖分子	-2323
使其	-2324
法治	-2325
罗马	-2326
西亚	-2327
将继续	-2328
已经在	-2329
的东西	-2330
ment	-2331
欧盟委员会	-2332
人均	-2333
份额	-2334
修正	-2335
全民	-2336
经营	-2337
获益	-2338
费用	-2339
的权利	-2340
论坛	-2341
ab	-2342
art	-2343
太平洋	-2344
段时间	-2345
的人们	-2346
最新	-2347
共和国	-2348
在一个	-2349
在内的	-2350
的战略	-2351
克里姆林	-2352
人数	-2353
加拿	-2354
存款	-2355
比方	-2356
气体	-2357
)——	-2358
▁问题	-2359
建立一个	-2360
经济发展	-2361
东亚	-2362
关税	-2363
协助	-2364
大会	-2365
在政治	-2366
2006	-2367
ob	-2368
上去	-2369
只会	-2370
性别	-2371
患者	-2372
理性	-2373
谨慎	-2374
谴责	-2375
二十世纪	-2376
已经成为	-2377
▁f	-2378
从来	-2379
优先	-2380
可信	-2381
否认	-2382
柏林	-2383
脱离	-2384
一部分	-2385
所有人	-2386
的自由	-2387
个体	-2388
人道	-2389
朋友	-2390
脱欧	-2391
逐步	-2392
▁所以	-2393
▁诚然	-2394
失去了	-2395
的例子	-2396
的军事	-2397
以及其他	-2398
不如	-2399
加拉	-2400
布鲁	-2401
年龄	-2402
日渐	-2403
每天	-2404
还能	-2405
逆转	-2406
吉亚	-2407
哪些	-2408
渠道	-2409
▁即便	-2410
▁去年	-2411
句话说	-2412
的唯一	-2413
2001	-2414
之为	-2415
发起	-2416
整合	-2417
机构的	-2418
判断	-2419
名义	-2420
垄断	-2421
拉夫	-2422
良好	-2423
▁这就是	-2424
格鲁吉亚	-2425
不良	-2426
世俗	-2427
业务	-2428
五年	-2429
太阳	-2430
失衡	-2431
式的	-2432
指导	-2433
突破	-2434
股东	-2435
阶层	-2436
顾问	-2437
也应该	-2438
的最佳	-2439
▁在美国	-2440
这一目标	-2441
的经济增长	-2442
一年	-2443
丧失	-2444
准确	-2445
出售	-2446
化为	-2447
文章	-2448
是由	-2449
每个	-2450
获胜	-2451
合理的	-2452
ce	-2453
性质	-2454
抵消	-2455
智利	-2456
警察	-2457
违反	-2458
▁In	-2459
可再生	-2460
的决定	-2461
信号	-2462
偿还	-2463
减轻	-2464
常规	-2465
悲剧	-2466
生态	-2467
致命	-2468
要素	-2469
麻烦	-2470
▁不过	-2471
的安全	-2472
▁中国的	-2473
我们需要	-2474
▁近	-2475
也门	-2476
半岛	-2477
战斗	-2478
疟疾	-2479
人们对	-2480
十年代	-2481
美元的	-2482
主流	-2483
以便	-2484
国务	-2485
支撑	-2486
突然	-2487
绝非	-2488
缓解	-2489
还在	-2490
都能	-2491
绝大多数	-2492
3.	-2493
一半	-2494
以往	-2495
声明	-2496
放在	-2497
海外	-2498
负面	-2499
选票	-2500
都将	-2501
为基础	-2502
他们在	-2503
共产党	-2504
的做法	-2505
美国经济	-2506
了对	-2507
南亚	-2508
温室	-2509
留在	-2510
▁19	-2511
▁还有	-2512
的理由	-2513
▁这意味着	-2514
两者	-2515
养老	-2516
廉价	-2517
永久	-2518
运作	-2519
的公共	-2520
预算赤字	-2521
#160;&	-2522
形象	-2523
沙尔	-2524
终结	-2525
经过	-2526
人口的	-2527
集中在	-2528
所造成的	-2529
无力	-2530
纳入	-2531
资助	-2532
都要	-2533
加拿大	-2534
▁美国的	-2535
信仰	-2536
电力	-2537
病毒	-2538
高级	-2539
▁上述	-2540
仅仅是	-2541
注意力	-2542
的债务	-2543
一条	-2544
不了	-2545
密切	-2546
指控	-2547
更快	-2548
私有	-2549
0%。	-2550
收入的	-2551
比方说	-2552
的选择	-2553
尼日利亚	-2554
im	-2555
功能	-2556
多年	-2557
拉斯	-2558
终于	-2559
记者	-2560
销售	-2561
经常项目	-2562
分之	-2563
▁今年	-2564
降低了	-2565
1990	-2566
中期	-2567
产权	-2568
其在	-2569
复兴	-2570
工会	-2571
施加	-2572
人认为	-2573
和服务	-2574
当前的	-2575
的技术	-2576
我们可以	-2577
oo	-2578
但这	-2579
抵押	-2580
距离	-2581
企业的	-2582
受害者	-2583
▁N	-2584
但它	-2585
加以	-2586
最低	-2587
殖民	-2588
中国经济	-2589
这一问题	-2590
这个国家	-2591
东欧	-2592
扭曲	-2593
文明	-2594
▁th	-2595
▁伊朗	-2596
也必须	-2597
人们的	-2598
犹太人	-2599
自由化	-2600
不要	-2601
争取	-2602
事业	-2603
减速	-2604
动机	-2605
多么	-2606
操作	-2607
ag	-2608
她的	-2609
手中	-2610
排除	-2611
某个	-2612
此前	-2613
黄金	-2614
广泛的	-2615
2004	-2616
没有任何	-2617
温室气体	-2618
克里姆林宫	-2619
却是	-2620
可怕	-2621
固定	-2622
政变	-2623
林斯	-2624
根源	-2625
煽动	-2626
的关系	-2627
的成本	-2628
不确定性	-2629
▁所有这些	-2630
ig	-2631
专制	-2632
困扰	-2633
接着	-2634
本质	-2635
材料	-2636
设备	-2637
部门的	-2638
▁以色列	-2639
可能导致	-2640
做好	-2641
医学	-2642
国债	-2643
客户	-2644
总值	-2645
职位	-2646
称之为	-2647
⁄4	-2648
低估	-2649
坚定	-2650
▁那些	-2651
政府在	-2652
的后果	-2653
回答	-2654
害怕	-2655
活力	-2656
物质	-2657
纳粹	-2658
青年	-2659
3⁄4	-2660
▁他的	-2661
一直是	-2662
中国在	-2663
的一些	-2664
的变化	-2665
的市场	-2666
um	-2667
一名	-2668
也能	-2669
浪费	-2670
途径	-2671
▁鉴于	-2672
现代化	-2673
良好的	-2674
超过了	-2675
所有人都	-2676
sp	-2677
中有	-2678
实质	-2679
重塑	-2680
诺贝尔	-2681
壁垒	-2682
葡萄	-2683
巴沙尔	-2684
形式的	-2685
社会的	-2686
ev	-2687
古巴	-2688
本人	-2689
第四	-2690
大萧条	-2691
教育和	-2692
日本的	-2693
位置	-2694
兑现	-2695
年度	-2696
▁不管	-2697
一开始	-2698
国家和	-2699
的任务	-2700
,”	-2701
决议	-2702
完美	-2703
实践	-2704
层次	-2705
没能	-2706
用说	-2707
电子	-2708
德国的	-2709
的速度	-2710
负责任	-2711
▁但这一	-2712
原本	-2713
情形	-2714
所得	-2715
放松	-2716
物价	-2717
认真	-2718
▁显然	-2719
的态度	-2720
范围内	-2721
▁在过去	-2722
主权债务	-2723
某种程度上	-2724
▁和	-2725
卡梅	-2726
抓住	-2727
积累	-2728
覆盖	-2729
认定	-2730
反过来	-2731
塔尼亚	-2732
引发了	-2733
▁and	-2734
▁换句话说	-2735
下滑	-2736
导向	-2737
巴斯	-2738
应用	-2739
当中	-2740
德拉	-2741
是最	-2742
权威	-2743
比重	-2744
法官	-2745
会议上	-2746
印度的	-2747
的事实	-2748
的价格	-2749
经济和	-2750
财政政策	-2751
ec	-2752
专注	-2753
印尼	-2754
愿景	-2755
注入	-2756
真相	-2757
蔓延	-2758
觉得	-2759
那种	-2760
时代的	-2761
权力的	-2762
南部	-2763
尔的	-2764
意料	-2765
越南	-2766
举行的	-2767
会导致	-2768
有能力	-2769
金融体系	-2770
加坡	-2771
否决	-2772
投机	-2773
深远	-2774
立刻	-2775
▁只要	-2776
不足以	-2777
不过是	-2778
战争的	-2779
理事会	-2780
前所未有的	-2781
id	-2782
上了	-2783
专利	-2784
严厉	-2785
匈牙	-2786
化学	-2787
歧视	-2788
群众	-2789
0%,	-2790
也可能	-2791
匈牙利	-2792
服务业	-2793
幸运的是	-2794
从事	-2795
办公	-2796
对外	-2797
本地	-2798
落后	-2799
过剩	-2800
震惊	-2801
和欧洲	-2802
的人民	-2803
更不用说	-2804
干涉	-2805
融合	-2806
行政	-2807
解体	-2808
关系的	-2809
建立在	-2810
的货币	-2811
都必须	-2812
可再生能源	-2813
两位	-2814
两年	-2815
临时	-2816
到底	-2817
急剧	-2818
饱受	-2819
很多人	-2820
产能	-2821
享受	-2822
暂时	-2823
讽刺	-2824
迫切	-2825
面前	-2826
增长和	-2827
▁这样的	-2828
保护主义	-2829
许多国家	-2830
圣战	-2831
小的	-2832
心的	-2833
流行	-2834
清晰	-2835
男性	-2836
诊断	-2837
ity	-2838
因为他们	-2839
塔尼亚胡	-2840
接触	-2841
获取	-2842
设立	-2843
吸引力	-2844
在这个	-2845
投资的	-2846
的最大	-2847
相对较	-2848
越来越多	-2849
内塔尼亚胡	-2850
僵局	-2851
冒险	-2852
剑桥	-2853
动作	-2854
助长	-2855
布莱	-2856
或是	-2857
没人	-2858
米尔	-2859
要想	-2860
起了	-2861
参与者	-2862
很容易	-2863
所需的	-2864
背景下	-2865
这两个	-2866
▁199	-2867
为此	-2868
何种	-2869
加大	-2870
季度	-2871
改进	-2872
训练	-2873
葡萄牙	-2874
进行的	-2875
布什政府	-2876
▁你	-2877
契约	-2878
成熟	-2879
将成为	-2880
的成功	-2881
的最新	-2882
的重要性	-2883
ve	-2884
▁9	-2885
升高	-2886
声音	-2887
清洁	-2888
空气	-2889
不管是	-2890
安全的	-2891
导致的	-2892
投资于	-2893
▁但我们	-2894
24	-2895
丰富	-2896
修改	-2897
定居	-2898
战后	-2899
游戏	-2900
近期	-2901
里的	-2902
▁希腊	-2903
监管者	-2904
商品价格	-2905
一家	-2906
一轮	-2907
严峻	-2908
发电	-2909
敌人	-2910
昂贵	-2911
沦为	-2912
生的	-2913
不需要	-2914
仍然是	-2915
孟加拉	-2916
的信息	-2917
的法律	-2918
肯尼亚	-2919
越来越多的	-2920
▁可	-2921
主宰	-2922
全力	-2923
担保	-2924
经合	-2925
补偿	-2926
赋予	-2927
部署	-2928
工业化	-2929
中国政府	-2930
布鲁塞尔	-2931
了其	-2932
感染	-2933
武力	-2934
药品	-2935
英格兰	-2936
ir	-2937
▁p	-2938
抛弃	-2939
深入	-2940
考验	-2941
运转	-2942
主要是	-2943
十年的	-2944
的资金	-2945
不平等性	-2946
这样一个	-2947
nb	-2948
▁她	-2949
为其	-2950
军方	-2951
压倒	-2952
各个	-2953
后来	-2954
授权	-2955
敏感	-2956
显得	-2957
首要	-2958
是什么	-2959
水平的	-2960
的力量	-2961
很有可能	-2962
欧洲国家	-2963
人群	-2964
利息	-2965
将军	-2966
此次	-2967
波斯	-2968
十年中	-2969
的方案	-2970
的贸易	-2971
纳税人	-2972
长时间	-2973
不可持续	-2974
世界各地	-2975
不少	-2976
律宾	-2977
最初	-2978
深度	-2979
秘密	-2980
纷纷	-2981
规范	-2982
这将	-2983
道理	-2984
▁当时	-2985
也不是	-2986
形成了	-2987
甚至是	-2988
突尼斯	-2989
菲律宾	-2990
三分之一	-2991
下了	-2992
作物	-2993
克斯	-2994
和解	-2995
外围	-2996
审判	-2997
母亲	-2998
纪念	-2999
也不能	-3000
发展的	-3001
的要求	-3002
与此同时	-3003
外汇储备	-3004
一份	-3005
出台	-3006
到来	-3007
北部	-3008
就在	-3009
引导	-3010
强势	-3011
才会	-3012
明年	-3013
点是	-3014
真主	-3015
私营	-3016
罗姆	-3017
防御	-3018
的所有	-3019
的责任	-3020
▁the	-3021
▁简言之	-3022
▁美联储	-3023
生产总值	-3024
发展中国家的	-3025
3%	-3026
失望	-3027
完整	-3028
无人	-3029
苏丹	-3030
那个	-3031
低利率	-3032
更好地	-3033
的危险	-3034
的压力	-3035
的反应	-3036
全球化的	-3037
长期以来	-3038
信誉	-3039
拿出	-3040
用户	-3041
▁于是	-3042
主义和	-3043
应该是	-3044
有力的	-3045
的战争	-3046
苏格兰	-3047
起作用	-3048
重要性	-3049
分享	-3050
印象	-3051
吸收	-3052
大多	-3053
富有	-3054
小时	-3055
期待	-3056
百分点	-3057
的欧盟	-3058
予以	-3059
家族	-3060
看似	-3061
纠正	-3062
象征	-3063
雄心	-3064
首脑	-3065
做出了	-3066
可能的	-3067
真主党	-3068
领导人的	-3069
地说	-3070
不稳定	-3071
创造了	-3072
好消息	-3073
技术的	-3074
目标的	-3075
这些问题	-3076
仍有	-3077
幸福	-3078
开展	-3079
煤炭	-3080
电脑	-3081
唯一的	-3082
总需求	-3083
每一个	-3084
还必须	-3085
领域的	-3086
▁华盛顿	-3087
财政赤字	-3088
不安	-3089
密集	-3090
小组	-3091
推迟	-3092
毁灭	-3093
特定	-3094
站在	-3095
退欧	-3096
与其他	-3097
基金会	-3098
的事情	-3099
能力的	-3100
▁c	-3101
两次	-3102
也就	-3103
做到	-3104
偿付	-3105
充足	-3106
共享	-3107
变为	-3108
步骤	-3109
amp	-3110
▁的确	-3111
也许是	-3112
工作的	-3113
很大的	-3114
▁他们的	-3115
全球金融危机	-3116
NA	-3117
op	-3118
反而	-3119
忧虑	-3120
泰国	-3121
表面	-3122
财务	-3123
卡梅伦	-3124
明确的	-3125
的权力	-3126
2003	-3127
恐怖袭击	-3128
成员国的	-3129
在很大程度上	-3130
基础设施投资	-3131
保罗	-3132
提议	-3133
来讲	-3134
民意	-3135
现任	-3136
盈利	-3137
衰落	-3138
金砖	-3139
首席	-3140
300	-3141
办公室	-3142
多年来	-3143
庞大的	-3144
有效地	-3145
▁另一个	-3146
几十年来	-3147
显而易见	-3148
财政部长	-3149
la	-3150
▁大	-3151
▁将	-3152
不在	-3153
前进	-3154
合适	-3155
多大	-3156
所说	-3157
流向	-3158
起诉	-3159
变成了	-3160
看上去	-3161
乔治	-3162
剥夺	-3163
合同	-3164
更具	-3165
瑞士	-3166
专注于	-3167
利益的	-3168
国家都	-3169
更多地	-3170
特朗普的	-3171
联合国安理会	-3172
一国	-3173
严肃	-3174
分别	-3175
团队	-3176
游说	-3177
综合	-3178
融入	-3179
TPP	-3180
▁如此	-3181
和国际	-3182
得不到	-3183
的效果	-3184
的角色	-3185
国家安全	-3186
▁幸运的是	-3187
奥斯	-3188
沃尔	-3189
20%	-3190
协议的	-3191
和日本	-3192
唐纳德	-3193
提供的	-3194
的最后	-3195
2030	-3196
世界其他	-3197
的领导人	-3198
显而易见的	-3199
不上	-3200
习惯	-3201
倒闭	-3202
审查	-3203
工党	-3204
癌症	-3205
太阳能	-3206
对中国	-3207
开发银行	-3208
▁1	-3209
▁让	-3210
不应	-3211
所能	-3212
救助	-3213
相应	-3214
马拉	-3215
企业家	-3216
的说法	-3217
nbsp	-3218
几乎没有	-3219
基地组织	-3220
的问题是	-3221
自然资源	-3222
从中	-3223
压制	-3224
容忍	-3225
生素	-3226
神经	-3227
艺术	-3228
萨尔	-3229
讲话	-3230
存在着	-3231
的基本	-3232
相对于	-3233
还可以	-3234
▁for	-3235
▁但这些	-3236
▁是	-3237
前任	-3238
动员	-3239
士兵	-3240
报纸	-3241
电影	-3242
监控	-3243
花费	-3244
里斯	-3245
养老金	-3246
在中国	-3247
适用于	-3248
▁考虑到	-3249
但其	-3250
关心	-3251
出资	-3252
在此	-3253
悲观	-3254
扭转	-3255
拉里	-3256
教授	-3257
爆炸	-3258
英镑	-3259
萨达	-3260
足球	-3261
马来	-3262
和政府	-3263
的公司	-3264
的水平	-3265
转化为	-3266
经合组织	-3267
美国政府	-3268
ci	-3269
▁上	-3270
关闭	-3271
医院	-3272
太多	-3273
学术	-3274
并将	-3275
残酷	-3276
补充	-3277
意义的	-3278
这也是	-3279
为例	-3280
分离	-3281
切尔	-3282
制约	-3283
加快	-3284
和对	-3285
学院	-3286
弱势	-3287
毒品	-3288
签订	-3289
领先	-3290
债务的	-3291
和全球	-3292
相关的	-3293
2020	-3294
资产价格	-3295
中共	-3296
主教	-3297
哪里	-3298
智能	-3299
看作	-3300
秘书	-3301
路线	-3302
这位	-3303
问责	-3304
间的	-3305
▁西方	-3306
出现在	-3307
英国的	-3308
领导层	-3309
▁。	-3310
侵犯	-3311
制药	-3312
居住	-3313
无关	-3314
案例	-3315
继任	-3316
认可	-3317
说是	-3318
还将	-3319
重重	-3320
额外	-3321
▁有些	-3322
政策制定	-3323
穆巴拉克	-3324
to	-3325
使命	-3326
哈拉	-3327
幅度	-3328
斯基	-3329
消极	-3330
特里	-3331
背后	-3332
迄今	-3333
运用	-3334
▁5%	-3335
以至于	-3336
倾向于	-3337
国务卿	-3338
法国和	-3339
一个国家	-3340
金融稳定	-3341
欧盟成员国	-3342
大战	-3343
席位	-3344
披露	-3345
极其	-3346
而被	-3347
传染病	-3348
影响到	-3349
的一种	-3350
的数据	-3351
系统的	-3352
莫斯科	-3353
风险的	-3354
▁土耳其	-3355
he	-3356
ra	-3357
▁&	-3358
举动	-3359
人力	-3360
亿人	-3361
介入	-3362
年底	-3363
情景	-3364
立即	-3365
配置	-3366
▁所有	-3367
只有在	-3368
自由的	-3369
▁毫无疑问	-3370
SD	-3371
▁J	-3372
分散	-3373
单位	-3374
型的	-3375
富人	-3376
总额	-3377
愿望	-3378
最好	-3379
滥用	-3380
萎靡	-3381
追随	-3382
选项	-3383
高效	-3384
高昂	-3385
不存在	-3386
也需要	-3387
了美国	-3388
并不能	-3389
影响的	-3390
▁s	-3391
下台	-3392
公布	-3393
塞浦	-3394
排名	-3395
更是	-3396
机遇	-3397
结核	-3398
路斯	-3399
金正	-3400
马上	-3401
194	-3402
的一切	-3403
获得的	-3404
布雷	-3405
强的	-3406
当的	-3407
最佳	-3408
梦想	-3409
监狱	-3410
运行	-3411
了一场	-3412
基督教	-3413
背后的	-3414
塞浦路斯	-3415
估算	-3416
刑事	-3417
千年	-3418
响应	-3419
定价	-3420
物种	-3421
莫迪	-3422
雇主	-3423
#45	-3424
man	-3425
▁国际	-3426
也因此	-3427
新加坡	-3428
是否会	-3429
目标是	-3430
eb	-3431
交换	-3432
地带	-3433
延长	-3434
日的	-3435
薪酬	-3436
▁经济	-3437
下降到	-3438
保守派	-3439
再一次	-3440
冲突的	-3441
的增加	-3442
至少在	-3443
伊拉克的	-3444
的大规模	-3445
的大部分	-3446
至关重要的	-3447
▁年	-3448
会对	-3449
弱点	-3450
智慧	-3451
街头	-3452
评级	-3453
身体	-3454
参议院	-3455
建立了	-3456
投资和	-3457
财政部	-3458
都无法	-3459
我们应该	-3460
的经济体	-3461
石油价格	-3462
▁欧洲央行	-3463
4.	-3464
▁除	-3465
勃勃	-3466
失所	-3467
女孩	-3468
工厂	-3469
我在	-3470
战胜	-3471
斯大	-3472
无所	-3473
检查	-3474
野心	-3475
▁巴黎	-3476
▁最终	-3477
就需要	-3478
总统的	-3479
的代价	-3480
的地位	-3481
组成的	-3482
银行家	-3483
阿巴斯	-3484
▁2008	-3485
#160;&#160;&	-3486
27	-3487
▁,	-3488
不论	-3489
中等	-3490
凸显	-3491
出生	-3492
发明	-3493
大宗	-3494
沉重	-3495
注定	-3496
物理	-3497
病人	-3498
裁决	-3499
▁除非	-3500
些时候	-3501
时间里	-3502
的收入	-3503
破坏了	-3504
#160;	-3505
oh	-3506
低迷	-3507
便是	-3508
哈根	-3509
哥本	-3510
地中	-3511
展示	-3512
抵抗	-3513
零售	-3514
可行的	-3515
必须在	-3516
的一项	-3517
让人们	-3518
赢得了	-3519
▁联合国	-3520
人道主义	-3521
哥本哈根	-3522
证据表明	-3523
▁如果我们	-3524
并不意味着	-3525
事故	-3526
就将	-3527
履行	-3528
慷慨	-3529
提醒	-3530
无可	-3531
日元	-3532
时机	-3533
也包括	-3534
体系的	-3535
几年来	-3536
取得的	-3537
对欧洲	-3538
年代的	-3539
研究所	-3540
就业机会	-3541
▁《	-3542
▁像	-3543
互动	-3544
催生	-3545
地理	-3546
彼此	-3547
确认	-3548
而已	-3549
长达	-3550
ill	-3551
大学的	-3552
生产力	-3553
的能源	-3554
第二次	-3555
这些人	-3556
遭到了	-3557
公共部门	-3558
▁在这方面	-3559
ational	-3560
会谈	-3561
伟大	-3562
后代	-3563
大众	-3564
完善	-3565
宣言	-3566
换取	-3567
活跃	-3568
社交	-3569
科索	-3570
等待	-3571
舞台	-3572
遗传	-3573
都被	-3574
饥饿	-3575
危机中	-3576
提高了	-3577
石油和	-3578
证明了	-3579
1989	-3580
中东地区	-3581
结构性改革	-3582
35	-3583
si	-3584
可行	-3585
外界	-3586
庇护	-3587
意外	-3588
推广	-3589
暗示	-3590
继承	-3591
重视	-3592
难题	-3593
世纪的	-3594
已成为	-3595
科索沃	-3596
的影响力	-3597
▁·	-3598
两倍	-3599
今后	-3600
创业	-3601
南欧	-3602
在线	-3603
多种	-3604
慈善	-3605
申请	-3606
移动	-3607
罪行	-3608
证实	-3609
颠覆	-3610
ard	-3611
他们所	-3612
做出的	-3613
出来的	-3614
各国的	-3615
基本上	-3616
引起了	-3617
极大的	-3618
构成了	-3619
独立的	-3620
转移到	-3621
1980	-3622
2002	-3623
qu	-3624
可谓	-3625
威尔	-3626
开启	-3627
榜样	-3628
萨科	-3629
进而	-3630
适合	-3631
防务	-3632
ran	-3633
▁普京	-3634
依赖于	-3635
其他人	-3636
另一种	-3637
的和平	-3638
第二个	-3639
被称为	-3640
过去的	-3641
作为一个	-3642
这是一个	-3643
中国领导人	-3644
二氧化碳排放	-3645
伯特	-3646
先进	-3647
周边	-3648
好像	-3649
少的	-3650
很有	-3651
房价	-3652
所作	-3653
记忆	-3654
传统的	-3655
十年前	-3656
斯大林	-3657
透明度	-3658
1,	-3659
一套	-3660
争夺	-3661
仇恨	-3662
依旧	-3663
出版	-3664
切实	-3665
发放	-3666
学者	-3667
截然	-3668
日常	-3669
本月	-3670
热情	-3671
的小	-3672
缓和	-3673
诱惑	-3674
不愿意	-3675
削弱了	-3676
可能在	-3677
和安全	-3678
生活的	-3679
不必	-3680
人为	-3681
但也	-3682
依据	-3683
同事	-3684
填补	-3685
延续	-3686
效益	-3687
敦促	-3688
绝望	-3689
与中国	-3690
制度的	-3691
地中海	-3692
布莱尔	-3693
来自于	-3694
▁欧元区	-3695
没有什么	-3696
em	-3697
千万	-3698
年到	-3699
要在	-3700
鼓吹	-3701
ich	-3702
▁任何	-3703
下降了	-3704
不再是	-3705
和环境	-3706
多样性	-3707
政权的	-3708
都需要	-3709
国有企业	-3710
塞尔维亚	-3711
CC	-3712
企图	-3713
减排	-3714
大于	-3715
大使	-3716
知的	-3717
阻挠	-3718
不扩散	-3719
价值的	-3720
威胁到	-3721
更容易	-3722
肯定会	-3723
马来西亚	-3724
▁O	-3725
▁总	-3726
▁马	-3727
丹麦	-3728
做得	-3729
叛乱	-3730
同一	-3731
引擎	-3732
挽救	-3733
掩盖	-3734
核电	-3735
能让	-3736
陷阱	-3737
隔离	-3738
鼓舞	-3739
193	-3740
也同样	-3741
参议员	-3742
复杂的	-3743
大量的	-3744
行动的	-3745
几乎所有	-3746
极端主义	-3747
阿拉伯世界	-3748
阿拉伯国家	-3749
8%	-3750
tu	-3751
之际	-3752
人才	-3753
以为	-3754
塔赫	-3755
夏天	-3756
暴跌	-3757
不仅是	-3758
在国际	-3759
尽可能	-3760
萨达姆	-3761
非政府	-3762
因为它们	-3763
到目前为止	-3764
ay	-3765
一再	-3766
仍是	-3767
危害	-3768
大概	-3769
尔西	-3770
模糊	-3771
白宫	-3772
的自	-3773
频繁	-3774
▁另外	-3775
▁这就	-3776
加剧了	-3777
我们对	-3778
控制的	-3779
的价值	-3780
行为的	-3781
结构改革	-3782
▁问题在于	-3783
ov	-3784
三大	-3785
之春	-3786
在内	-3787
果断	-3788
因为这	-3789
大屠杀	-3790
抗生素	-3791
统治者	-3792
都可以	-3793
被认为是	-3794
IS	-3795
ow	-3796
▁-	-3797
会有	-3798
免费	-3799
引人	-3800
此类	-3801
焦点	-3802
纠纷	-3803
认同	-3804
风暴	-3805
▁可以	-3806
▁要想	-3807
不平衡	-3808
主要的	-3809
实施了	-3810
核计划	-3811
的条件	-3812
简单的	-3813
系统性	-3814
计算机	-3815
▁为什么	-3816
▁特别是	-3817
地方政府	-3818
该地区的	-3819
转移支付	-3820
中美	-3821
份子	-3822
其对	-3823
劳工	-3824
口号	-3825
姿态	-3826
流离	-3827
电话	-3828
聪明	-3829
阵线	-3830
改变了	-3831
机器人	-3832
水资源	-3833
的反对	-3834
的好处	-3835
▁前	-3836
全新	-3837
动摇	-3838
北欧	-3839
多个	-3840
实在	-3841
审慎	-3842
拖累	-3843
挪威	-3844
美军	-3845
西欧	-3846
里根	-3847
▁非洲	-3848
的协议	-3849
的现实	-3850
重大的	-3851
组成部分	-3852
经济复苏	-3853
......	-3854
ap	-3855
东京	-3856
乃至	-3857
尼克	-3858
普及	-3859
最有	-3860
纪录	-3861
著作	-3862
连续	-3863
以确保	-3864
穆尔西	-3865
绝不是	-3866
非常规	-3867
▁比方说	-3868
CD	-3869
交流	-3870
借口	-3871
剧烈	-3872
国王	-3873
处在	-3874
婴儿	-3875
海湾	-3876
盟国	-3877
等等	-3878
缩小	-3879
缺口	-3880
西岸	-3881
让步	-3882
▁确实	-3883
实现的	-3884
已经被	-3885
德国和	-3886
角度看	-3887
和西班牙	-3888
政府债券	-3889
的基础上	-3890
ak	-3891
ne	-3892
▁平	-3893
▁那	-3894
侵略	-3895
反弹	-3896
深化	-3897
游行	-3898
老龄	-3899
伴随着	-3900
包容性	-3901
所面临	-3902
是如何	-3903
的企业	-3904
的担忧	-3905
的立场	-3906
成为一个	-3907
流离失所	-3908
自由主义	-3909
▁在这样的	-3910
卡扎	-3911
哈佛	-3912
对立	-3913
庞大	-3914
所赐	-3915
无能	-3916
毕业	-3917
源自	-3918
满意	-3919
漏洞	-3920
而论	-3921
课程	-3922
走上	-3923
较低	-3924
这笔	-3925
面积	-3926
韦斯	-3927
▁一旦	-3928
他们对	-3929
明显的	-3930
这一切	-3931
在这方面	-3932
迄今为止	-3933
7%	-3934
以外	-3935
博拉	-3936
原子	-3937
和高	-3938
妨碍	-3939
沮丧	-3940
达尔	-3941
连任	-3942
食物	-3943
分之二	-3944
将导致	-3945
我们在	-3946
每个人	-3947
的总统	-3948
能够在	-3949
2017	-3950
代理	-3951
华尔	-3952
地震	-3953
大胆	-3954
将来	-3955
年初	-3956
律师	-3957
日子	-3958
维奇	-3959
▁在此	-3960
减少了	-3961
卡扎菲	-3962
接受的	-3963
最好的	-3964
极大地	-3965
法塔赫	-3966
的一次	-3967
在政治上	-3968
就业岗位	-3969
23	-3970
ge	-3971
下一	-3972
之道	-3973
反复	-3974
四个	-3975
建造	-3976
落实	-3977
识别	-3978
运输	-3979
间接	-3980
难度	-3981
中国人	-3982
伟大的	-3983
再加上	-3984
十年来	-3985
华尔街	-3986
反映出	-3987
可以让	-3988
埃博拉	-3989
没有人	-3990
的一半	-3991
任何时候	-3992
可持续性	-3993
丑闻	-3994
世贸	-3995
借助	-3996
做了	-3997
就要	-3998
中获益	-3999
即使是	-4000
索马里	-4001
结果是	-4002
不太可能	-4003
的问题上	-4004
温室气体排放	-4005
4%	-4006
争端	-4007
公决	-4008
北方	-4009
发言	-4010
同情	-4011
均衡	-4012
太大	-4013
局限	-4014
强迫	-4015
死于	-4016
海军	-4017
西斯	-4018
跨境	-4019
金钱	-4020
出现的	-4021
天主教	-4022
查韦斯	-4023
转变为	-4024
▁IMF	-4025
▁叙利亚	-4026
三分之二	-4027
上限	-4028
之急	-4029
以南	-4030
寿命	-4031
意图	-4032
赞成	-4033
起义	-4034
195	-4035
▁甚至	-4036
前总统	-4037
就不会	-4038
支出的	-4039
软实力	-4040
这一观点	-4041
6.	-4042
他对	-4043
反恐	-4044
将让	-4045
授予	-4046
掌权	-4047
沟通	-4048
生育	-4049
的主	-4050
竭尽	-4051
议题	-4052
软件	-4053
ert	-4054
但他们	-4055
和发展	-4056
和技术	-4057
以色列和	-4058
其中包括	-4059
毫不奇怪	-4060
糟糕的是	-4061
解决办法	-4062
问题上的	-4063
▁另一方面	-4064
穆斯林兄弟	-4065
你的	-4066
哪怕	-4067
因而	-4068
巴尔	-4069
并为	-4070
提名	-4071
撤军	-4072
朗德	-4073
预料	-4074
50%	-4075
公共卫生	-4076
低碳	-4077
党的	-4078
内阁	-4079
务实	-4080
和新	-4081
它在	-4082
撒冷	-4083
清算	-4084
艰巨	-4085
东南亚	-4086
几年中	-4087
到来的	-4088
务之急	-4089
可以从	-4090
政治和	-4091
是通过	-4092
根本上	-4093
环境下	-4094
路撒冷	-4095
▁大部分	-4096
的支持者	-4097
▁由	-4098
一天	-4099
不容	-4100
他人	-4101
何时	-4102
保健	-4103
很高	-4104
成长	-4105
提案	-4106
自杀	-4107
迈向	-4108
长久	-4109
ate	-4110
不知道	-4111
众议院	-4112
地位的	-4113
实施的	-4114
引发的	-4115
撒哈拉	-4116
的必要	-4117
的选举	-4118
高收入	-4119
个百分点	-4120
耶路撒冷	-4121
西方国家	-4122
美国总统奥巴马	-4123
充斥	-4124
北美	-4125
哪个	-4126
按揭	-4127
早就	-4128
核能	-4129
父母	-4130
狂热	-4131
狭隘	-4132
理应	-4133
40%	-4134
▁埃及	-4135
▁或许	-4136
▁由此	-4137
亚洲的	-4138
会带来	-4139
历史的	-4140
在国内	-4141
希拉里	-4142
批评者	-4143
有什么	-4144
比以往	-4145
的共同	-4146
非洲国家	-4147
实现这一目标	-4148
免疫	-4149
几周	-4150
培养	-4151
将被	-4152
年内	-4153
抵御	-4154
烟草	-4155
特的	-4156
疗法	-4157
种植	-4158
设定	-4159
页岩	-4160
飞机	-4161
首都	-4162
-20	-4163
今年的	-4164
即使在	-4165
和国家	-4166
国集团	-4167
奥朗德	-4168
年代末	-4169
心而论	-4170
民众的	-4171
的合作	-4172
的实际	-4173
短期内	-4174
程度的	-4175
绝大部分	-4176
IP	-4177
▁阿	-4178
会被	-4179
创建	-4180
区分	-4181
却在	-4182
发出	-4183
发射	-4184
将对	-4185
收缩	-4186
时任	-4187
自愿	-4188
▁至于	-4189
其中的	-4190
很好的	-4191
意义上	-4192
收益率	-4193
最贫困	-4194
运动的	-4195
军事行动	-4196
▁我们需要	-4197
ni	-4198
一道	-4199
中小	-4200
之以	-4201
公路	-4202
已有	-4203
废除	-4204
征收	-4205
数千	-4206
有望	-4207
特勒	-4208
环保	-4209
辛格	-4210
霸权	-4211
下一个	-4212
和就业	-4213
在世界	-4214
工人的	-4215
根本性	-4216
通胀率	-4217
都应该	-4218
和平进程	-4219
伊拉克战争	-4220
阿拉伯之春	-4221
自由贸易协定	-4222
EC	-4223
不及	-4224
伦理	-4225
吉尔	-4226
哈尼	-4227
地的	-4228
奥运	-4229
就越	-4230
强国	-4231
教旨	-4232
数百	-4233
民间	-4234
目光	-4235
耐药	-4236
误导	-4237
▁不仅	-4238
民主和	-4239
现在的	-4240
著名的	-4241
西方的	-4242
1979	-4243
公共债务	-4244
提供资金	-4245
财政刺激	-4246
达成一致	-4247
民粹主义者	-4248
26	-4249
▁两	-4250
前往	-4251
前提	-4252
地利	-4253
堪称	-4254
广告	-4255
旅游	-4256
无数	-4257
既然	-4258
最多	-4259
消耗	-4260
源于	-4261
的有	-4262
维尔	-4263
谷歌	-4264
严格的	-4265
人民的	-4266
似乎是	-4267
再平衡	-4268
有机会	-4269
破坏性	-4270
第一步	-4271
解释了	-4272
一体化的	-4273
也就是说	-4274
危机爆发	-4275
极有可能	-4276
年金融危机	-4277
修订	-4278
卡塔	-4279
双重	-4280
反抗	-4281
左派	-4282
幻想	-4283
弥补	-4284
忘记	-4285
抨击	-4286
收集	-4287
文件	-4288
毛泽	-4289
适用	-4290
遗产	-4291
▁或者	-4292
原教旨	-4293
可以为	-4294
奥地利	-4295
成为了	-4296
技术和	-4297
政治的	-4298
毛泽东	-4299
的巨大	-4300
董事会	-4301
退休金	-4302
银行和	-4303
1997	-4304
欧元区的	-4305
nd	-4306
不出	-4307
不变	-4308
也被	-4309
动态	-4310
南海	-4311
同性	-4312
它将	-4313
尊严	-4314
弗里	-4315
恶性	-4316
手机	-4317
未必	-4318
法规	-4319
财产	-4320
贾德	-4321
进化	-4322
长远	-4323
飙升	-4324
高速	-4325
不久前	-4326
保守党	-4327
北朝鲜	-4328
受欢迎	-4329
存在于	-4330
我们所	-4331
指出的	-4332
接受了	-4333
灾难性	-4334
独裁者	-4335
的时代	-4336
碳排放	-4337
自由和	-4338
让美国	-4339
阿尔及	-4340
一些国家	-4341
世界大战	-4342
22	-4343
ep	-4344
ub	-4345
免受	-4346
别无	-4347
大力	-4348
始于	-4349
归咎	-4350
抱怨	-4351
穷国	-4352
高企	-4353
以及对	-4354
伊朗和	-4355
教育的	-4356
有关的	-4357
有必要	-4358
深层次	-4359
现实的	-4360
类似于	-4361
▁但如今	-4362
库尔德人	-4363
当务之急	-4364
奥巴马政府	-4365
可持续发展目标	-4366
人所	-4367
偏好	-4368
埃塞	-4369
有过	-4370
灭绝	-4371
细节	-4372
议定	-4373
面的	-4374
400	-4375
企业和	-4376
俄比亚	-4377
定居点	-4378
就无法	-4379
并因此	-4380
应该在	-4381
欧洲和	-4382
的信心	-4383
起到了	-4384
生活水平	-4385
竞争对手	-4386
金融部门	-4387
▁平心而论	-4388
其他国家的	-4389
埃塞俄比亚	-4390
pe	-4391
仔细	-4392
周年	-4393
和不	-4394
宣扬	-4395
崩盘	-4396
征税	-4397
得出	-4398
成年	-4399
扩展	-4400
瘫痪	-4401
网站	-4402
谈论	-4403
身为	-4404
转而	-4405
逮捕	-4406
雇员	-4407
令人惊	-4408
共同的	-4409
希特勒	-4410
观察家	-4411
谈判的	-4412
只不过是	-4413
四分之一	-4414
富裕国家	-4415
影响力的	-4416
这种情况	-4417
发达国家的	-4418
倡议	-4419
兰克	-4420
十九	-4421
厌恶	-4422
坚决	-4423
急需	-4424
总量	-4425
愚蠢	-4426
提到	-4427
无限	-4428
星期	-4429
根深	-4430
浓缩	-4431
激发	-4432
焦虑	-4433
父亲	-4434
犹豫	-4435
路径	-4436
轻易	-4437
这里	-4438
远比	-4439
30%	-4440
力量的	-4441
的国内	-4442
结束了	-4443
早些时候	-4444
▁这是一个	-4445
万亿	-4446
但他	-4447
克利	-4448
势头	-4449
各大	-4450
名字	-4451
所为	-4452
探讨	-4453
更低	-4454
诸如	-4455
邀请	-4456
ist	-4457
之一是	-4458
内贾德	-4459
归咎于	-4460
政策和	-4461
清楚地	-4462
现有的	-4463
秘书长	-4464
积极的	-4465
议定书	-4466
一段时间	-4467
公民社会	-4468
法国总统	-4469
li	-4470
专门	-4471
中最	-4472
传递	-4473
名为	-4474
姆斯	-4475
差别	-4476
指挥	-4477
数以	-4478
过了	-4479
遥远	-4480
高管	-4481
▁这场	-4482
但它们	-4483
的程度	-4484
继任者	-4485
鲁哈尼	-4486
▁在这个	-4487
亚洲国家	-4488
取得成功	-4489
大规模的	-4490
自由市场	-4491
▁我们必须	-4492
非政府组织	-4493
穆斯林兄弟会	-4494
28	-4495
7.	-4496
IC	-4497
先例	-4498
只占	-4499
围绕	-4500
在不	-4501
收紧	-4502
更少	-4503
海啸	-4504
股权	-4505
论文	-4506
150	-4507
▁St	-4508
在这一	-4509
普林斯	-4510
伊拉克和	-4511
恰恰相反	-4512
知识产权	-4513
▁正	-4514
制衡	-4515
压迫	-4516
子女	-4517
德斯	-4518
收支	-4519
效仿	-4520
案件	-4521
沉默	-4522
着眼	-4523
自治	-4524
蒂固	-4525
遵循	-4526
邪恶	-4527
采购	-4528
重振	-4529
铁路	-4530
▁in	-4531
▁布什	-4532
上个月	-4533
了一项	-4534
变得更	-4535
收入和	-4536
的谈判	-4537
而这些	-4538
发展目标	-4539
普林斯顿	-4540
av	-4541
上台	-4542
临床	-4543
为首	-4544
呈现	-4545
学会	-4546
巨头	-4547
当年	-4548
民调	-4549
详细	-4550
▁国家	-4551
健康的	-4552
克斯坦	-4553
创新的	-4554
单方面	-4555
在最近	-4556
沙拉夫	-4557
的冲突	-4558
的德国	-4559
的报告	-4560
的税收	-4561
的胜利	-4562
增长模式	-4563
根深蒂固	-4564
知识分子	-4565
解决问题	-4566
商品和服务	-4567
阿尔及利亚	-4568
29	-4569
ah	-4570
分布	-4571
地下	-4572
埔寨	-4573
太过	-4574
带着	-4575
梅内	-4576
浪潮	-4577
能量	-4578
那时	-4579
默德	-4580
uro	-4581
▁接着	-4582
▁有人	-4583
二十一	-4584
却没有	-4585
在今年	-4586
新一轮	-4587
柬埔寨	-4588
理论上	-4589
波斯尼亚	-4590
生态系统	-4591
相比之下	-4592
研究表明	-4593
穆沙拉夫	-4594
资本市场	-4595
这一事实	-4596
5.	-4597
uc	-4598
▁用	-4599
修复	-4600
分化	-4601
动用	-4602
大家	-4603
它是	-4604
干扰	-4605
性地	-4606
意志	-4607
意的	-4608
收购	-4609
本来	-4610
极权	-4611
树立	-4612
的事	-4613
诉讼	-4614
赢家	-4615
预言	-4616
aul	-4617
▁关于	-4618
安全和	-4619
对经济	-4620
很简单	-4621
斯科尼	-4622
标志着	-4623
的数量	-4624
的真正	-4625
尤其是在	-4626
工作岗位	-4627
跨大西洋	-4628
全球经济的	-4629
货币政策的	-4630
一边	-4631
也要	-4632
亦然	-4633
入了	-4634
出人	-4635
击败	-4636
卡尔	-4637
受过	-4638
小心	-4639
忠诚	-4640
房屋	-4641
救援	-4642
棘手	-4643
此后	-4644
玻利	-4645
管道	-4646
纯粹	-4647
结盟	-4648
诞生	-4649
下来的	-4650
以上的	-4651
供应链	-4652
充斥着	-4653
公司和	-4654
再分配	-4655
很重要	-4656
的传统	-4657
的信号	-4658
的外交	-4659
的概念	-4660
而言之	-4661
2050	-4662
孟加拉国	-4663
所产生的	-4664
金砖国家	-4665
英格兰银行	-4666
克鲁	-4667
加利	-4668
加深	-4669
商界	-4670
效的	-4671
晋三	-4672
眼下	-4673
破裂	-4674
缺失	-4675
设置	-4676
▁政治	-4677
和伊朗	-4678
哈梅内	-4679
多年的	-4680
本世纪	-4681
的一大	-4682
的下降	-4683
的城市	-4684
的机构	-4685
罕默德	-4686
联盟的	-4687
该国的	-4688
该计划	-4689
其他地方	-4690
最高法院	-4691
核不扩散	-4692
▁2010	-4693
亚太	-4694
充当	-4695
天气	-4696
捐助	-4697
接种	-4698
无视	-4699
杀害	-4700
死刑	-4701
涌入	-4702
缩减	-4703
英雄	-4704
辩护	-4705
在这些	-4706
峰会上	-4707
新技术	-4708
来实现	-4709
的办法	-4710
私有化	-4711
稳定和	-4712
货币的	-4713
安倍晋三	-4714
快速增长	-4715
欧盟国家	-4716
民主制度	-4717
社交媒体	-4718
▁Part	-4719
即将到来的	-4720
美国和欧洲	-4721
不大	-4722
东部	-4723
中亚	-4724
体育	-4725
减免	-4726
判决	-4727
含义	-4728
掌控	-4729
果真	-4730
的无	-4731
的海	-4732
顽固	-4733
con	-4734
ook	-4735
▁de	-4736
一些人	-4737
去杠杆	-4738
罗伯特	-4739
罗姆尼	-4740
更有可能	-4741
根本没有	-4742
竭尽全力	-4743
变得越来越	-4744
od	-4745
不顾	-4746
会使	-4747
写道	-4748
创立	-4749
力和	-4750
好事	-4751
指望	-4752
教师	-4753
渐进	-4754
炸弹	-4755
熟悉	-4756
竞赛	-4757
而对	-4758
走出	-4759
▁当前	-4760
储蓄率	-4761
卡塔尔	-4762
和教育	-4763
的暴力	-4764
的资产	-4765
▁从这个	-4766
经常账户	-4767
ff	-4768
ia	-4769
优惠	-4770
信服	-4771
同盟	-4772
富国	-4773
平价	-4774
提前	-4775
的年	-4776
缓冲	-4777
迎来	-4778
驱逐	-4779
▁而这	-4780
也许会	-4781
伯克利	-4782
国际法	-4783
年代初	-4784
的关注	-4785
看到了	-4786
都不会	-4787
非正式	-4788
▁这也是	-4789
世界贸易	-4790
全民公决	-4791
的俄罗斯	-4792
经济危机	-4793
撒哈拉以南	-4794
,《	-4795
ot	-4796
不堪	-4797
准则	-4798
在了	-4799
就连	-4800
待遇	-4801
戈尔	-4802
摩洛	-4803
斯蒂	-4804
有害	-4805
特权	-4806
考察	-4807
使用的	-4808
失败的	-4809
无人机	-4810
的形式	-4811
的状况	-4812
美国对	-4813
银行业	-4814
1999	-4815
▁在这一	-4816
不断增加	-4817
雄心勃勃	-4818
▁无论如何	-4819
石油和天然气	-4820
6%	-4821
▁l	-4822
不起	-4823
偏见	-4824
凝聚	-4825
北非	-4826
反思	-4827
就有	-4828
年将	-4829
形容	-4830
很好	-4831
揭示	-4832
是以	-4833
贝卢	-4834
连接	-4835
部落	-4836
重申	-4837
预见	-4838
飓风	-4839
万美元	-4840
会发生	-4841
或其他	-4842
所得税	-4843
死亡率	-4844
比其他	-4845
的经验	-4846
的讨论	-4847
的趋势	-4848
选择了	-4849
充分就业	-4850
告诉我们	-4851
金融系统	-4852
银行系统	-4853
国内生产总值	-4854
两党	-4855
乐部	-4856
低下	-4857
减弱	-4858
可见	-4859
失灵	-4860
干旱	-4861
年里	-4862
折磨	-4863
比利	-4864
生涯	-4865
的那	-4866
航空	-4867
萎缩	-4868
衍生	-4869
颇为	-4870
Mar	-4871
est	-4872
▁Ch	-4873
什么样	-4874
俱乐部	-4875
充满了	-4876
增加到	-4877
时间的	-4878
本质上	-4879
的前提	-4880
繁荣的	-4881
世界各国	-4882
合作伙伴	-4883
西班牙和	-4884
贸易协定	-4885
气候变化的	-4886
贝卢斯科尼	-4887
之势	-4888
便宜	-4889
加州	-4890
古老	-4891
常态	-4892
扼杀	-4893
极度	-4894
比赛	-4895
激增	-4896
灾害	-4897
看待	-4898
看看	-4899
祖国	-4900
行事	-4901
还不	-4902
远离	-4903
低成本	-4904
包括了	-4905
在没有	-4906
年开始	-4907
摩洛哥	-4908
是否能	-4909
法国的	-4910
的一份	-4911
的危机	-4912
的规模	-4913
▁意大利	-4914
令人震惊	-4915
所作所为	-4916
▁更糟糕的是	-4917
不前	-4918
会让	-4919
力度	-4920
勇气	-4921
如同	-4922
定期	-4923
尔斯	-4924
所需	-4925
挣扎	-4926
比尔	-4927
认知	-4928
逃离	-4929
通往	-4930
限度	-4931
60%	-4932
70%	-4933
▁按照	-4934
其经济	-4935
可靠的	-4936
它们在	-4937
尼克松	-4938
撒切尔	-4939
机构和	-4940
的独立	-4941
都不是	-4942
强有力的	-4943
新兴国家	-4944
根本无法	-4945
竞争力的	-4946
贸易伙伴	-4947
▁最重要的是	-4948
);	-4949
CE	-4950
享有	-4951
便利	-4952
全体	-4953
典型	-4954
否定	-4955
威慑	-4956
对付	-4957
政坛	-4958
有多	-4959
第五	-4960
而又	-4961
舆论	-4962
超出	-4963
▁并且	-4964
代表了	-4965
全球性	-4966
大幅度	-4967
应该被	-4968
忽略了	-4969
无论是	-4970
的任何	-4971
的印度	-4972
的标准	-4973
的策略	-4974
的过程	-4975
老龄化	-4976
1998	-4977
▁大多数	-4978
哈梅内伊	-4979
如果没有	-4980
市场经济	-4981
平均水平	-4982
所有国家	-4983
欧洲经济	-4984
联合国的	-4985
▁b	-4986
为时	-4987
买入	-4988
倒台	-4989
大肆	-4990
对比	-4991
推高	-4992
攀升	-4993
敌对	-4994
教皇	-4995
症状	-4996
职责	-4997
解读	-4998
辞职	-4999
——“	-5000
▁亚洲	-5001
不那么	-5002
劳动者	-5003
可以用	-5004
对他们	-5005
就已经	-5006
就没有	-5007
的其他	-5008
的需要	-5009
结束后	-5010
结核病	-5011
角度讲	-5012
tern	-5013
▁乌克兰	-5014
人民银行	-5015
灾难性的	-5016
美国国会	-5017
营养不良	-5018
QE	-5019
不知	-5020
交给	-5021
京都	-5022
仅有	-5023
他所	-5024
作家	-5025
兰卡	-5026
南克	-5027
周围	-5028
回合	-5029
小国	-5030
小平	-5031
展现	-5032
排斥	-5033
支配	-5034
杀戮	-5035
秘鲁	-5036
米亚	-5037
精力	-5038
组建	-5039
自信	-5040
虐待	-5041
高等	-5042
90%	-5043
▁对此	-5044
以及在	-5045
但我们	-5046
小布什	-5047
得多的	-5048
日本和	-5049
活力的	-5050
稳定性	-5051
追随者	-5052
邓小平	-5053
那样的	-5054
奥巴马的	-5055
石油公司	-5056
联邦政府	-5057
经常项目赤字	-5058
In	-5059
▁每	-5060
不住	-5061
人工	-5062
促成	-5063
停火	-5064
博弈	-5065
布尔	-5066
布里	-5067
强加	-5068
归根	-5069
报复	-5070
拖延	-5071
旅行	-5072
有益	-5073
沃斯	-5074
目睹	-5075
设法	-5076
难道	-5077
与伊朗	-5078
个世纪	-5079
印度和	-5080
国内的	-5081
布雷顿	-5082
是欧洲	-5083
的家庭	-5084
的建议	-5085
金融业	-5086
随之而	-5087
全球贸易	-5088
叙利亚的	-5089
并非如此	-5090
很可能会	-5091
是正确的	-5092
极端分子	-5093
欧元区国家	-5094
AR	-5095
st	-5096
▁的	-5097
会上	-5098
信念	-5099
修建	-5100
再度	-5101
出色	-5102
到达	-5103
协会	-5104
卢旺	-5105
广场	-5106
成分	-5107
接收	-5108
改造	-5109
放任	-5110
斯里	-5111
有权	-5112
欺骗	-5113
流失	-5114
特点	-5115
着手	-5116
种子	-5117
迫害	-5118
附加	-5119
风格	-5120
ohn	-5121
▁但它	-5122
▁很多	-5123
不公平	-5124
些什么	-5125
加利福	-5126
合作的	-5127
政府将	-5128
的资源	-5129
的进步	-5130
进入了	-5131
世贸组织	-5132
令人担忧	-5133
央行行长	-5134
二十一世纪	-5135
加利福尼亚	-5136
”)	-5137
不对	-5138
不惜	-5139
之内	-5140
优秀	-5141
对象	-5142
建国	-5143
意思	-5144
探索	-5145
明证	-5146
更广	-5147
有点	-5148
来到	-5149
架构	-5150
核武	-5151
理事	-5152
运营	-5153
这两	-5154
80%	-5155
ell	-5156
ine	-5157
▁直到	-5158
卢旺达	-5159
在英国	-5160
并且在	-5161
引人注	-5162
是中国	-5163
欧元的	-5164
此之外	-5165
的争论	-5166
的控制	-5167
自由派	-5168
萨科齐	-5169
让它们	-5170
马克龙	-5171
▁但他们	-5172
世界上最	-5173
总统大选	-5174
抵押贷款	-5175
财富基金	-5176
gt	-5177
ry	-5178
伴随	-5179
关联	-5180
兴起	-5181
在与	-5182
大气	-5183
子孙	-5184
它所	-5185
提及	-5186
支柱	-5187
日内	-5188
本位	-5189
本土	-5190
经理	-5191
老年	-5192
芬兰	-5193
诚实	-5194
选战	-5195
价格的	-5196
可怕的	-5197
同性恋	-5198
多样化	-5199
对这些	-5200
市场上	-5201
是可以	-5202
法国人	-5203
法西斯	-5204
潜在的	-5205
▁第二个	-5206
从根本上	-5207
令人信服	-5208
做好准备	-5209
我们已经	-5210
斯里兰卡	-5211
直接投资	-5212
财政紧缩	-5213
的货币政策	-5214
▁若	-5215
一无	-5216
不振	-5217
他将	-5218
南方	-5219
大脑	-5220
将使	-5221
引用	-5222
当作	-5223
态势	-5224
指引	-5225
教徒	-5226
精确	-5227
置于	-5228
苦难	-5229
许可	-5230
轰炸	-5231
过多	-5232
▁中东	-5233
▁否则	-5234
▁新的	-5235
一方面	-5236
不相同	-5237
中获得	-5238
反对者	-5239
就业和	-5240
就开始	-5241
局限于	-5242
工作者	-5243
巴尔干	-5244
德国人	-5245
我认为	-5246
暴力的	-5247
服务的	-5248
正常化	-5249
的制度	-5250
的资本	-5251
▁结果是	-5252
一个新的	-5253
中等收入	-5254
欧洲大陆	-5255
欧洲议会	-5256
玻利维亚	-5257
▁经济学家	-5258
布雷顿森林	-5259
CA	-5260
一方	-5261
三年	-5262
产物	-5263
免于	-5264
卜杜	-5265
占了	-5266
叛军	-5267
寻常	-5268
布拉	-5269
开采	-5270
当代	-5271
打造	-5272
敌意	-5273
模仿	-5274
正统	-5275
白人	-5276
触发	-5277
转换	-5278
近乎	-5279
采纳	-5280
鲜明	-5281
The	-5282
ber	-5283
▁on	-5284
也已经	-5285
充分的	-5286
其自身	-5287
奥运会	-5288
并最终	-5289
排除在	-5290
是一场	-5291
最新的	-5292
极右翼	-5293
疾病的	-5294
非洲的	-5295
aceb	-5296
投资者的	-5297
跨太平洋	-5298
不可避免地	-5299
奥巴马总统	-5300
领导人必须	-5301
acebook	-5302
--	-5303
ew	-5304
lt	-5305
▁反	-5306
上海	-5307
也更	-5308
代替	-5309
作战	-5310
卫星	-5311
友好	-5312
大有	-5313
影子	-5314
德尔	-5315
心脏	-5316
成绩	-5317
打算	-5318
描绘	-5319
数的	-5320
给出	-5321
轻松	-5322
过的	-5323
通信	-5324
配额	-5325
omm	-5326
▁某些	-5327
二十年	-5328
产品的	-5329
准备好	-5330
危机前	-5331
在去年	-5332
在某些	-5333
实力的	-5334
已不再	-5335
生产商	-5336
的因素	-5337
统一的	-5338
英国和	-5339
金正恩	-5340
出人意料	-5341
这一趋势	-5342
生产率增长	-5343
▁到目前为止	-5344
II	-5345
ud	-5346
三倍	-5347
冻结	-5348
呼声	-5349
塑料	-5350
宪章	-5351
异常	-5352
恰当	-5353
打开	-5354
族裔	-5355
显现	-5356
杂志	-5357
正好	-5358
福祉	-5359
等于	-5360
能为	-5361
行使	-5362
计价	-5363
转折	-5364
这条	-5365
追溯	-5366
重复	-5367
附近	-5368
随时	-5369
▁面对	-5370
与欧洲	-5371
了一份	-5372
周期性	-5373
外国人	-5374
电视台	-5375
的严重	-5376
而美国	-5377
行动方	-5378
▁在这种	-5379
的方式来	-5380
贸易赤字	-5381
超级大国	-5382
ip	-5383
▁说	-5384
哲学	-5385
大了	-5386
恶劣	-5387
或缺	-5388
抑郁	-5389
挂钩	-5390
捷克	-5391
数学	-5392
曾在	-5393
派的	-5394
爱国	-5395
种种	-5396
身处	-5397
过分	-5398
雇佣	-5399
黑暗	-5400
DNA	-5401
▁巴西	-5402
▁必须	-5403
也开始	-5404
他们将	-5405
依然是	-5406
对全球	-5407
工程师	-5408
日内瓦	-5409
最高的	-5410
欧盟和	-5411
没什么	-5412
深刻的	-5413
的使用	-5414
的局面	-5415
的最高	-5416
的比例	-5417
的规则	-5418
需求的	-5419
需要在	-5420
项目的	-5421
1970	-5422
Paul	-5423
▁但这种	-5424
不可或缺	-5425
也有可能	-5426
以色列人	-5427
商业银行	-5428
的一系列	-5429
穆罕默德	-5430
经济活动	-5431
诺贝尔奖	-5432
9%	-5433
ik	-5434
se	-5435
主持	-5436
以使	-5437
公债	-5438
单边	-5439
地将	-5440
奇迹	-5441
宝贵	-5442
尤为	-5443
已是	-5444
突出	-5445
肥胖	-5446
节约	-5447
遇到	-5448
重启	-5449
面向	-5450
▁金融	-5451
二战后	-5452
内部的	-5453
可以被	-5454
史以来	-5455
和他的	-5456
和文化	-5457
在许多	-5458
增长了	-5459
密集型	-5460
必不可	-5461
政府对	-5462
有理由	-5463
英国人	-5464
1000	-5465
1991	-5466
1995	-5467
土耳其的	-5468
并不一定	-5469
之间的关系	-5470
这些国家的	-5471
Ch	-5472
▁a	-5473
以致	-5474
会给	-5475
元素	-5476
卫队	-5477
听到	-5478
德曼	-5479
成千	-5480
无从	-5481
本应	-5482
温度	-5483
自主	-5484
谎言	-5485
边际	-5486
雷曼	-5487
高出	-5488
,20	-5489
▁柏林	-5490
任总统	-5491
伯南克	-5492
出口国	-5493
助长了	-5494
小部分	-5495
就应该	-5496
引起的	-5497
归根结	-5498
新政府	-5499
注意到	-5500
环境中	-5501
相结合	-5502
等国家	-5503
罗斯福	-5504
莫过于	-5505
乌克兰的	-5506
克里米亚	-5507
共和党人	-5508
在阿富汗	-5509
民族国家	-5510
罗马尼亚	-5511
长期利率	-5512
▁更重要的是	-5513
2,	-5514
8.	-5515
▁0	-5516
一词	-5517
临近	-5518
之地	-5519
名单	-5520
增税	-5521
失误	-5522
宗派	-5523
港口	-5524
的中	-5525
的低	-5526
补助	-5527
软弱	-5528
这让	-5529
为自己	-5530
但如果	-5531
共同体	-5532
占据了	-5533
和企业	-5534
外交官	-5535
痛苦的	-5536
的移民	-5537
的竞争	-5538
的组织	-5539
表明了	-5540
购买力	-5541
还包括	-5542
evel	-5543
▁在欧洲	-5544
别无选择	-5545
化学武器	-5546
年增长率	-5547
归根结底	-5548
民意调查	-5549
经济政策	-5550
▁V	-5551
▁m	-5552
▁再	-5553
作者	-5554
你们	-5555
农场	-5556
切地	-5557
剩余	-5558
命令	-5559
地图	-5560
岁的	-5561
巴布	-5562
年和	-5563
总结	-5564
推出	-5565
政体	-5566
更能	-5567
此外	-5568
注册	-5569
类型	-5570
绑架	-5571
股价	-5572
荒谬	-5573
雇用	-5574
两国的	-5575
会出现	-5576
决不能	-5577
年前的	-5578
成千上	-5579
显然是	-5580
格林斯	-5581
的一致	-5582
的希望	-5583
的目的	-5584
而不能	-5585
达沃斯	-5586
里斯本	-5587
阻碍了	-5588
领导力	-5589
任何一个	-5590
私人投资	-5591
紧张局势	-5592
▁2012	-5593
▁相比之下	-5594
不可避免的	-5595
中国和印度	-5596
提供了一个	-5597
Al	-5598
up	-5599
件事	-5600
住宅	-5601
各州	-5602
基准	-5603
多哈	-5604
奥尔	-5605
抱有	-5606
无辜	-5607
最小	-5608
格曼	-5609
民选	-5610
海岸	-5611
生效	-5612
留下	-5613
盖茨	-5614
较为	-5615
遗憾	-5616
野蛮	-5617
600	-5618
▁事实	-5619
会产生	-5620
会造成	-5621
只需要	-5622
和政策	-5623
大银行	-5624
对那些	-5625
已开始	-5626
德拉吉	-5627
的新闻	-5628
的第一	-5629
资本流	-5630
ence	-5631
▁欧洲的	-5632
全世界的	-5633
军事干预	-5634
发展援助	-5635
各成员国	-5636
很快就会	-5637
总统选举	-5638
格林斯潘	-5639
采取措施	-5640
▁2011	-5641
▁2015	-5642
美联储主席	-5643
撒哈拉以南非洲	-5644
一路	-5645
举办	-5646
之不	-5647
内在	-5648
几天	-5649
出席	-5650
匹配	-5651
原油	-5652
土壤	-5653
家园	-5654
对方	-5655
强力	-5656
成百	-5657
挑衅	-5658
最具	-5659
步伐	-5660
短暂	-5661
经典	-5662
这也	-5663
通讯	-5664
5%。	-5665
ati	-5666
▁这将	-5667
公众对	-5668
又一次	-5669
和债务	-5670
和公共	-5671
在中东	-5672
政治上	-5673
更广泛	-5674
的信任	-5675
的时期	-5676
的民众	-5677
的部分	-5678
马克思	-5679
国际贸易	-5680
经济衰退	-5681
言论自由	-5682
资本流入	-5683
这些措施	-5684
▁不仅如此	-5685
总统奥巴马	-5686
的经济发展	-5687
千年发展目标	-5688
仍将	-5689
受损	-5690
四年	-5691
声誉	-5692
寡头	-5693
彼得	-5694
恐怕	-5695
所周	-5696
指向	-5697
界限	-5698
行列	-5699
解除	-5700
谋杀	-5701
过早	-5702
逃避	-5703
魅力	-5704
iti	-5705
son	-5706
▁就像	-5707
中国对	-5708
令人瞩	-5709
伊朗核	-5710
决定了	-5711
反对党	-5712
和监管	-5713
持有的	-5714
的贷款	-5715
的预测	-5716
着眼于	-5717
第三个	-5718
衍生品	-5719
金本位	-5720
高质量	-5721
不可能的	-5722
双边关系	-5723
国防部长	-5724
德国总理	-5725
政府债务	-5726
无法获得	-5727
的过程中	-5728
社会主义	-5729
通胀目标	-5730
▁2009	-5731
▁世界银行	-5732
侵蚀	-5733
及时	-5734
收回	-5735
每一	-5736
洪水	-5737
混合	-5738
燃烧	-5739
筹集	-5740
累积	-5741
自从	-5742
虚假	-5743
lob	-5744
▁to	-5745
▁其实	-5746
俄国的	-5747
在亚洲	-5748
基础上	-5749
多元化	-5750
日本人	-5751
根本不	-5752
比利时	-5753
的决策	-5754
的创新	-5755
的大量	-5756
的教育	-5757
近年来	-5758
这就是	-5759
都认为	-5760
#45;	-5761
单一市场	-5762
历史学家	-5763
提高利率	-5764
政府支出	-5765
甚至可能	-5766
▁2014	-5767
低收入国家	-5768
俄罗斯总统	-5769
外交政策的	-5770
进一步恶化	-5771
aw	-5772
”、	-5773
▁坎	-5774
▁被	-5775
主题	-5776
公私	-5777
勇敢	-5778
协商	-5779
卷土	-5780
后续	-5781
家们	-5782
对策	-5783
很低	-5784
忍受	-5785
房产	-5786
权衡	-5787
氛围	-5788
疯狂	-5789
稳步	-5790
约为	-5791
若干	-5792
苹果	-5793
论者	-5794
阿布	-5795
顺差	-5796
▁具体	-5797
▁各国	-5798
下一次	-5799
不断地	-5800
也存在	-5801
众所周	-5802
其实是	-5803
几年前	-5804
卷土重	-5805
和宗教	-5806
和平与	-5807
和长期	-5808
成百上	-5809
提高到	-5810
来解决	-5811
灵活性	-5812
的人均	-5813
的道路	-5814
的错误	-5815
精神病	-5816
革命的	-5817
俄罗斯和	-5818
医疗保险	-5819
十九世纪	-5820
在伊拉克	-5821
好消息是	-5822
委员会的	-5823
总体而言	-5824
欧洲领导人	-5825
▁U	-5826
主动	-5827
像是	-5828
在他	-5829
塑造	-5830
增速	-5831
已久	-5832
年在	-5833
得益	-5834
易事	-5835
期限	-5836
气温	-5837
注重	-5838
测量	-5839
清洗	-5840
稀缺	-5841
紧要	-5842
范畴	-5843
西藏	-5844
阴谋	-5845
阿里	-5846
高层	-5847
了大量	-5848
变化的	-5849
女性的	-5850
承诺的	-5851
支持率	-5852
文化的	-5853
时期的	-5854
最近在	-5855
有一些	-5856
有一天	-5857
的商业	-5858
的手段	-5859
的斗争	-5860
的选民	-5861
通常是	-5862
九十年代	-5863
克鲁格曼	-5864
加入欧盟	-5865
子孙后代	-5866
所提出的	-5867
替代方案	-5868
现在已经	-5869
社会保障	-5870
英国退欧	-5871
货币贬值	-5872
的经济学家	-5873
不想	-5874
与之	-5875
之争	-5876
之比	-5877
他说	-5878
代人	-5879
会晤	-5880
储量	-5881
初级	-5882
前途	-5883
号召	-5884
地点	-5885
审视	-5886
尼迪	-5887
指令	-5888
时报	-5889
更新	-5890
有意	-5891
沙龙	-5892
深深	-5893
用水	-5894
用途	-5895
的重	-5896
破灭	-5897
纪律	-5898
草案	-5899
警惕	-5900
让他	-5901
跨越	-5902
oun	-5903
▁与此	-5904
▁以及	-5905
▁是的	-5906
上升到	-5907
不利于	-5908
从而使	-5909
传统上	-5910
去年的	-5911
在整个	-5912
在这里	-5913
建立起	-5914
影响了	-5915
是非常	-5916
演变为	-5917
警告说	-5918
中央政府	-5919
借贷成本	-5920
大宗商品	-5921
成员资格	-5922
永远不会	-5923
英国退出	-5924
lobal	-5925
恐怖主义的	-5926
政策制定者	-5927
一片	-5928
不止	-5929
价还	-5930
各样	-5931
囚犯	-5932
国界	-5933
场合	-5934
尖锐	-5935
州和	-5936
平静	-5937
延伸	-5938
把它	-5939
派遣	-5940
稳固	-5941
记住	-5942
设想	-5943
这就	-5944
预示	-5945
ank	-5946
▁就连	-5947
▁答案	-5948
▁这次	-5949
个人的	-5950
副作用	-5951
加入了	-5952
势力的	-5953
反应堆	-5954
就可能	-5955
找不到	-5956
是全球	-5957
条件下	-5958
理性的	-5959
的利率	-5960
的想法	-5961
第二大	-5962
能带来	-5963
萨尔科	-5964
▁5%。	-5965
▁Pro	-5966
▁墨西哥	-5967
从来没有	-5968
发挥作用	-5969
唯一一个	-5970
弗里德曼	-5971
最严重的	-5972
conom	-5973
和其他国家	-5974
evelop	-5975
不难	-5976
会计	-5977
借钱	-5978
凭借	-5979
分割	-5980
勒庞	-5981
回忆	-5982
境内	-5983
复制	-5984
多次	-5985
大体	-5986
头上	-5987
将为	-5988
尼泊	-5989
屈服	-5990
应付	-5991
据说	-5992
推移	-5993
来为	-5994
植物	-5995
申科	-5996
电网	-5997
自豪	-5998
评价	-5999
误解	-6000
豁免	-6001
进了	-6002
都对	-6003
前苏联	-6004
地认为	-6005
实验室	-6006
家庭的	-6007
布里奇	-6008
战争中	-6009
是无法	-6010
来源于	-6011
津巴布	-6012
的个人	-6013
的土地	-6014
的思想	-6015
的监管	-6016
确定性	-6017
约旦河	-6018
谈判中	-6019
追溯到	-6020
▁000	-6021
种族灭绝	-6022
空气污染	-6023
英国脱欧	-6024
▁巴基斯坦	-6025
在某种程度上	-6026
SA	-6027
▁拉	-6028
一支	-6029
伤亡	-6030
减缓	-6031
创始	-6032
叙事	-6033
哈里	-6034
器官	-6035
基石	-6036
小型	-6037
悬崖	-6038
战术	-6039
房子	-6040
歇尔	-6041
瓦解	-6042
的总	-6043
策划	-6044
级别	-6045
萨斯	-6046
话题	-6047
赞助	-6048
趋同	-6049
饥荒	-6050
SDR	-6051
end	-6052
ern	-6053
▁自从	-6054
▁这项	-6055
▁银行	-6056
一样的	-6057
付出的	-6058
价还价	-6059
创造出	-6060
及其他	-6061
只不过	-6062
和平的	-6063
因为他	-6064
最大化	-6065
的比重	-6066
耐药性	-6067
货币和	-6068
资源的	-6069
1945	-6070
人力资本	-6071
实体经济	-6072
是错误的	-6073
津巴布韦	-6074
讨价还价	-6075
通货紧缩	-6076
京都议定书	-6077
凯恩斯主义	-6078
▁国际货币基金组织	-6079
▁本	-6080
事物	-6081
但仍	-6082
儿子	-6083
前沿	-6084
区的	-6085
单独	-6086
天的	-6087
就此	-6088
情感	-6089
报酬	-6090
政界	-6091
故意	-6092
暴行	-6093
曝光	-6094
杀死	-6095
概率	-6096
火箭	-6097
禁令	-6098
而其	-6099
花钱	-6100
起草	-6101
道而	-6102
风能	-6103
高估	-6104
25%	-6105
事件的	-6106
从而让	-6107
全新的	-6108
刺激了	-6109
很显然	-6110
或许是	-6111
扩大了	-6112
扩大的	-6113
接近于	-6114
的道德	-6115
糟糕的	-6116
要求的	-6117
该组织	-6118
较低的	-6119
采取的	-6120
▁马德里	-6121
了一系列	-6122
他们认为	-6123
在叙利亚	-6124
达成协议	-6125
这一比例	-6126
很大一部分	-6127
贸易和投资	-6128
金融市场的	-6129
主权财富基金	-6130
新兴市场国家	-6131
ug	-6132
▁三	-6133
不已	-6134
两岸	-6135
低了	-6136
体验	-6137
关押	-6138
兴奋	-6139
出一	-6140
列为	-6141
制止	-6142
化了	-6143
卷入	-6144
年时	-6145
并无	-6146
庆祝	-6147
想到	-6148
捐赠	-6149
新鲜	-6150
深陷	-6151
聚集	-6152
音乐	-6153
世界中	-6154
之外的	-6155
会成为	-6156
制定了	-6157
困难的	-6158
在那里	-6159
忽视了	-6160
有限的	-6161
模式的	-6162
演讲中	-6163
生产的	-6164
的持续	-6165
被证明	-6166
说明了	-6167
达成了	-6168
还不如	-6169
这么做	-6170
随后的	-6171
额外的	-6172
2018	-6173
▁让我们	-6174
医疗保健	-6175
就有可能	-6176
拒绝接受	-6177
教育程度	-6178
税收收入	-6179
经济表现	-6180
阿拉伯人	-6181
▁普林斯顿	-6182
总统候选人	-6183
▁谁	-6184
》,	-6185
上演	-6186
东道	-6187
中止	-6188
五个	-6189
从前	-6190
但对	-6191
到期	-6192
和谐	-6193
将于	-6194
将从	-6195
市长	-6196
很小	-6197
成效	-6198
成的	-6199
揭露	-6200
民兵	-6201
维和	-6202
美好	-6203
花了	-6204
▁当今	-6205
一个人	-6206
不信任	-6207
与欧盟	-6208
会议员	-6209
全面的	-6210
办法是	-6211
和能源	-6212
少数派	-6213
已经有	-6214
所做的	-6215
拒绝了	-6216
持续的	-6217
无法在	-6218
明智的	-6219
更低的	-6220
核电站	-6221
核试验	-6222
的不同	-6223
的前景	-6224
的潜在	-6225
的石油	-6226
表面上	-6227
规则的	-6228
▁如果你	-6229
▁这样做	-6230
债务危机	-6231
成千上万	-6232
所有人的	-6233
的人来说	-6234
自由民主	-6235
负面影响	-6236
资本流动	-6237
选举结果	-6238
雷曼兄弟	-6239
1,000	-6240
urope	-6241
安倍经济学	-6242
比以往任何时候	-6243
NP	-6244
OM	-6245
事关	-6246
伐克	-6247
信奉	-6248
出手	-6249
前者	-6250
外包	-6251
多久	-6252
多尔	-6253
始终	-6254
宽容	-6255
平面	-6256
必将	-6257
慢性	-6258
执法	-6259
放眼	-6260
整整	-6261
新增	-6262
既得	-6263
有力	-6264
机关	-6265
杀伤	-6266
格尔	-6267
漫长	-6268
短短	-6269
股份	-6270
葛兰	-6271
赌注	-6272
降至	-6273
骚乱	-6274
人死亡	-6275
体现在	-6276
借款人	-6277
制造商	-6278
前总理	-6279
压力的	-6280
可以说	-6281
同时又	-6282
和印度	-6283
和商业	-6284
强化了	-6285
感受到	-6286
数十年	-6287
洛伐克	-6288
活动的	-6289
的崛起	-6290
的意愿	-6291
社会党	-6292
美国将	-6293
能获得	-6294
长期的	-6295
阿卜杜	-6296
▁伯克利	-6297
▁新德里	-6298
不是一个	-6299
似乎已经	-6300
国内政治	-6301
国家利益	-6302
如果我们	-6303
跨国公司	-6304
近几年来	-6305
经济和社会	-6306
ld	-6307
og	-6308
不复	-6309
依存	-6310
入盟	-6311
军官	-6312
分担	-6313
初衷	-6314
半年	-6315
君主	-6316
因于	-6317
圣地	-6318
学科	-6319
就被	-6320
尼古	-6321
布朗	-6322
席卷	-6323
开罗	-6324
撤出	-6325
汽油	-6326
源泉	-6327
着陆	-6328
稳健	-6329
置疑	-6330
输家	-6331
这份	-6332
隐私	-6333
颇具	-6334
双方都	-6335
回报率	-6336
因为在	-6337
城市化	-6338
基因组	-6339
基督徒	-6340
完全是	-6341
所有权	-6342
所造成	-6343
放弃了	-6344
最重要	-6345
的不满	-6346
的存在	-6347
的有效	-6348
的现象	-6349
签署了	-6350
▁但美国	-6351
▁在一个	-6352
▁我们的	-6353
不幸的是	-6354
中小企业	-6355
债务负担	-6356
停滞不前	-6357
和以色列	-6358
外交部长	-6359
的美国人	-6360
艾滋病毒	-6361
远远不够	-6362
▁坎布里奇	-6363
生物多样性	-6364
的全球经济	-6365
合作伙伴关系	-6366
欧元区成员国	-6367
Facebook	-6368
不清	-6369
作品	-6370
切断	-6371
回事	-6372
就算	-6373
尽快	-6374
常任	-6375
总部	-6376
撤离	-6377
施压	-6378
是其	-6379
汲取	-6380
涵盖	-6381
竭力	-6382
蛋白	-6383
西部	-6384
轨道	-6385
采访	-6386
里夫	-6387
阴影	-6388
阻力	-6389
ess	-6390
sti	-6391
ton	-6392
und	-6393
▁俄国	-6394
▁朝鲜	-6395
▁第四	-6396
▁至少	-6397
人民党	-6398
体现了	-6399
几乎是	-6400
可以将	-6401
和地区	-6402
基本面	-6403
如此之	-6404
层面上	-6405
推动了	-6406
是我们	-6407
显示出	-6408
来进行	-6409
的一年	-6410
移民的	-6411
能源和	-6412
行业的	-6413
被广泛	-6414
还应该	-6415
▁今天的	-6416
同时也是	-6417
当选总统	-6418
恶性循环	-6419
所取得的	-6420
私营部门	-6421
试图通过	-6422
这些政策	-6423
迹象表明	-6424
▁巴勒斯坦	-6425
▁美国剑桥	-6426
经济增长的	-6427
事态	-6428
亚美	-6429
倒退	-6430
几百	-6431
医保	-6432
卡特	-6433
回避	-6434
增值	-6435
婚姻	-6436
情愿	-6437
批判	-6438
最快	-6439
机场	-6440
束缚	-6441
清除	-6442
直觉	-6443
空中	-6444
等国	-6445
经受	-6446
维也	-6447
血腥	-6448
论证	-6449
贪婪	-6450
这对	-6451
隐含	-6452
高涨	-6453
3%。	-6454
归因于	-6455
殖民地	-6456
温和派	-6457
的故事	-6458
示威者	-6459
脆弱的	-6460
全球金融	-6461
军事力量	-6462
国家主席	-6463
大幅下降	-6464
就不可能	-6465
所导致的	-6466
果真如此	-6467
生活方式	-6468
这方面的	-6469
▁2007	-6470
政治和经济	-6471
世界其他国家	-6472
evelopment	-6473
1/	-6474
ex	-6475
ta	-6476
不像	-6477
也让	-6478
互换	-6479
加泰	-6480
商人	-6481
坚挺	-6482
境况	-6483
外来	-6484
将给	-6485
掉了	-6486
提交	-6487
溢价	-6488
猜测	-6489
神圣	-6490
耗尽	-6491
臭名	-6492
警方	-6493
较少	-6494
马车	-6495
麦肯	-6496
Rob	-6497
▁但对	-6498
之前的	-6499
加泰罗	-6500
即便是	-6501
合适的	-6502
尼泊尔	-6503
得到的	-6504
恶化的	-6505
是对的	-6506
有很多	-6507
桑德斯	-6508
美国家	-6509
脆弱性	-6510
资产的	-6511
还不到	-6512
阿拉法	-6513
限制了	-6514
10%。	-6515
亚美尼亚	-6516
其他地区	-6517
卷土重来	-6518
年代以来	-6519
所指出的	-6520
政治制度	-6521
是否能够	-6522
极端贫困	-6523
行动起来	-6524
迫切需要	-6525
都是如此	-6526
加泰罗尼亚	-6527
▁Party	-6528
中学	-6529
光明	-6530
冷静	-6531
分支	-6532
别人	-6533
加哥	-6534
可观	-6535
够的	-6536
开端	-6537
愈烈	-6538
手术	-6539
推向	-6540
搜索	-6541
方便	-6542
无需	-6543
权益	-6544
照顾	-6545
理所	-6546
眼中	-6547
要让	-6548
赞同	-6549
迎接	-6550
隐藏	-6551
马尔	-6552
CEO	-6553
▁第一	-6554
一致的	-6555
可能对	-6556
和欧盟	-6557
想象的	-6558
或许会	-6559
斯拉夫	-6560
独一无	-6561
生物学	-6562
的联系	-6563
给我们	-6564
肯尼迪	-6565
芝加哥	-6566
过去了	-6567
远低于	-6568
邻国的	-6569
▁5%,	-6570
▁Con	-6571
▁即使是	-6572
▁第一个	-6573
不受欢迎	-6574
只是一个	-6575
政府必须	-6576
是不够的	-6577
核武器的	-6578
的另一个	-6579
股票市场	-6580
▁可以肯定	-6581
的经济政策	-6582
社会和经济	-6583
联系在一起	-6584
▁举	-6585
中位	-6586
主管	-6587
也为	-6588
他信	-6589
以巴	-6590
军备	-6591
去了	-6592
同等	-6593
吸取	-6594
和非	-6595
咨询	-6596
在对	-6597
多重	-6598
大党	-6599
宇宙	-6600
容克	-6601
必需	-6602
总裁	-6603
愈演	-6604
搜集	-6605
是将	-6606
是很	-6607
正当	-6608
游击	-6609
病例	-6610
确立	-6611
科夫	-6612
等同	-6613
糖尿	-6614
耗费	-6615
股本	-6616
胜出	-6617
被人	-6618
裁军	-6619
赫尔	-6620
过时	-6621
远见	-6622
道歉	-6623
邻居	-6624
钢铁	-6625
颁布	-6626
2%。	-6627
all	-6628
人类的	-6629
他们是	-6630
付出了	-6631
使他们	-6632
受益者	-6633
因素是	-6634
在印度	-6635
坏消息	-6636
定义为	-6637
强烈的	-6638
必然会	-6639
性武器	-6640
总量的	-6641
时间内	-6642
是一项	-6643
最严重	-6644
正确地	-6645
的人数	-6646
的文化	-6647
研究者	-6648
而没有	-6649
臭名昭	-6650
观察者	-6651
视而不	-6652
贷款人	-6653
这表明	-6654
通过了	-6655
都知道	-6656
1967	-6657
sion	-6658
▁伊拉克	-6659
人均收入	-6660
少数族裔	-6661
就是一个	-6662
愈演愈烈	-6663
独一无二	-6664
紧缩政策	-6665
萨尔科奇	-6666
越来越大	-6667
这场危机	-6668
#45;&	-6669
▁2013	-6670
IT	-6671
az	-6672
他是	-6673
倡导	-6674
升息	-6675
奖励	-6676
奠定	-6677
对冲	-6678
巨型	-6679
平息	-6680
弗拉	-6681
想想	-6682
战场	-6683
提款	-6684
收到	-6685
杰夫	-6686
流血	-6687
浮动	-6688
潮流	-6689
牵涉	-6690
现行	-6691
直面	-6692
短视	-6693
纽黑	-6694
而后	-6695
起着	-6696
较高	-6697
野生	-6698
错了	-6699
ord	-6700
▁Ac	-6701
三十年	-6702
了这些	-6703
如果不	-6704
对伊朗	-6705
微不足	-6706
感兴趣	-6707
所必须	-6708
本国的	-6709
理事国	-6710
的大幅	-6711
的难民	-6712
的领域	-6713
竞争性	-6714
管理者	-6715
纽黑文	-6716
维也纳	-6717
落后于	-6718
预见的	-6719
1973	-6720
1992	-6721
John	-6722
▁但中国	-6723
从一开始	-6724
令人失望	-6725
利益集团	-6726
和俄罗斯	-6727
对美国的	-6728
工业革命	-6729
生物燃料	-6730
的伊斯兰	-6731
臭名昭著	-6732
英国首相	-6733
问题在于	-6734
年全球金融危机	-6735
ES	-6736
之举	-6737
也对	-6738
储存	-6739
其反	-6740
几十	-6741
哈萨	-6742
头脑	-6743
奉行	-6744
安抚	-6745
巴格	-6746
带有	-6747
弗朗	-6748
微妙	-6749
惠及	-6750
戏剧	-6751
揽子	-6752
新生	-6753
朝着	-6754
极限	-6755
检察	-6756
热衷	-6757
的非	-6758
社团	-6759
管辖	-6760
英语	-6761
蓬勃	-6762
起点	-6763
进攻	-6764
适当	-6765
1%。	-6766
800	-6767
ani	-6768
他们会	-6769
但这一	-6770
保持着	-6771
占全球	-6772
吸引了	-6773
完成了	-6774
希望的	-6775
希腊的	-6776
更愿意	-6777
比美国	-6778
涉及到	-6779
的人类	-6780
的方向	-6781
的最低	-6782
的科学	-6783
的稳定	-6784
的重大	-6785
资本外	-6786
这使得	-6787
阻止了	-6788
麦肯锡	-6789
1994	-6790
从而导致	-6791
储备货币	-6792
其中一个	-6793
其自身的	-6794
前所未有	-6795
可能造成	-6796
和伊拉克	-6797
和土耳其	-6798
如何应对	-6799
微不足道	-6800
数百万人	-6801
联系起来	-6802
重要作用	-6803
▁毫不奇怪	-6804
#45;&#45;	-6805
TA	-6806
上帝	-6807
丧生	-6808
中欧	-6809
会面	-6810
内政	-6811
受伤	-6812
名的	-6813
吸烟	-6814
回顾	-6815
在近	-6816
多极	-6817
失控	-6818
奏效	-6819
惊人	-6820
想起	-6821
拉动	-6822
拙劣	-6823
早在	-6824
明星	-6825
标签	-6826
版本	-6827
特和	-6828
独特	-6829
略有	-6830
看成	-6831
纲领	-6832
致死	-6833
艾哈	-6834
董事	-6835
虚拟	-6836
700	-6837
▁一位	-6838
▁但他	-6839
▁随后	-6840
为美国	-6841
之后的	-6842
创新和	-6843
哲学家	-6844
在所有	-6845
巴塞尔	-6846
普京的	-6847
生活中	-6848
的儿童	-6849
的出现	-6850
的原则	-6851
相同的	-6852
糖尿病	-6853
获得者	-6854
选举的	-6855
限制在	-6856
驾马车	-6857
cial	-6858
▁全世界	-6859
公共投资	-6860
刺激计划	-6861
国家政府	-6862
stitu	-6863
▁国际社会	-6864
的解决方案	-6865
大宗商品价格	-6866
An	-6867
iv	-6868
ut	-6869
不错	-6870
交道	-6871
侯赛	-6872
偏离	-6873
各项	-6874
哪种	-6875
境地	-6876
增进	-6877
外债	-6878
大批	-6879
大麻	-6880
娱乐	-6881
并对	-6882
开创	-6883
很久	-6884
斯托	-6885
暂停	-6886
村庄	-6887
根除	-6888
河流	-6889
波罗	-6890
派别	-6891
流程	-6892
真理	-6893
解散	-6894
远未	-6895
追踪	-6896
金额	-6897
▁Re	-6898
▁基于	-6899
▁社会	-6900
不在于	-6901
为他们	-6902
和支持	-6903
在一定	-6904
如果你	-6905
将面临	-6906
就在于	-6907
往往是	-6908
急需的	-6909
成本的	-6910
挑战的	-6911
控制权	-6912
控制着	-6913
权利的	-6914
组织和	-6915
该协议	-6916
财政和	-6917
高科技	-6918
▁即使在	-6919
▁这一点	-6920
在经历了	-6921
帝国主义	-6922
应对措施	-6923
当今世界	-6924
是否应该	-6925
有所下降	-6926
的穆斯林	-6927
视而不见	-6928
需要一个	-6929
伊斯兰国的	-6930
欧洲一体化	-6931
资本主义的	-6932
Robert	-6933
&#45;&#45;	-6934
3,	-6935
一如	-6936
买单	-6937
亲密	-6938
人心	-6939
兑换	-6940
则在	-6941
创伤	-6942
大为	-6943
实用	-6944
巴以	-6945
并论	-6946
手里	-6947
找出	-6948
教条	-6949
是让	-6950
梅德	-6951
民党	-6952
波多	-6953
渗透	-6954
特区	-6955
特色	-6956
相提	-6957
科研	-6958
罕见	-6959
诉求	-6960
迁徙	-6961
迟早	-6962
难免	-6963
靠拢	-6964
顶层	-6965
▁但当	-6966
▁实现	-6967
▁欧元	-6968
丘吉尔	-6969
中东和	-6970
以外的	-6971
听起来	-6972
城市的	-6973
我们将	-6974
执政的	-6975
有多少	-6976
毕业生	-6977
独立性	-6978
的依赖	-6979
的失败	-6980
的理论	-6981
的证据	-6982
而中国	-6983
调整的	-6984
运动员	-6985
违反了	-6986
都不能	-6987
高风险	-6988
1960	-6989
▁比如说	-6990
产能过剩	-6991
就是明证	-6992
无关紧要	-6993
有史以来	-6994
有所不同	-6995
朝鲜半岛	-6996
的领导下	-6997
相提并论	-6998
美国国债	-6999
▁2005	-7000
▁他们认为	-7001
▁好消息是	-7002
哈萨克斯坦	-7003
民族主义者	-7004
一来	-7005
一段	-7006
不幸	-7007
不相	-7008
借此	-7009
受困	-7010
城镇	-7011
心态	-7012
慕尼	-7013
挫折	-7014
接管	-7015
时所	-7016
有序	-7017
正规	-7018
生计	-7019
电动	-7020
留给	-7021
的核	-7022
硅谷	-7023
类的	-7024
细菌	-7025
羞辱	-7026
让我	-7027
雅典	-7028
黎各	-7029
15%	-7030
4%。	-7031
ens	-7032
▁民主	-7033
低估了	-7034
原子能	-7035
同一个	-7036
形成的	-7037
成立了	-7038
损害了	-7039
标准的	-7040
状况的	-7041
由美国	-7042
的人道	-7043
的出口	-7044
管理的	-7045
类型的	-7046
维持在	-7047
贸易和	-7048
不负责任	-7049
与以色列	-7050
与俄罗斯	-7051
债务重组	-7052
取得进展	-7053
安全问题	-7054
将在未来	-7055
技术进步	-7056
波多黎各	-7057
越来越多地	-7058
随之而来的	-7059
FD	-7060
oc	-7061
为期	-7062
之久	-7063
书中	-7064
假定	-7065
其余	-7066
其所	-7067
加勒	-7068
子的	-7069
存活	-7070
家长	-7071
将比	-7072
居高	-7073
弥合	-7074
抵达	-7075
携带	-7076
收获	-7077
有趣	-7078
机械	-7079
激起	-7080
真空	-7081
神话	-7082
精心	-7083
终极	-7084
编辑	-7085
缴纳	-7086
萨默	-7087
覆辙	-7088
资料	-7089
过高	-7090
避难	-7091
里亚	-7092
顶尖	-7093
高乐	-7094
▁他说	-7095
▁就在	-7096
▁解决	-7097
▁韩国	-7098
与西方	-7099
了一些	-7100
代表着	-7101
但这些	-7102
侯赛因	-7103
保持在	-7104
做什么	-7105
和民主	-7106
国家在	-7107
媒体的	-7108
将这些	-7109
并以此	-7110
成年人	-7111
把自己	-7112
梅德韦	-7113
海平面	-7114
移民和	-7115
统治的	-7116
腐败的	-7117
▁我认为	-7118
令人不安	-7119
做些什么	-7120
半个世纪	-7121
单一货币	-7122
可以成为	-7123
增长放缓	-7124
工作人员	-7125
恐怖组织	-7126
权力机构	-7127
正在经历	-7128
消费者的	-7129
经济改革	-7130
这一结果	-7131
▁发自纽约	-7132
政治领导人	-7133
约旦河西岸	-7134
而不仅仅是	-7135
▁Econom	-7136
一贯	-7137
不多	-7138
与否	-7139
光是	-7140
入学	-7141
内需	-7142
制的	-7143
史上	-7144
坚信	-7145
大臣	-7146
大致	-7147
定位	-7148
对峙	-7149
小学	-7150
就职	-7151
开来	-7152
振奋	-7153
教派	-7154
旁观	-7155
是要	-7156
派系	-7157
海地	-7158
清醒	-7159
王朝	-7160
的三	-7161
监测	-7162
红利	-7163
经费	-7164
职能	-7165
胡锦	-7166
艰苦	-7167
货物	-7168
车臣	-7169
输出	-7170
重蹈	-7171
集权	-7172
雷斯	-7173
鲁莽	-7174
ner	-7175
▁7%	-7176
▁al	-7177
▁未来	-7178
▁然后	-7179
不住脚	-7180
参与了	-7181
和市场	-7182
因如此	-7183
在他们	-7184
在我们	-7185
对欧盟	-7186
帝国的	-7187
建设性	-7188
恰当的	-7189
慕尼黑	-7190
戴高乐	-7191
流行的	-7192
的内容	-7193
的教训	-7194
的生命	-7195
的迹象	-7196
的项目	-7197
监管和	-7198
看不到	-7199
而后者	-7200
胡锦涛	-7201
规则和	-7202
较高的	-7203
都已经	-7204
▁Sch	-7205
▁但尽管	-7206
▁在中国	-7207
三驾马车	-7208
主导地位	-7209
价格上涨	-7210
保险公司	-7211
可能成为	-7212
收入分配	-7213
无法解决	-7214
日益增加	-7215
特别提款	-7216
理所当然	-7217
监管机构	-7218
货币市场	-7219
,2008	-7220
▁除此之外	-7221
联合国大会	-7222
ternational	-7223
▁Development	-7224
65	-7225
if	-7226
一件	-7227
上加	-7228
今日	-7229
住了	-7230
出发	-7231
动乱	-7232
协作	-7233
单纯	-7234
场所	-7235
多德	-7236
封闭	-7237
当下	-7238
得更	-7239
撤销	-7240
某一	-7241
牛津	-7242
简直	-7243
维克	-7244
范式	-7245
论调	-7246
该党	-7247
赫鲁	-7248
选区	-7249
避税	-7250
阻挡	-7251
顺利	-7252
▁不久	-7253
不清楚	-7254
世界最	-7255
以避免	-7256
决定性	-7257
发挥了	-7258
召开的	-7259
回到了	-7260
大选中	-7261
对这一	-7262
居住在	-7263
希拉克	-7264
建立的	-7265
找到了	-7266
排放量	-7267
是时候	-7268
有责任	-7269
的工具	-7270
的恐惧	-7271
的调查	-7272
自动化	-7273
范围的	-7274
转基因	-7275
人的生命	-7276
加沙地带	-7277
去杠杆化	-7278
尤其如此	-7279
布什总统	-7280
投资银行	-7281
政府应该	-7282
站不住脚	-7283
资产泡沫	-7284
常任理事国	-7285
经济和政治	-7286
▁"	-7287
上市	-7288
个性	-7289
公里	-7290
减记	-7291
利钦	-7292
加纳	-7293
十二	-7294
又是	-7295
告终	-7296
和更	-7297
就不	-7298
幻觉	-7299
归功	-7300
徘徊	-7301
急于	-7302
戈登	-7303
战士	-7304
所做	-7305
抬头	-7306
摇摆	-7307
教科	-7308
无处	-7309
无意	-7310
有用	-7311
检验	-7312
深受	-7313
溢出	-7314
王国	-7315
的可	-7316
的更	-7317
空袭	-7318
美中	-7319
耐心	-7320
规避	-7321
论点	-7322
进来	-7323
骄傲	-7324
▁但我	-7325
了许多	-7326
准备金	-7327
凸显出	-7328
发展和	-7329
发现了	-7330
叶利钦	-7331
在其他	-7332
复杂性	-7333
大国的	-7334
尼西亚	-7335
温和的	-7336
的主权	-7337
的保护	-7338
的分析	-7339
的理解	-7340
的英国	-7341
的表现	-7342
的非洲	-7343
篇文章	-7344
领导者	-7345
1996	-7346
▁但现在	-7347
▁全球化	-7348
▁多年来	-7349
债券市场	-7350
充分利用	-7351
如果不是	-7352
成为世界	-7353
有足够的	-7354
社会福利	-7355
竞选活动	-7356
联合政府	-7357
这样一种	-7358
不可持续的	-7359
国民生产总值	-7360
ht	-7361
▁卡	-7362
一百	-7363
为主	-7364
了近	-7365
付诸	-7366
估值	-7367
制作	-7368
夸张	-7369
拨款	-7370
掠夺	-7371
数额	-7372
有其	-7373
期的	-7374
查德	-7375
正面	-7376
沿海	-7377
界线	-7378
直升	-7379
眼前	-7380
等到	-7381
职务	-7382
蓝图	-7383
西奈	-7384
让它	-7385
违背	-7386
适得	-7387
逆差	-7388
陷于	-7389
随机	-7390
▁原因	-7391
▁多数	-7392
▁支持	-7393
不符合	-7394
了他的	-7395
供应商	-7396
关注的	-7397
军事实	-7398
和英国	-7399
在欧盟	-7400
小规模	-7401
巴格达	-7402
弗兰克	-7403
归功于	-7404
恰恰是	-7405
打交道	-7406
持久的	-7407
接下来	-7408
推动力	-7409
文化和	-7410
最终将	-7411
消费的	-7412
漫长的	-7413
的人群	-7414
科维奇	-7415
至少是	-7416
选择的	-7417
那么它	-7418
预示着	-7419
1993	-7420
为基础的	-7421
南斯拉夫	-7422
变得更为	-7423
并不是说	-7424
很少有人	-7425
成为现实	-7426
欧洲银行	-7427
贫困人口	-7428
资本管制	-7429
这个世界	-7430
适得其反	-7431
需要时间	-7432
▁归根结底	-7433
发生的事情	-7434
时间的推移	-7435
杀伤性武器	-7436
经常项目盈余	-7437
(“	-7438
▁第	-7439
一倍	-7440
不定	-7441
与此	-7442
世行	-7443
两极	-7444
亚于	-7445
亚努	-7446
会把	-7447
分为	-7448
包围	-7449
化解	-7450
合物	-7451
圣诞	-7452
大相	-7453
夺走	-7454
奢侈	-7455
学位	-7456
安置	-7457
弹性	-7458
径庭	-7459
把持	-7460
指定	-7461
挑选	-7462
春天	-7463
更强	-7464
特拉	-7465
疫情	-7466
的罪	-7467
确信	-7468
致使	-7469
色彩	-7470
节省	-7471
营造	-7472
裨益	-7473
赶超	-7474
这在	-7475
造就	-7476
250	-7477
SDG	-7478
ron	-7479
▁一种	-7480
▁人类	-7481
▁关键	-7482
▁北京	-7483
不能再	-7484
世界杯	-7485
以来的	-7486
信息和	-7487
制定的	-7488
惊人的	-7489
有些人	-7490
有许多	-7491
爆发的	-7492
生产者	-7493
的亚洲	-7494
的援助	-7495
背道而	-7496
被用于	-7497
评论家	-7498
路线图	-7499
达成的	-7500
选民的	-7501
那以后	-7502
20%。	-7503
▁但随着	-7504
专业人士	-7505
五分之一	-7506
农村地区	-7507
和平协议	-7508
在经济上	-7509
政府官员	-7510
经济体的	-7511
背道而驰	-7512
还有一个	-7513
需要的是	-7514
非常重要	-7515
可以追溯到	-7516
外国投资者	-7517
民族主义的	-7518
uropean	-7519
9.	-7520
IV	-7521
io	-7522
ss	-7523
▁高	-7524
一是	-7525
东北	-7526
人对	-7527
何处	-7528
保卫	-7529
公务	-7530
北极	-7531
变迁	-7532
在新	-7533
大军	-7534
已故	-7535
并以	-7536
并使	-7537
广播	-7538
意在	-7539
摩根	-7540
撰写	-7541
救济	-7542
方济	-7543
无一	-7544
杀人	-7545
极具	-7546
极少	-7547
治国	-7548
海上	-7549
用了	-7550
监禁	-7551
真是	-7552
纳米	-7553
花在	-7554
蒙受	-7555
这与	-7556
重创	-7557
阐述	-7558
防卫	-7559
首尔	-7560
5%,	-7561
ang	-7562
ric	-7563
▁在我	-7564
▁正是	-7565
但没有	-7566
健康和	-7567
决定的	-7568
向美国	-7569
和世界	-7570
和收入	-7571
在德国	-7572
威胁的	-7573
当时的	-7574
扩张性	-7575
有两个	-7576
来应对	-7577
的人权	-7578
的信贷	-7579
算不上	-7580
腐败和	-7581
被用来	-7582
边缘化	-7583
这导致	-7584
长期看	-7585
预测的	-7586
10%,	-7587
▁共和党	-7588
▁哈马斯	-7589
▁在这些	-7590
仍然存在	-7591
卫生组织	-7592
吸引力的	-7593
就业创造	-7594
整个世界	-7595
的支持率	-7596
这一方针	-7597
领导作用	-7598
▁我们可以	-7599
▁我们应该	-7600
带来巨大的	-7601
总统巴沙尔	-7602
房地产泡沫	-7603
诺贝尔经济学	-7604
首相安倍晋三	-7605
DG	-7606
▁也	-7607
三国	-7608
东方	-7609
合约	-7610
和反	-7611
和水	-7612
存量	-7613
审核	-7614
州的	-7615
平稳	-7616
得上	-7617
挥霍	-7618
接纳	-7619
教会	-7620
新型	-7621
日趋	-7622
月初	-7623
检测	-7624
法则	-7625
波特	-7626
照片	-7627
率的	-7628
甚远	-7629
称的	-7630
缔造	-7631
让其	-7632
跟踪	-7633
重演	-7634
顶峰	-7635
6%。	-7636
ind	-7637
▁不论	-7638
▁我的	-7639
▁来自	-7640
代表的	-7641
公众的	-7642
公共品	-7643
公平的	-7644
创纪录	-7645
和公司	-7646
因为其	-7647
在哪里	-7648
在非洲	-7649
太多的	-7650
很好地	-7651
很快就	-7652
执行官	-7653
持有人	-7654
政客们	-7655
是不可	-7656
有意义	-7657
环境的	-7658
生产性	-7659
的损失	-7660
的联盟	-7661
的预期	-7662
给出了	-7663
萨默斯	-7664
转折点	-7665
▁在英国	-7666
▁而如果	-7667
他们可以	-7668
几十年的	-7669
国际刑事	-7670
少数民族	-7671
左翼联盟	-7672
希腊政府	-7673
既得利益	-7674
的经济学	-7675
阿富汗的	-7676
阿拉法特	-7677
难民危机	-7678
之间的联系	-7679
的外交政策	-7680
核不扩散条约	-7681
诺贝尔经济学奖	-7682
AI	-7683
▁中	-7684
▁把	-7685
一度	-7686
下令	-7687
为零	-7688
于此	-7689
仍未	-7690
伯格	-7691
克劳	-7692
劣势	-7693
向前	-7694
商务	-7695
回来	-7696
困惑	-7697
垃圾	-7698
宣告	-7699
尊敬	-7700
展望	-7701
得主	-7702
挑起	-7703
摩擦	-7704
无情	-7705
更深	-7706
有机	-7707
格拉	-7708
欧亚	-7709
比起	-7710
淘汰	-7711
热带	-7712
确切	-7713
肆虐	-7714
落入	-7715
说过	-7716
调节	-7717
越发	-7718
里程	-7719
阅读	-7720
are	-7721
arl	-7722
▁历史	-7723
上世纪	-7724
世纪初	-7725
为代价	-7726
为我们	-7727
争议的	-7728
公共和	-7729
原材料	-7730
发生过	-7731
和创新	-7732
岁以下	-7733
恢复力	-7734
拥有的	-7735
政府间	-7736
方济各	-7737
曾经是	-7738
替代品	-7739
生产国	-7740
留下的	-7741
的公民	-7742
的限制	-7743
秩序的	-7744
等同于	-7745
经济中	-7746
而这一	-7747
ance	-7748
也不可能	-7749
他们必须	-7750
使用武力	-7751
全球增长	-7752
几乎肯定	-7753
制药公司	-7754
医疗服务	-7755
反恐战争	-7756
大相径庭	-7757
持续下去	-7758
的政治家	-7759
讽刺的是	-7760
2,000	-7761
▁布鲁塞尔	-7762
▁简而言之	-7763
▁这些国家	-7764
做到这一点	-7765
国际社会的	-7766
数十亿美元	-7767
中立	-7768
乌干	-7769
五大	-7770
人选	-7771
体面	-7772
偏向	-7773
共存	-7774
兼并	-7775
危及	-7776
名列	-7777
吞并	-7778
启发	-7779
品牌	-7780
将由	-7781
已被	-7782
市民	-7783
得起	-7784
所欲	-7785
投行	-7786
招募	-7787
月底	-7788
欺诈	-7789
此举	-7790
民营	-7791
源头	-7792
现今	-7793
瓦尔	-7794
签证	-7795
脂肪	-7796
良机	-7797
表态	-7798
要为	-7799
首位	-7800
ass	-7801
ort	-7802
▁8%	-7803
▁应该	-7804
▁此后	-7805
乌干达	-7806
任何人	-7807
修正案	-7808
和其它	-7809
国大党	-7810
在国家	-7811
大得多	-7812
安全网	-7813
应有的	-7814
暴力和	-7815
条件的	-7816
正处于	-7817
永久性	-7818
的事件	-7819
的学生	-7820
的日本	-7821
的根源	-7822
的理念	-7823
的话说	-7824
穷人的	-7825
立法者	-7826
等问题	-7827
能够让	-7828
艾哈迈	-7829
起来的	-7830
零利率	-7831
韩国的	-7832
▁但对于	-7833
共同利益	-7834
劳动力的	-7835
可以获得	-7836
各种各样	-7837
政治领袖	-7838
的全球化	-7839
资本账户	-7840
达成共识	-7841
这个数字	-7842
ility	-7843
—2009	-7844
▁2001	-7845
▁但这样的	-7846
亚努科维奇	-7847
意味着什么	-7848
首席执行官	-7849
发展中经济体	-7850
联合国秘书长	-7851
37	-7852
CP	-7853
▁Y	-7854
一届	-7855
一部	-7856
三种	-7857
上周	-7858
乔夫	-7859
任职	-7860
会将	-7861
医药	-7862
升温	-7863
地面	-7864
大卫	-7865
大笔	-7866
妻子	-7867
孟买	-7868
富豪	-7869
尴尬	-7870
岛屿	-7871
惊讶	-7872
戴维	-7873
抗药	-7874
拉登	-7875
捕捞	-7876
攻势	-7877
无比	-7878
星球	-7879
未知	-7880
标题	-7881
格局	-7882
每次	-7883
民用	-7884
汇款	-7885
生殖	-7886
男女	-7887
的老	-7888
看着	-7889
结局	-7890
罗德	-7891
背叛	-7892
自行	-7893
般的	-7894
装备	-7895
见证	-7896
调和	-7897
辐射	-7898
迈进	-7899
降到	-7900
▁6%	-7901
▁Tr	-7902
中东的	-7903
为中心	-7904
了中国	-7905
仅限于	-7906
仍然在	-7907
他们也	-7908
危机后	-7909
压倒性	-7910
受影响	-7911
在任何	-7912
将会是	-7913
已经从	-7914
市场和	-7915
影响着	-7916
或者说	-7917
是世界	-7918
的人的	-7919
的信用	-7920
的可能	-7921
的批评	-7922
的状态	-7923
研究的	-7924
表现得	-7925
规定的	-7926
贫困线	-7927
1930	-7928
1950	-7929
▁习近平	-7930
▁许多人	-7931
个国家的	-7932
他们自己	-7933
众所周知	-7934
俄罗斯人	-7935
其中一些	-7936
决定性的	-7937
受到影响	-7938
在全世界	-7939
得到解决	-7940
才有可能	-7941
抗议活动	-7942
欧元债券	-7943
正在发生	-7944
法治精神	-7945
研究人员	-7946
自身利益	-7947
原教旨主义	-7948
委员会主席	-7949
新兴市场的	-7950
特别提款权	-7951
世界其他地区	-7952
▁w	-7953
▁如	-7954
一番	-7955
不下	-7956
两名	-7957
为人	-7958
传达	-7959
准入	-7960
匮乏	-7961
原始	-7962
可供	-7963
司机	-7964
各类	-7965
家宝	-7966
小说	-7967
微软	-7968
忧心	-7969
悖论	-7970
拓展	-7971
教学	-7972
物流	-7973
生意	-7974
百姓	-7975
终止	-7976
节目	-7977
计的	-7978
门槛	-7979
队伍	-7980
饮食	-7981
驾驶	-7982
2%,	-7983
mer	-7984
▁Sh	-7985
▁企业	-7986
▁报告	-7987
▁既然	-7988
▁这里	-7989
不会有	-7990
不喜欢	-7991
体系中	-7992
努力的	-7993
国务院	-7994
如何在	-7995
它们所	-7996
它们是	-7997
对未来	-7998
将决定	-7999
将自己	-8000
将达到	-8001
就业率	-8002
急切地	-8003
或者是	-8004
执政党	-8005
检察官	-8006
法律和	-8007
物理学	-8008
理解的	-8009
的产品	-8010
的孩子	-8011
的空间	-8012
的统治	-8013
直升机	-8014
看到的	-8015
表达了	-8016
该公司	-8017
那些在	-8018
金正日	-8019
▁在许多	-8020
▁如果说	-8021
▁最近的	-8022
▁问题是	-8023
债权人的	-8024
做出选择	-8025
关键作用	-8026
可以提供	-8027
国民阵线	-8028
对以色列	-8029
成为可能	-8030
执政联盟	-8031
的国家的	-8032
的必要性	-8033
相当大的	-8034
美国人的	-8035
能够获得	-8036
财政状况	-8037
还有很多	-8038
▁如果美国	-8039
▁果真如此	-8040
不平等性的	-8041
截然不同的	-8042
最重要的是	-8043
▁发展中国家	-8044
▁在这种情况下	-8045
大规模杀伤性武器	-8046
”:	-8047
▁巴	-8048
一看	-8049
不去	-8050
丝绸	-8051
仅为	-8052
加德	-8053
名言	-8054
安慰	-8055
州长	-8056
带领	-8057
德黑	-8058
忙于	-8059
月在	-8060
本能	-8061
桥梁	-8062
残疾	-8063
流通	-8064
清理	-8065
的要	-8066
眼光	-8067
知名	-8068
范例	-8069
解雇	-8070
记得	-8071
贿赂	-8072
越多	-8073
遗留	-8074
配合	-8075
防范	-8076
1%,	-8077
our	-8078
row	-8079
▁东京	-8080
▁大约	-8081
▁安倍	-8082
▁香港	-8083
下一代	-8084
不允许	-8085
不同于	-8086
但美国	-8087
凝聚力	-8088
创造性	-8089
和增长	-8090
和管理	-8091
富有的	-8092
巴乔夫	-8093
很明显	-8094
是不是	-8095
最多的	-8096
民主化	-8097
活动家	-8098
流行病	-8099
温家宝	-8100
的感觉	-8101
的管理	-8102
自己在	-8103
资本和	-8104
这是个	-8105
1986	-8106
2025	-8107
▁一方面	-8108
与美国的	-8109
也有助于	-8110
令人惊讶	-8111
保守主义	-8112
全球性的	-8113
国会议员	-8114
国际机构	-8115
大幅增加	-8116
强烈反对	-8117
性别平等	-8118
普遍认为	-8119
根本性的	-8120
死亡人数	-8121
没有一个	-8122
美联储的	-8123
这场战争	-8124
进一步的	-8125
和巴基斯坦	-8126
戈尔巴乔夫	-8127
拥有核武器	-8128
特朗普政府	-8129
这样的国家	-8130
里斯本条约	-8131
EA	-8132
ib	-8133
▁另	-8134
一座	-8135
上风	-8136
之力	-8137
事先	-8138
偶尔	-8139
傲慢	-8140
克制	-8141
几次	-8142
可图	-8143
右派	-8144
国企	-8145
埃尔	-8146
夫人	-8147
它对	-8148
安德	-8149
崇拜	-8150
教堂	-8151
暴动	-8152
本次	-8153
欧美	-8154
残忍	-8155
法德	-8156
看护	-8157
约有	-8158
结成	-8159
被捕	-8160
赞扬	-8161
通道	-8162
钓鱼	-8163
霍乱	-8164
120	-8165
enc	-8166
ism	-8167
▁Le	-8168
▁公司	-8169
▁改革	-8170
上升的	-8171
中扮演	-8172
之上的	-8173
人们所	-8174
全球的	-8175
印度人	-8176
可信度	-8177
可能比	-8178
同时还	-8179
和德国	-8180
埃及的	-8181
并通过	-8182
强调了	-8183
往往会	-8184
德黑兰	-8185
必须与	-8186
更重要	-8187
曼德拉	-8188
最贫穷	-8189
有时候	-8190
的数字	-8191
的结论	-8192
税收和	-8193
精英们	-8194
▁但即使	-8195
▁在未来	-8196
▁美国人	-8197
▁这两个	-8198
不同的是	-8199
也是一个	-8200
人工智能	-8201
另外一个	-8202
因为这些	-8203
增长速度	-8204
大多数人	-8205
我们知道	-8206
政治家们	-8207
日本经济	-8208
更重要的	-8209
欧元危机	-8210
的增长率	-8211
目前正在	-8212
福利国家	-8213
经济繁荣	-8214
自由流动	-8215
还有其他	-8216
高等教育	-8217
▁2000	-8218
▁在经历了	-8219
世界领导人	-8220
的不确定性	-8221
的经济衰退	-8222
通货膨胀率	-8223
部分是因为	-8224
ission	-8225
宏观经济政策	-8226
阿拉伯世界的	-8227
Th	-8228
sh	-8229
不善	-8230
不当	-8231
不用	-8232
两难	-8233
中之	-8234
也与	-8235
亏损	-8236
但我	-8237
低效	-8238
催化	-8239
却被	-8240
厚的	-8241
含量	-8242
和我	-8243
国籍	-8244
处的	-8245
多名	-8246
宝座	-8247
对他	-8248
将以	-8249
巧妙	-8250
常见	-8251
并把	-8252
广义	-8253
强奸	-8254
徒劳	-8255
感情	-8256
慢慢	-8257
打败	-8258
是从	-8259
极低	-8260
根于	-8261
死去	-8262
治愈	-8263
涌现	-8264
清单	-8265
科威	-8266
缩短	-8267
罗夫	-8268
触及	-8269
诽谤	-8270
麦克	-8271
ach	-8272
one	-8273
▁18	-8274
▁他还	-8275
▁令人	-8276
▁还是	-8277
也并不	-8278
也非常	-8279
债权国	-8280
创新性	-8281
副总统	-8282
参与到	-8283
因此而	-8284
国家中	-8285
尔多瓦	-8286
得益于	-8287
情报局	-8288
描述为	-8289
方法是	-8290
是完全	-8291
最基本	-8292
的气候	-8293
的激励	-8294
的直接	-8295
的角度	-8296
的言论	-8297
的身份	-8298
的障碍	-8299
资金的	-8300
集团的	-8301
1981	-8302
▁但它们	-8303
付出代价	-8304
债务水平	-8305
将有助于	-8306
并不令人	-8307
我们现在	-8308
才能实现	-8309
政策利率	-8310
最有可能	-8311
种族隔离	-8312
绝非易事	-8313
集体行动	-8314
▁Comm	-8315
▁我们希望	-8316
的基础设施	-8317
中国人民银行	-8318
在一定程度上	-8319
德国总理默克尔	-8320
新兴市场经济体	-8321
European	-8322
比以往任何时候都	-8323
ie	-8324
▁斯	-8325
上任	-8326
不乏	-8327
与会	-8328
业的	-8329
主意	-8330
买卖	-8331
事项	-8332
亿万	-8333
会是	-8334
关塔	-8335
其后	-8336
剥削	-8337
十字	-8338
半数	-8339
可疑	-8340
同步	-8341
名声	-8342
备受	-8343
多万	-8344
将近	-8345
小撮	-8346
底层	-8347
开战	-8348
征服	-8349
得太	-8350
效力	-8351
无知	-8352
是被	-8353
本币	-8354
此时	-8355
比喻	-8356
水和	-8357
泛滥	-8358
激怒	-8359
燃煤	-8360
的女	-8361
福岛	-8362
福音	-8363
等级	-8364
结婚	-8365
罪犯	-8366
翻番	-8367
胜任	-8368
腺癌	-8369
表演	-8370
言辞	-8371
词汇	-8372
购物	-8373
越大	-8374
轨迹	-8375
道义	-8376
重回	-8377
铺平	-8378
顶级	-8379
麻痹	-8380
3%,	-8381
eal	-8382
ion	-8383
▁危机	-8384
▁波兰	-8385
不足为	-8386
专家们	-8387
为欧洲	-8388
主要由	-8389
也正在	-8390
会议的	-8391
依然在	-8392
公司税	-8393
加勒比	-8394
和贸易	-8395
它可以	-8396
官员们	-8397
将这一	-8398
年美国	-8399
所带来	-8400
措施的	-8401
是一位	-8402
显著的	-8403
源自于	-8404
的认识	-8405
的选票	-8406
答案是	-8407
给他们	-8408
致命的	-8409
负利率	-8410
达尔富	-8411
这两种	-8412
这方面	-8413
适当的	-8414
Fran	-8415
▁决策者	-8416
一个世纪	-8417
一直以来	-8418
不复存在	-8419
丝绸之路	-8420
个成员国	-8421
军事实力	-8422
各不相同	-8423
因为美国	-8424
外交关系	-8425
多哈回合	-8426
就是如此	-8427
我们正在	-8428
截然不同	-8429
摩尔多瓦	-8430
最低工资	-8431
的叙利亚	-8432
的年轻人	-8433
的时候了	-8434
讽刺意味	-8435
这一数字	-8436
银行体系	-8437
▁2006	-8438
社会和政治	-8439
世界经济论坛	-8440
劳动力市场的	-8441
gr	-8442
上面	-8443
也比	-8444
于事	-8445
仪式	-8446
余额	-8447
储户	-8448
冲动	-8449
发育	-8450
吃惊	-8451
听证	-8452
噩梦	-8453
固然	-8454
在眉	-8455
培育	-8456
头条	-8457
奋斗	-8458
奖金	-8459
奴隶	-8460
客观	-8461
并让	-8462
广大	-8463
德克	-8464
技巧	-8465
拉圭	-8466
接入	-8467
次级	-8468
法定	-8469
电厂	-8470
相去	-8471
科尔	-8472
而出	-8473
耻辱	-8474
背负	-8475
药方	-8476
西非	-8477
要好	-8478
赚取	-8479
返回	-8480
邮件	-8481
ath	-8482
▁有时	-8483
▁没人	-8484
▁贸易	-8485
▁这也	-8486
不作为	-8487
代理人	-8488
伊斯坦	-8489
会增加	-8490
债务国	-8491
包括在	-8492
受益于	-8493
在法国	-8494
在眉睫	-8495
奥斯陆	-8496
将无法	-8497
工资和	-8498
已经是	-8499
带一路	-8500
开始时	-8501
政府所	-8502
数字化	-8503
普拉斯	-8504
有一种	-8505
特定的	-8506
的女性	-8507
的机制	-8508
的消费	-8509
的看法	-8510
的领袖	-8511
积极地	-8512
站出来	-8513
能力和	-8514
让中国	-8515
还是在	-8516
还有待	-8517
这不是	-8518
25%。	-8519
Mich	-8520
▁但即便	-8521
▁首先是	-8522
八十年代	-8523
公共政策	-8524
公共服务	-8525
十分重要	-8526
原因在于	-8527
合法性的	-8528
国际金融	-8529
少数群体	-8530
市场力量	-8531
意义上的	-8532
技术官僚	-8533
拉美国家	-8534
政治联盟	-8535
无处不在	-8536
有意义的	-8537
武装冲突	-8538
的全球性	-8539
过度负债	-8540
这一过程	-8541
迫在眉睫	-8542
5,000	-8543
▁发自剑桥	-8544
原子能机构	-8545
必不可少的	-8546
提出了一个	-8547
更重要的是	-8548
梅德韦杰夫	-8549
欧盟领导人	-8550
美国和其他	-8551
解决的问题	-8552
解决问题的	-8553
退出欧元区	-8554
Global	-8555
Ge	-8556
Je	-8557
▁无	-8558
中被	-8559
使之	-8560
偿债	-8561
先决	-8562
克森	-8563
六个	-8564
减小	-8565
分崩	-8566
剩下	-8567
十八	-8568
博客	-8569
原理	-8570
去世	-8571
反常	-8572
和中	-8573
咖啡	-8574
好转	-8575
富翁	-8576
封锁	-8577
将把	-8578
年末	-8579
截止	-8580
手无	-8581
搁置	-8582
既是	-8583
普世	-8584
智力	-8585
根基	-8586
的公	-8587
的水	-8588
看出	-8589
聚焦	-8590
莱斯	-8591
装置	-8592
视角	-8593
询问	-8594
遍布	-8595
重返	-8596
钞票	-8597
间谍	-8598
ant	-8599
ker	-8600
▁Ag	-8601
▁值得	-8602
与发展	-8603
为首的	-8604
主导的	-8605
了欧洲	-8606
似乎在	-8607
催生了	-8608
六个月	-8609
关键性	-8610
分崩离	-8611
利用其	-8612
加起来	-8613
发表了	-8614
另一场	-8615
可能被	-8616
外围国	-8617
多年前	-8618
大公司	-8619
对国家	-8620
就像是	-8621
必须以	-8622
必须是	-8623
成立的	-8624
挑战是	-8625
日本在	-8626
昂贵的	-8627
是多么	-8628
暴露了	-8629
机制的	-8630
法兰克	-8631
独特的	-8632
理由是	-8633
甚至连	-8634
的一位	-8635
的公众	-8636
的时刻	-8637
的理想	-8638
经济上	-8639
而应该	-8640
詹姆斯	-8641
选民们	-8642
避免的	-8643
麦凯恩	-8644
1982	-8645
▁但是在	-8646
▁西班牙	-8647
▁这不是	-8648
全球气候	-8649
可能需要	-8650
哈佛大学	-8651
在这样的	-8652
大幅削减	-8653
政府已经	-8654
整个地区	-8655
更广泛的	-8656
的原因是	-8657
经济问题	-8658
能源价格	-8659
这一进程	-8660
这种方式	-8661
▁其结果是	-8662
印度尼西亚	-8663
大西洋两岸	-8664
巴勒斯坦国	-8665
法国和德国	-8666
的经济危机	-8667
的问题在于	-8668
穆斯林世界	-8669
▁&#160;&#160;&	-8670
Sh	-8671
Tw	-8672
▁后	-8673
▁非	-8674
》。	-8675
丈夫	-8676
不动	-8677
两项	-8678
佩克	-8679
几千	-8680
出去	-8681
刚果	-8682
利于	-8683
十亿	-8684
华沙	-8685
占总	-8686
卢拉	-8687
却不	-8688
厄瓜	-8689
变动	-8690
告知	-8691
处境	-8692
外资	-8693
多于	-8694
安南	-8695
家的	-8696
库存	-8697
微观	-8698
必定	-8699
恐吓	-8700
报导	-8701
援引	-8702
最不	-8703
未经	-8704
来临	-8705
构想	-8706
没错	-8707
浮现	-8708
演说	-8709
点燃	-8710
甚微	-8711
益处	-8712
终身	-8713
蚊子	-8714
输送	-8715
选出	-8716
黑客	-8717
tic	-8718
▁12	-8719
▁la	-8720
▁两个	-8721
▁为何	-8722
▁仅仅	-8723
▁几乎	-8724
▁包括	-8725
▁央行	-8726
▁真正	-8727
▁长期	-8728
一定会	-8729
亚洲和	-8730
但是它	-8731
低通胀	-8732
债务人	-8733
典型的	-8734
制造了	-8735
剥夺了	-8736
剩下的	-8737
加利亚	-8738
化合物	-8739
卡尔德	-8740
发布的	-8741
可贸易	-8742
如今的	-8743
年轻的	-8744
并不会	-8745
并导致	-8746
庸置疑	-8747
强硬派	-8748
很少有	-8749
改革和	-8750
教训是	-8751
方案的	-8752
是一次	-8753
核设施	-8754
民众对	-8755
的合理	-8756
的袭击	-8757
的边缘	-8758
而在于	-8759
贡献了	-8760
贫困和	-8761
这个词	-8762
5000	-8763
▁它们的	-8764
令人沮丧	-8765
依然存在	-8766
公共财政	-8767
分崩离析	-8768
国际合作	-8769
在此期间	-8770
将进一步	-8771
工资增长	-8772
很难想象	-8773
必须得到	-8774
所提供的	-8775
更进一步	-8776
正好相反	-8777
独裁政权	-8778
独裁统治	-8779
环境保护	-8780
现代化的	-8781
联合起来	-8782
苏联解体	-8783
解决之道	-8784
评级机构	-8785
▁恰恰相反	-8786
▁长期以来	-8787
成百上千万	-8788
提高生产率	-8789
世界贸易组织	-8790
外国直接投资	-8791
联合国气候变化	-8792
非常规货币政策	-8793
▁Institu	-8794
▁在这样的背景下	-8795
▁同	-8796
▁向	-8797
一面	-8798
不力	-8799
世卫	-8800
个别	-8801
为数	-8802
了吗	-8803
加索	-8804
反驳	-8805
合成	-8806
品质	-8807
基文	-8808
士顿	-8809
外长	-8810
多人	-8811
大获	-8812
尽力	-8813
市政	-8814
希尔	-8815
开明	-8816
悲惨	-8817
感谢	-8818
我所	-8819
文学	-8820
有毒	-8821
服从	-8822
核弹	-8823
格里	-8824
沙漠	-8825
没了	-8826
灌溉	-8827
生机	-8828
界定	-8829
科斯	-8830
耶伦	-8831
英里	-8832
莱坞	-8833
蒙特	-8834
谈话	-8835
迎合	-8836
都与	-8837
酝酿	-8838
重的	-8839
金属	-8840
零和	-8841
高兴	-8842
齐聚	-8843
ary	-8844
ood	-8845
que	-8846
”、“	-8847
▁Cl	-8848
▁为此	-8849
▁他在	-8850
▁传统	-8851
▁但从	-8852
▁针对	-8853
一百万	-8854
中间派	-8855
人心的	-8856
会继续	-8857
发生后	-8858
发行的	-8859
可不是	-8860
启动了	-8861
奥斯曼	-8862
孩子们	-8863
实现其	-8864
对英国	-8865
就是在	-8866
开始了	-8867
弗拉基	-8868
心脏病	-8869
怎么做	-8870
我们也	-8871
所说的	-8872
摆脱了	-8873
施罗德	-8874
条约的	-8875
波士顿	-8876
潘基文	-8877
生育率	-8878
的发生	-8879
的就业	-8880
的模式	-8881
的法国	-8882
的腐败	-8883
第二轮	-8884
经通胀	-8885
给美国	-8886
肯定的	-8887
苏联的	-8888
菲尔德	-8889
认为是	-8890
讲话中	-8891
页岩气	-8892
预算的	-8893
orld	-8894
▁上个月	-8895
▁伊斯兰	-8896
▁没有人	-8897
他们应该	-8898
健康状况	-8899
国民收入	-8900
土耳其和	-8901
在俄罗斯	-8902
市场份额	-8903
引人注目	-8904
很长时间	-8905
消费支出	-8906
清洁能源	-8907
的经济和	-8908
研究中心	-8909
认真对待	-8910
这些目标	-8911
金融改革	-8912
▁2003	-8913
▁如果没有	-8914
伊斯坦布尔	-8915
会发生什么	-8916
和世界银行	-8917
和基础设施	-8918
国家主席习近平	-8919
ID	-8920
一批	-8921
三次	-8922
上学	-8923
为之	-8924
乐于	-8925
也已	-8926
人体	-8927
倒塌	-8928
充其	-8929
军力	-8930
分钟	-8931
协力	-8932
变异	-8933
同胞	-8934
四倍	-8935
地在	-8936
垮台	-8937
多米	-8938
天安	-8939
太少	-8940
定律	-8941
宽带	-8942
小儿	-8943
局部	-8944
幕后	-8945
所言	-8946
无效	-8947
无非	-8948
明天	-8949
景象	-8950
最坏	-8951
月中	-8952
次于	-8953
沿岸	-8954
流感	-8955
猛烈	-8956
瑟夫	-8957
甘地	-8958
疑虑	-8959
群岛	-8960
薄弱	-8961
西兰	-8962
议案	-8963
贝鲁	-8964
迁移	-8965
降临	-8966
马丁	-8967
FTA	-8968
TIP	-8969
ris	-8970
▁此次	-8971
▁该国	-8972
不同意	-8973
中东欧	-8974
丰富的	-8975
为目标	-8976
了一半	-8977
五年前	-8978
促成了	-8979
信息的	-8980
公正的	-8981
具体的	-8982
冲突和	-8983
凸显了	-8984
可以以	-8985
四分之	-8986
大革命	-8987
实际的	-8988
将会在	-8989
希腊和	-8990
年期间	-8991
引入了	-8992
我们就	-8993
手段来	-8994
承担了	-8995
承诺要	-8996
推出了	-8997
改善了	-8998
欧盟在	-8999
甚至在	-9000
的一步	-9001
的交易	-9002
的优势	-9003
的工人	-9004
的投票	-9005
的消息	-9006
的解释	-9007
的过度	-9008
着一个	-9009
第三次	-9010
而受到	-9011
能够为	-9012
这可能	-9013
铀浓缩	-9014
错误地	-9015
集中于	-9016
▁197	-9017
▁类似的	-9018
之处在于	-9019
之间存在	-9020
先决条件	-9021
公共支出	-9022
共和国的	-9023
和美国的	-9024
对他们的	-9025
将不得不	-9026
无论如何	-9027
明确表示	-9028
比较优势	-9029
没有理由	-9030
的受害者	-9031
的大多数	-9032
的环境中	-9033
精英阶层	-9034
而不能倒	-9035
这些挑战	-9036
金融服务	-9037
齐普拉斯	-9038
弗拉基米尔	-9039
的人道主义	-9040
44	-9041
BR	-9042
PA	-9043
▁n	-9044
一群	-9045
主办	-9046
人听	-9047
以内	-9048
伪善	-9049
佛罗	-9050
修补	-9051
偏远	-9052
克罗	-9053
冒着	-9054
分类	-9055
列宁	-9056
包装	-9057
反馈	-9058
回购	-9059
囤积	-9060
坚实	-9061
大门	-9062
太空	-9063
幸存	-9064
很长	-9065
志愿	-9066
总共	-9067
愉快	-9068
推特	-9069
携手	-9070
曾说	-9071
有余	-9072
残暴	-9073
深思	-9074
混淆	-9075
澄清	-9076
球员	-9077
的受	-9078
砍伐	-9079
私下	-9080
罗塞	-9081
老板	-9082
老牌	-9083
能使	-9084
花旗	-9085
赖以	-9086
走私	-9087
鸿沟	-9088
▁10	-9089
▁11	-9090
▁两国	-9091
▁举例	-9092
▁教育	-9093
一个更	-9094
丧失了	-9095
从现在	-9096
他们就	-9097
包含了	-9098
又一个	-9099
发动了	-9100
增强了	-9101
妇女和	-9102
实在在	-9103
实质性	-9104
将不会	-9105
将增加	-9106
将带来	-9107
并确保	-9108
必须将	-9109
所有者	-9110
效率和	-9111
斯坦福	-9112
有利的	-9113
有没有	-9114
植根于	-9115
的系统	-9116
的财富	-9117
的进程	-9118
的通胀	-9119
约翰逊	-9120
美国与	-9121
能产生	-9122
舞台上	-9123
萨科奇	-9124
资本的	-9125
辅之以	-9126
迈克尔	-9127
避免了	-9128
那里的	-9129
里程碑	-9130
降低到	-9131
50%。	-9132
▁Pol	-9133
▁如果不	-9134
▁纽黑文	-9135
价格稳定	-9136
伊拉克人	-9137
做出反应	-9138
厄瓜多尔	-9139
实实在在	-9140
宪法法院	-9141
就意味着	-9142
某些国家	-9143
欧洲各国	-9144
武装力量	-9145
紧张关系	-9146
贸易谈判	-9147
重新思考	-9148
长久以来	-9149
降低利率	-9150
itter	-9151
▁这是因为	-9152
令人瞩目的	-9153
入侵伊拉克	-9154
收入不平等	-9155
美国和英国	-9156
所面临的挑战	-9157
▁这就是为什么	-9158
National	-9159
KP	-9160
▁米	-9161
一大	-9162
下行	-9163
之年	-9164
亚历	-9165
亚马	-9166
亨利	-9167
优质	-9168
健全	-9169
公然	-9170
公认	-9171
前瞻	-9172
加重	-9173
区区	-9174
南北	-9175
参选	-9176
同僚	-9177
同行	-9178
国土	-9179
堕落	-9180
处决	-9181
大声	-9182
大部	-9183
头的	-9184
学派	-9185
定向	-9186
实证	-9187
审计	-9188
微弱	-9189
或多	-9190
把握	-9191
拥护	-9192
斯克	-9193
既有	-9194
服装	-9195
末日	-9196
枯竭	-9197
次贷	-9198
演化	-9199
玉米	-9200
疏远	-9201
相近	-9202
秋天	-9203
突变	-9204
而代	-9205
肺炎	-9206
能给	-9207
自卫	-9208
裁定	-9209
说辞	-9210
身边	-9211
过往	-9212
连贯	-9213
顾客	-9214
ond	-9215
▁re	-9216
▁剑桥	-9217
▁更为	-9218
中得到	-9219
为世界	-9220
以一种	-9221
以实现	-9222
以换取	-9223
众多的	-9224
似乎也	-9225
充其量	-9226
公务员	-9227
分析家	-9228
创始人	-9229
加强了	-9230
只是在	-9231
国内外	-9232
对世界	-9233
常见的	-9234
我们要	-9235
扩大到	-9236
技术上	-9237
数十万	-9238
新一代	-9239
服务于	-9240
核协议	-9241
核国家	-9242
欧佩克	-9243
游击队	-9244
演变成	-9245
激进的	-9246
热衷于	-9247
的信念	-9248
的信誉	-9249
的冲击	-9250
的成员	-9251
的知识	-9252
硬着陆	-9253
简单地	-9254
被允许	-9255
让世界	-9256
说服力	-9257
金融和	-9258
▁第三个	-9259
也不应该	-9260
事实证明	-9261
俄罗斯在	-9262
保加利亚	-9263
全世界最	-9264
十分困难	-9265
在短期内	-9266
小儿麻痹	-9267
提醒我们	-9268
政府可以	-9269
无法实现	-9270
欧盟宪法	-9271
没有得到	-9272
生活质量	-9273
的投资者	-9274
种族主义	-9275
这些因素	-9276
重大影响	-9277
重要性的	-9278
金融企业	-9279
▁2004	-9280
中东地区的	-9281
多大程度上	-9282
已经发生了	-9283
欧洲和美国	-9284
民主国家的	-9285
的主要原因	-9286
美国和中国	-9287
▁从这个角度讲	-9288
俄罗斯总统普京	-9289
▁Economic	-9290
ly	-9291
▁仅	-9292
于衷	-9293
体重	-9294
兴亚	-9295
决裂	-9296
初始	-9297
勉强	-9298
压抑	-9299
合格	-9300
和他	-9301
和大	-9302
四大	-9303
坐视	-9304
坚守	-9305
复国	-9306
女权	-9307
延迟	-9308
引领	-9309
归属	-9310
战役	-9311
抗击	-9312
护理	-9313
摄氏	-9314
放大	-9315
无异	-9316
是与	-9317
是无	-9318
是谁	-9319
替换	-9320
本已	-9321
枢纽	-9322
治下	-9323
沿着	-9324
渺茫	-9325
现场	-9326
生长	-9327
的好	-9328
管齐	-9329
绝不	-9330
维基	-9331
节奏	-9332
行之	-9333
观众	-9334
诊所	-9335
调停	-9336
谋求	-9337
贫民	-9338
赶上	-9339
践踏	-9340
轴心	-9341
近来	-9342
里约	-9343
随处	-9344
驱使	-9345
高峰	-9346
高额	-9347
鸦片	-9348
黑人	-9349
黯淡	-9350
Jam	-9351
ack	-9352
▁Al	-9353
▁主要	-9354
▁每年	-9355
▁认为	-9356
▁通常	-9357
不具备	-9358
与其说	-9359
严厉的	-9360
举行了	-9361
以前的	-9362
传染性	-9363
公司在	-9364
创造力	-9365
动于衷	-9366
十年后	-9367
去监管	-9368
合法化	-9369
和自由	-9370
在一些	-9371
增值税	-9372
大使馆	-9373
对我们	-9374
局限性	-9375
年之前	-9376
年后的	-9377
打破了	-9378
抑郁症	-9379
数量的	-9380
朝鲜的	-9381
极高的	-9382
某些人	-9383
现在就	-9384
生命的	-9385
的中心	-9386
的份额	-9387
的伊朗	-9388
的对话	-9389
看作是	-9390
竞争者	-9391
第一大	-9392
罗兴亚	-9393
财富的	-9394
责任的	-9395
达尔文	-9396
还不够	-9397
这正是	-9398
遭遇了	-9399
arry	-9400
▁一些人	-9401
▁一开始	-9402
▁有些人	-9403
不足为奇	-9404
世界秩序	-9405
医疗卫生	-9406
可持续的	-9407
可能带来	-9408
周年纪念	-9409
国际秩序	-9410
坚持认为	-9411
年代中期	-9412
应该成为	-9413
拒绝承认	-9414
收入水平	-9415
是否真的	-9416
普通民众	-9417
正在进行	-9418
每个国家	-9419
的共和党	-9420
相去甚远	-9421
破坏性的	-9422
美国及其	-9423
财政整合	-9424
非洲大陆	-9425
ealth	-9426
▁发自伦敦	-9427
巴基斯坦的	-9428
所说的那样	-9429
扮演的角色	-9430
的经济复苏	-9431
世界其他地方	-9432
跨太平洋合作伙伴关系	-9433
,3	-9434
FS	-9435
▁h	-9436
上而	-9437
不成	-9438
不时	-9439
中介	-9440
中叶	-9441
任由	-9442
会说	-9443
伦齐	-9444
侵害	-9445
偶然	-9446
僵化	-9447
先锋	-9448
划定	-9449
到处	-9450
加尔	-9451
加斯	-9452
卡尼	-9453
合并	-9454
吸纳	-9455
和在	-9456
奥塞	-9457
小额	-9458
已然	-9459
年均	-9460
异见	-9461
强权	-9462
影片	-9463
总数	-9464
折扣	-9465
攫取	-9466
服用	-9467
朴槿	-9468
格林	-9469
次要	-9470
泄漏	-9471
法的	-9472
波及	-9473
流亡	-9474
测算	-9475
深感	-9476
相符	-9477
省份	-9478
禁运	-9479
穿越	-9480
美日	-9481
苦苦	-9482
虚弱	-9483
读者	-9484
起初	-9485
跻身	-9486
迷失	-9487
隐性	-9488
霍尔	-9489
预想	-9490
颇有	-9491
驻扎	-9492
鼓动	-9493
ect	-9494
▁出于	-9495
▁另一	-9496
▁而当	-9497
▁需要	-9498
上加霜	-9499
他们都	-9500
他认为	-9501
债务和	-9502
关键的	-9503
出一个	-9504
利益和	-9505
取消了	-9506
可行性	-9507
和军事	-9508
和实施	-9509
在危机	-9510
宏大的	-9511
将产生	-9512
就一直	-9513
希腊人	-9514
应该为	-9515
必需的	-9516
患者的	-9517
所需要	-9518
手中的	-9519
无条件	-9520
最小化	-9521
朴槿惠	-9522
格拉斯	-9523
治下的	-9524
爆发了	-9525
环境和	-9526
理查德	-9527
的人才	-9528
的大型	-9529
的对象	-9530
的美元	-9531
约瑟夫	-9532
经历过	-9533
肺结核	-9534
让欧洲	-9535
试图将	-9536
资源和	-9537
超越了	-9538
马歇尔	-9539
orge	-9540
▁欧盟的	-9541
▁阿富汗	-9542
▁黎巴嫩	-9543
一切代价	-9544
不仅限于	-9545
中的作用	-9546
也面临着	-9547
信息技术	-9548
几十年中	-9549
受到威胁	-9550
可能出现	-9551
对于那些	-9552
工作时间	-9553
已经证明	-9554
巴黎协定	-9555
我们这个	-9556
或许可以	-9557
技术创新	-9558
政治上的	-9559
无动于衷	-9560
武装分子	-9561
流动性的	-9562
甚至可以	-9563
的世界中	-9564
的成员国	-9565
继续下去	-9566
贸易壁垒	-9567
资本要求	-9568
达尔富尔	-9569
这是因为	-9570
这种方法	-9571
ative	-9572
▁正因如此	-9573
不断增长的	-9574
他们自己的	-9575
以色列总理	-9576
美国和欧盟	-9577
af	-9578
ue	-9579
一张	-9580
不见	-9581
中断	-9582
二次	-9583
他还	-9584
保密	-9585
典范	-9586
凌驾	-9587
初步	-9588
利的	-9589
卓越	-9590
卡拉	-9591
只需	-9592
合乎	-9593
名叫	-9594
呼吸	-9595
和谈	-9596
哈特	-9597
图景	-9598
夫妇	-9599
并向	-9600
扎伊	-9601
振兴	-9602
捐款	-9603
掣肘	-9604
提倡	-9605
摇摇	-9606
收拾	-9607
放宽	-9608
教义	-9609
旧的	-9610
普尔	-9611
权势	-9612
来了	-9613
核子	-9614
滑向	-9615
熟练	-9616
罗格	-9617
罪名	-9618
美金	-9619
脊髓	-9620
茶党	-9621
被控	-9622
被杀	-9623
要说	-9624
要高	-9625
讲述	-9626
论断	-9627
金斯	-9628
预先	-9629
HIV	-9630
Jos	-9631
NCD	-9632
ald	-9633
ice	-9634
lan	-9635
res	-9636
▁现代	-9637
▁现实	-9638
上一次	-9639
不安全	-9640
也不再	-9641
亚马逊	-9642
人听闻	-9643
以防止	-9644
你可以	-9645
公民的	-9646
分析师	-9647
利率的	-9648
卡斯特	-9649
合法的	-9650
后者的	-9651
和保护	-9652
国政府	-9653
国有化	-9654
坚定的	-9655
如果它	-9656
将如何	-9657
差不多	-9658
巴尼亚	-9659
帮助下	-9660
平衡的	-9661
并不像	-9662
应该将	-9663
成本和	-9664
战略的	-9665
控制了	-9666
推翻了	-9667
掩盖了	-9668
支持下	-9669
教科书	-9670
方面都	-9671
无疑是	-9672
明确地	-9673
更有效	-9674
最终会	-9675
最需要	-9676
来支持	-9677
来说是	-9678
比以前	-9679
泰米尔	-9680
的妇女	-9681
的宗教	-9682
的攻击	-9683
的极端	-9684
的某些	-9685
社会中	-9686
等其他	-9687
绝不会	-9688
蛋白质	-9689
规模的	-9690
解决了	-9691
计划在	-9692
贫困的	-9693
贸易的	-9694
还要多	-9695
这不仅	-9696
远高于	-9697
道导弹	-9698
1968	-9699
eter	-9700
▁但欧洲	-9701
▁但由于	-9702
人口增长	-9703
令人难以	-9704
固定汇率	-9705
国际组织	-9706
巴黎气候	-9707
我们能够	-9708
接下来的	-9709
效率低下	-9710
更多的人	-9711
有利可图	-9712
法兰克福	-9713
的候选人	-9714
的前提下	-9715
相互依存	-9716
经验表明	-9717
统计数据	-9718
而是因为	-9719
自然灾害	-9720
英国政府	-9721
贫穷国家	-9722
遗憾的是	-9723
雪上加霜	-9724
高级官员	-9725
主要经济体	-9726
发展中世界	-9727
叙利亚内战	-9728
基础设施和	-9729
小儿麻痹症	-9730
房地产市场	-9731
经济增长和	-9732
阿尔巴尼亚	-9733
▁沙特阿拉伯	-9734
一战	-9735
一笔	-9736
不敢	-9737
东海	-9738
书籍	-9739
人人	-9740
他也	-9741
仲裁	-9742
伎俩	-9743
位居	-9744
保住	-9745
克格	-9746
入狱	-9747
冰川	-9748
出身	-9749
区间	-9750
占比	-9751
卢卡	-9752
压低	-9753
反犹	-9754
地亚	-9755
复燃	-9756
宁愿	-9757
尼尔	-9758
巨量	-9759
巴罗	-9760
布托	-9761
并与	-9762
废墟	-9763
引向	-9764
忌惮	-9765
快乐	-9766
恰好	-9767
挤兑	-9768
掀起	-9769
无不	-9770
普罗	-9771
本周	-9772
权重	-9773
欲坠	-9774
殆尽	-9775
气氛	-9776
热烈	-9777
特质	-9778
率和	-9779
磋商	-9780
空军	-9781
笔者	-9782
篮子	-9783
纳斯	-9784
维系	-9785
罪恶	-9786
荣誉	-9787
蒙蒂	-9788
血液	-9789
行径	-9790
被动	-9791
观看	-9792
论据	-9793
请求	-9794
赫特	-9795
较小	-9796
这点	-9797
透露	-9798
通用	-9799
错的	-9800
闻名	-9801
隐瞒	-9802
青少	-9803
额度	-9804
900	-9805
MDG	-9806
ian	-9807
ina	-9808
olf	-9809
ree	-9810
▁25	-9811
▁3%	-9812
▁我在	-9813
▁放眼	-9814
▁货币	-9815
亚投行	-9816
仅次于	-9817
以支持	-9818
任期内	-9819
保护和	-9820
停留在	-9821
催化剂	-9822
克格勃	-9823
农作物	-9824
凌驾于	-9825
危机和	-9826
取而代	-9827
合作和	-9828
否决权	-9829
和家庭	-9830
在西方	-9831
基础的	-9832
大城市	-9833
威胁要	-9834
很长的	-9835
思想家	-9836
恢复了	-9837
执行的	-9838
报告中	-9839
摧毁了	-9840
有一点	-9841
极少数	-9842
永远是	-9843
现实中	-9844
的基因	-9845
的大选	-9846
的对手	-9847
的政党	-9848
的范围	-9849
等方面	-9850
管理层	-9851
结束的	-9852
罗格夫	-9853
而这种	-9854
自民党	-9855
观点的	-9856
解放军	-9857
过时的	-9858
还可能	-9859
进程的	-9860
预防性	-9861
高加索	-9862
▁同样地	-9863
▁美国在	-9864
▁阿拉伯	-9865
一带一路	-9866
什么时候	-9867
仍然没有	-9868
任何国家	-9869
候选人的	-9870
只有一个	-9871
在最近的	-9872
实现这一	-9873
必须通过	-9874
成立一个	-9875
我们不能	-9876
所引发的	-9877
摇摇欲坠	-9878
最高领袖	-9879
的欧元区	-9880
约束力的	-9881
退休年龄	-9882
重新分配	-9883
重新谈判	-9884
银行联盟	-9885
长期停滞	-9886
,2011	-9887
▁但是如果	-9888
▁其他国家	-9889
▁埃尔多安	-9890
▁布什政府	-9891
主要是因为	-9892
共产主义的	-9893
某种形式的	-9894
欧洲央行的	-9895
的一个重要	-9896
经济增长率	-9897
美国国务卿	-9898
阿萨德政权	-9899
欧洲货币联盟	-9900
意大利和西班牙	-9901
PD	-9902
iz	-9903
lo	-9904
uk	-9905
▁v	-9906
一只	-9907
不公	-9908
不啻	-9909
中日	-9910
之门	-9911
也正	-9912
了他	-9913
他国	-9914
作俑	-9915
偏执	-9916
先发	-9917
出租	-9918
反腐	-9919
向下	-9920
因其	-9921
塞拉	-9922
大坝	-9923
大楼	-9924
失调	-9925
家人	-9926
峰值	-9927
延缓	-9928
强人	-9929
惯例	-9930
数年	-9931
斯堪	-9932
时常	-9933
泰勒	-9934
滋生	-9935
演变	-9936
灰质	-9937
特性	-9938
男子	-9939
礼物	-9940
禁忌	-9941
红色	-9942
缺点	-9943
罚款	-9944
罹患	-9945
莫拉	-9946
螺旋	-9947
规律	-9948
视频	-9949
话语	-9950
路易	-9951
转为	-9952
过热	-9953
连锁	-9954
退化	-9955
部族	-9956
重心	-9957
闹剧	-9958
霸主	-9959
顾虑	-9960
骗局	-9961
鹰派	-9962
350	-9963
ast	-9964
erv	-9965
▁具有	-9966
▁唯一	-9967
▁有关	-9968
▁美元	-9969
▁这类	-9970
三个月	-9971
下跌了	-9972
中之重	-9973
中国海	-9974
为一个	-9975
乳腺癌	-9976
交易所	-9977
以失败	-9978
儿童的	-9979
农产品	-9980
发言权	-9981
和控制	-9982
和资本	-9983
地区和	-9984
始作俑	-9985
实行的	-9986
对其他	-9987
对政府	-9988
将他们	-9989
崛起的	-9990
应该对	-9991
建筑业	-9992
情形中	-9993
或多或	-9994
战争和	-9995
承担起	-9996
把这些	-9997
指出了	-9998
时间和	-9999
是一件	-10000
月以来	-10001
波斯湾	-10002
消费税	-10003
灰质炎	-10004
犯下的	-10005
的群体	-10006
的西方	-10007
竞争的	-10008
第一位	-10009
第三大	-10010
罗塞夫	-10011
罗纳德	-10012
美国所	-10013
能够以	-10014
衰退的	-10015
让政府	-10016
超出了	-10017
还为时	-10018
reen	-10019
▁其中的	-10020
▁在最近	-10021
▁而如今	-10022
▁而尽管	-10023
▁近年来	-10024
不断上升	-10025
也不例外	-10026
亚太地区	-10027
军事政变	-10028
出口导向	-10029
卡斯特罗	-10030
发生变化	-10031
取而代之	-10032
国民债务	-10033
多个国家	-10034
宗教信仰	-10035
家庭收入	-10036
援助计划	-10037
日本银行	-10038
有所增加	-10039
特朗普和	-10040
相关利益	-10041
经济制裁	-10042
这一挑战	-10043
,2015	-10044
▁如果中国	-10045
▁如果他们	-10046
已经过去了	-10047
根深蒂固的	-10048
脊髓灰质炎	-10049
伊斯兰主义者	-10050
发达经济体的	-10051
和发展中国家	-10052
应对气候变化	-10053
▁果真如此的话	-10054
以色列和巴勒斯坦	-10055
AA	-10056
IA	-10057
▁多	-10058
▁布	-10059
万个	-10060
上来	-10061
上都	-10062
之手	-10063
亲眼	-10064
人性	-10065
但不	-10066
光靠	-10067
党内	-10068
共担	-10069
关门	-10070
军人	-10071
冷漠	-10072
列强	-10073
利斯	-10074
前例	-10075
又会	-10076
可危	-10077
听取	-10078
处方	-10079
夸大	-10080
委托	-10081
宪政	-10082
岌岌	-10083
并由	-10084
归结	-10085
当权	-10086
截至	-10087
所要	-10088
抉择	-10089
放心	-10090
敢于	-10091
无序	-10092
明了	-10093
是为	-10094
智库	-10095
最早	-10096
杀手	-10097
欲望	-10098
步入	-10099
消退	-10100
激情	-10101
电信	-10102
男人	-10103
略微	-10104
的纳	-10105
碎片	-10106
神秘	-10107
童工	-10108
纯属	-10109
维埃	-10110
罢工	-10111
联网	-10112
腐蚀	-10113
蔑视	-10114
象棋	-10115
贫富	-10116
贯彻	-10117
赌博	-10118
转化	-10119
输入	-10120
连串	-10121
迟迟	-10122
迪拜	-10123
送到	-10124
遗忘	-10125
金氏	-10126
面目	-10127
革新	-10128
预警	-10129
高盛	-10130
齐心	-10131
Ben	-10132
ael	-10133
ark	-10134
ork	-10135
per	-10136
red	-10137
umm	-10138
▁4%	-10139
▁un	-10140
▁这在	-10141
为导向	-10142
为核心	-10143
主席国	-10144
了一条	-10145
使用了	-10146
冲突中	-10147
出口商	-10148
历史性	-10149
参与率	-10150
可信的	-10151
和货币	-10152
哈里发	-10153
困扰着	-10154
在很多	-10155
失去的	-10156
并将其	-10157
开启了	-10158
无前例	-10159
是没有	-10160
最后一	-10161
的人士	-10162
的声音	-10163
的日子	-10164
的疾病	-10165
的盟友	-10166
的运动	-10167
的还有	-10168
监管的	-10169
相矛盾	-10170
知识的	-10171
确定的	-10172
福克斯	-10173
繁荣和	-10174
艰难的	-10175
解决的	-10176
设计的	-10177
该机构	-10178
预计将	-10179
able	-10180
inan	-10181
▁Res	-10182
▁而这一	-10183
▁阿根廷	-10184
临床试验	-10185
人们认为	-10186
令人印象	-10187
以及美国	-10188
克罗地亚	-10189
共同货币	-10190
北欧国家	-10191
即所谓的	-10192
双边贸易	-10193
变得日益	-10194
哪个国家	-10195
国内经济	-10196
它们可以	-10197
岌岌可危	-10198
德克萨斯	-10199
德国政府	-10200
意大利的	-10201
投资项目	-10202
无所作为	-10203
毫无意义	-10204
联邦储备	-10205
行动计划	-10206
这一点上	-10207
这种做法	-10208
金融交易	-10209
领导下的	-10210
,2010	-10211
▁近几年来	-10212
从一开始就	-10213
付出的代价	-10214
▁欧盟委员会	-10215
不惜一切代价	-10216
创造就业机会	-10217
欧洲央行行长	-10218
讽刺意味的是	-10219
Twitter	-10220
BM	-10221
ya	-10222
▁下	-10223
▁还	-10224
下属	-10225
不计	-10226
世人	-10227
仅占	-10228
们的	-10229
伊始	-10230
作风	-10231
倘若	-10232
克什	-10233
公园	-10234
共鸣	-10235
前夕	-10236
力地	-10237
力更	-10238
加工	-10239
助推	-10240
半球	-10241
南美	-10242
参考	-10243
取缔	-10244
可比	-10245
史蒂	-10246
吉拉	-10247
向来	-10248
听众	-10249
在为	-10250
塞拜	-10251
处置	-10252
媲美	-10253
定在	-10254
尽量	-10255
年被	-10256
库德	-10257
微小	-10258
快于	-10259
感受	-10260
战火	-10261
拍卖	-10262
拥挤	-10263
据此	-10264
推测	-10265
掩饰	-10266
改良	-10267
救命	-10268
景气	-10269
更糟	-10270
更长	-10271
油气	-10272
洞见	-10273
添加	-10274
犯下	-10275
班加	-10276
理智	-10277
筹资	-10278
累计	-10279
而未	-10280
获利	-10281
表决	-10282
角落	-10283
说话	-10284
走了	-10285
跟进	-10286
铭记	-10287
高官	-10288
7%。	-10289
AKP	-10290
age	-10291
▁市场	-10292
▁建立	-10293
▁自由	-10294
▁这与	-10295
▁这对	-10296
一小撮	-10297
一揽子	-10298
为全球	-10299
也十分	-10300
伙伴国	-10301
但如今	-10302
例子中	-10303
债券的	-10304
充足的	-10305
再融资	-10306
几年的	-10307
却依然	-10308
可以是	-10309
呈现出	-10310
和未来	-10311
和治疗	-10312
和法国	-10313
塞拜疆	-10314
它们将	-10315
对日本	-10316
将军们	-10317
将美国	-10318
布拉格	-10319
年全球	-10320
据估计	-10321
政权更	-10322
旅游业	-10323
是他们	-10324
最初的	-10325
核扩散	-10326
每年的	-10327
的人物	-10328
的健康	-10329
的报道	-10330
的那些	-10331
相关性	-10332
结束时	-10333
而易举	-10334
能得到	-10335
轻易地	-10336
通常会	-10337
通胀的	-10338
都可能	-10339
都表明	-10340
韩国和	-10341
30%。	-10342
avid	-10343
ersh	-10344
▁投资者	-10345
▁这需要	-10346
不良贷款	-10347
其它国家	-10348
包括美国	-10349
发展趋势	-10350
史无前例	-10351
始作俑者	-10352
实质性的	-10353
总统竞选	-10354
想象一下	-10355
收支平衡	-10356
更多的钱	-10357
更有效地	-10358
气候政策	-10359
特朗普在	-10360
生产率的	-10361
的目标是	-10362
相似之处	-10363
纳税人的	-10364
经济上的	-10365
美国公司	-10366
联邦基金	-10367
艾哈迈迪	-10368
范围内的	-10369
萎靡不振	-10370
认为美国	-10371
资本外逃	-10372
轻而易举	-10373
过程中的	-10374
这些机构	-10375
都有可能	-10376
,2013	-10377
▁如果欧洲	-10378
万亿美元的	-10379
预见的未来	-10380
George	-10381
亚洲金融危机	-10382
基础设施项目	-10383
国际原子能机构	-10384
48	-10385
49	-10386
75	-10387
Ar	-10388
ph	-10389
▁受	-10390
一日	-10391
一月	-10392
三角	-10393
不快	-10394
业绩	-10395
之旅	-10396
也从	-10397
买家	-10398
令其	-10399
以其	-10400
低廉	-10401
余地	-10402
免遭	-10403
冠军	-10404
几位	-10405
几率	-10406
则为	-10407
则会	-10408
剧变	-10409
力求	-10410
南极	-10411
卢森	-10412
卢比	-10413
原料	-10414
反美	-10415
叫做	-10416
召集	-10417
可怜	-10418
可用	-10419
嘲笑	-10420
回了	-10421
回国	-10422
在我	-10423
坦克	-10424
基点	-10425
堕胎	-10426
夺取	-10427
布勒	-10428
带头	-10429
度假	-10430
度过	-10431
建成	-10432
异议	-10433
彰显	-10434
新任	-10435
无穷	-10436
杜罗	-10437
没完	-10438
清真	-10439
热门	-10440
电池	-10441
盯住	-10442
税务	-10443
而有	-10444
而生	-10445
聚变	-10446
胚胎	-10447
萨利	-10448
薪水	-10449
说他	-10450
谬误	-10451
走到	-10452
逃脱	-10453
逍遥	-10454
重于	-10455
附带	-10456
隔绝	-10457
鲜有	-10458
默许	-10459
75%	-10460
ARC	-10461
ven	-10462
▁冷战	-10463
一个新	-10464
一定的	-10465
主权的	-10466
也不愿	-10467
也并非	-10468
了这个	-10469
事实是	-10470
但现在	-10471
低下的	-10472
军队的	-10473
发现的	-10474
另一位	-10475
可能让	-10476
和西方	-10477
和银行	-10478
地球上	-10479
坚定地	-10480
宣布了	-10481
将超过	-10482
引出了	-10483
很高的	-10484
必须要	-10485
怎样的	-10486
性问题	-10487
才开始	-10488
托马斯	-10489
拉加德	-10490
既没有	-10491
是不会	-10492
是由于	-10493
有组织	-10494
束手无	-10495
来形容	-10496
清真寺	-10497
生产和	-10498
的大国	-10499
的宪法	-10500
的话题	-10501
的转变	-10502
苏维埃	-10503
认为这	-10504
过程的	-10505
这两大	-10506
遭受了	-10507
附加值	-10508
TTIP	-10509
▁不久前	-10510
▁在这里	-10511
▁这对于	-10512
不稳定的	-10513
也出现了	-10514
也越来越	-10515
决定是否	-10516
可以带来	-10517
和叙利亚	-10518
在华盛顿	-10519
多边主义	-10520
宏观审慎	-10521
寻求庇护	-10522
将是一个	-10523
弱势群体	-10524
情报机构	-10525
提供融资	-10526
斯洛伐克	-10527
波罗的海	-10528
海湾国家	-10529
特里赫特	-10530
犹太人的	-10531
犹太复国	-10532
研究成果	-10533
社会民主	-10534
税收制度	-10535
纽约时报	-10536
美元贬值	-10537
职业生涯	-10538
,2014	-10539
3,000	-10540
meric	-10541
▁具体而言	-10542
▁迄今为止	-10543
▁这个问题	-10544
伊斯兰革命	-10545
伊朗核计划	-10546
工业化国家	-10547
是不可能的	-10548
的增长模式	-10549
的民族主义	-10550
的财政政策	-10551
财政政策的	-10552
▁内塔尼亚胡	-10553
太大而不能倒	-10554
特别是考虑到	-10555
马斯特里赫特	-10556
,5	-10557
36	-10558
▁t	-10559
▁二	-10560
▁人	-10561
▁各	-10562
一块	-10563
一股	-10564
下调	-10565
不决	-10566
不禁	-10567
为由	-10568
乘数	-10569
事后	-10570
们在	-10571
倾斜	-10572
再到	-10573
出路	-10574
划分	-10575
初期	-10576
利昂	-10577
动议	-10578
博士	-10579
占到	-10580
又在	-10581
古典	-10582
只在	-10583
可言	-10584
回收	-10585
头巾	-10586
宣誓	-10587
尔顿	-10588
巧合	-10589
平庸	-10590
年至	-10591
幽灵	-10592
度和	-10593
建制	-10594
开了	-10595
总和	-10596
惨重	-10597
挫败	-10598
放贷	-10599
政见	-10600
日报	-10601
明朗	-10602
晓夫	-10603
暴涨	-10604
有待	-10605
欠缺	-10606
注资	-10607
的近	-10608
看见	-10609
种类	-10610
空白	-10611
筛查	-10612
肆意	-10613
脚步	-10614
节能	-10615
落到	-10616
觉醒	-10617
轻微	-10618
辉煌	-10619
运气	-10620
远程	-10621
集会	-10622
骚扰	-10623
高中	-10624
7%,	-10625
ley	-10626
▁9%	-10627
▁北约	-10628
▁如何	-10629
▁拥有	-10630
一个由	-10631
也只能	-10632
也应当	-10633
了我们	-10634
了道路	-10635
代人的	-10636
以保护	-10637
但这种	-10638
低技能	-10639
保护的	-10640
兰克林	-10641
共同点	-10642
卢森堡	-10643
发出了	-10644
和医疗	-10645
国防部	-10646
失败了	-10647
媒体和	-10648
对政治	-10649
应该从	-10650
性行为	-10651
总体上	-10652
所产生	-10653
所导致	-10654
拥有了	-10655
政党的	-10656
暂时的	-10657
更强的	-10658
有任何	-10659
来维持	-10660
柏林墙	-10661
核武库	-10662
欧洲在	-10663
潜力的	-10664
灵活的	-10665
现在是	-10666
甚至比	-10667
的两个	-10668
的主题	-10669
的全部	-10670
的工资	-10671
的改变	-10672
的革命	-10673
相似的	-10674
碳定价	-10675
签署的	-10676
缺陷的	-10677
罗姆人	-10678
而不会	-10679
被忽视	-10680
被要求	-10681
证实了	-10682
辩论中	-10683
还存在	-10684
这对于	-10685
进行过	-10686
道理的	-10687
钦斯基	-10688
领导下	-10689
马德里	-10690
1988	-10691
20%,	-10692
30%,	-10693
▁而这些	-10694
世卫组织	-10695
中的一个	-10696
主义者的	-10697
利益相关	-10698
叙利亚和	-10699
只有通过	-10700
名义利率	-10701
和他们的	-10702
和墨西哥	-10703
在欧元区	-10704
多元文化	-10705
大大增加	-10706
对中国的	-10707
对冲基金	-10708
将取决于	-10709
已经存在	-10710
希望看到	-10711
弹道导弹	-10712
或多或少	-10713
承担责任	-10714
提供一个	-10715
提供帮助	-10716
施加压力	-10717
更加难以	-10718
更有效的	-10719
本国货币	-10720
束手无策	-10721
每个人都	-10722
溢出效应	-10723
激进分子	-10724
白俄罗斯	-10725
研究发现	-10726
能源效率	-10727
贸易顺差	-10728
赫鲁晓夫	-10729
这种状况	-10730
退休基金	-10731
通胀预期	-10732
金融动荡	-10733
阿卜杜拉	-10734
阿塞拜疆	-10735
领导人在	-10736
—2008	-10737
▁特朗普的	-10738
▁美国总统	-10739
世界经济的	-10740
之间的冲突	-10741
完全不同的	-10742
实现这一点	-10743
清楚地表明	-10744
自己的国家	-10745
越来越大的	-10746
这样的结果	-10747
世界上最大的	-10748
作为一个整体	-10749
货币基金组织	-10750
越来越多的人	-10751
国内生产总值的	-10752
西班牙和意大利	-10753
38	-10754
39	-10755
sk	-10756
▁%	-10757
▁西	-10758
三位	-10759
上下	-10760
上诉	-10761
不休	-10762
不入	-10763
不无	-10764
临界	-10765
也很	-10766
伊尔	-10767
侨民	-10768
便已	-10769
全胜	-10770
公立	-10771
减贫	-10772
利差	-10773
印刷	-10774
反击	-10775
受制	-10776
哈尔	-10777
坐在	-10778
塞族	-10779
多项	-10780
子里	-10781
带给	-10782
当成	-10783
得不	-10784
忠实	-10785
想让	-10786
拿破	-10787
是说	-10788
更小	-10789
朔伊	-10790
枪击	-10791
死灰	-10792
海域	-10793
激动	-10794
特使	-10795
维夫	-10796
美德	-10797
肿瘤	-10798
自称	-10799
营商	-10800
裂痕	-10801
要把	-10802
视作	-10803
视野	-10804
说的	-10805
赞赏	-10806
蹂躏	-10807
轮值	-10808
除外	-10809
随意	-10810
4%,	-10811
▁1%	-10812
▁也有	-10813
▁公共	-10814
▁到了	-10815
▁增加	-10816
▁它还	-10817
▁科学	-10818
▁这份	-10819
不亚于	-10820
与合作	-10821
两年前	-10822
中受益	-10823
也不太	-10824
也难以	-10825
交易的	-10826
人们在	-10827
先发制	-10828
关系到	-10829
军政府	-10830
南苏丹	-10831
可预测	-10832
和个人	-10833
和亚洲	-10834
和资源	-10835
国外的	-10836
地使用	-10837
基辛格	-10838
夜之间	-10839
天安门	-10840
孩子的	-10841
宗教和	-10842
年之后	-10843
开始的	-10844
强制性	-10845
心理学	-10846
才能够	-10847
扮演着	-10848
拿破仑	-10849
提供者	-10850
数据的	-10851
新常态	-10852
无助于	-10853
消失了	-10854
的商品	-10855
的破坏	-10856
的贡献	-10857
科威特	-10858
究竟是	-10859
维持了	-10860
而导致	-10861
而那些	-10862
讨论的	-10863
身上的	-10864
迈出了	-10865
通过的	-10866
钓鱼岛	-10867
非国家	-10868
50%,	-10869
▁克林顿	-10870
不难理解	-10871
亿万富翁	-10872
令人振奋	-10873
几个世纪	-10874
医疗体系	-10875
南中国海	-10876
国内消费	-10877
大幅提高	-10878
孤立主义	-10879
安全部队	-10880
就是为了	-10881
年轻人的	-10882
影子银行	-10883
报告显示	-10884
政治动荡	-10885
整个欧洲	-10886
最后一个	-10887
朔伊布勒	-10888
死灰复燃	-10889
注意的是	-10890
特拉维夫	-10891
现实主义	-10892
的支持下	-10893
美元升值	-10894
自由化的	-10895
财政联盟	-10896
这种观点	-10897
野生动物	-10898
David	-10899
▁总而言之	-10900
▁气候变化	-10901
大部分国家	-10902
欧洲理事会	-10903
民粹主义的	-10904
灾难性后果	-10905
的经济表现	-10906
私人投资者	-10907
还远远不够	-10908
这个国家的	-10909
预算办公室	-10910
ership	-10911
俄罗斯天然气	-10912
加利福尼亚州	-10913
原教旨主义者	-10914
量化宽松政策	-10915
第二次世界大战	-10916
北美自由贸易协定	-10917
基础设施投资银行	-10918
▁Institute	-10919
Af	-10920
CB	-10921
yn	-10922
▁十	-10923
万名	-10924
中全	-10925
乎其	-10926
也都	-10927
乱象	-10928
亚当	-10929
亲信	-10930
仇外	-10931
会比	-10932
俱增	-10933
借鉴	-10934
先是	-10935
克莱	-10936
免税	-10937
关乎	-10938
军费	-10939
勘探	-10940
发病	-10941
名誉	-10942
唯有	-10943
四分	-10944
回升	-10945
增大	-10946
复仇	-10947
失踪	-10948
她在	-10949
小泉	-10950
巨资	-10951
巴解	-10952
年份	-10953
广受	-10954
息息	-10955
手笔	-10956
托克	-10957
托尼	-10958
抑或	-10959
抗拒	-10960
数目	-10961
新政	-10962
族群	-10963
旷日	-10964
明的	-10965
昔日	-10966
更像	-10967
更难	-10968
最优	-10969
期货	-10970
杀虫	-10971
校园	-10972
法外	-10973
渔业	-10974
潜能	-10975
界的	-10976
登上	-10977
的后	-10978
监视	-10979
眼里	-10980
神社	-10981
税负	-10982
算盘	-10983
粒子	-10984
纺织	-10985
考量	-10986
耶夫	-10987
要走	-10988
财长	-10989
赞美	-10990
超额	-10991
都市	-10992
销毁	-10993
陆军	-10994
陌生	-10995
面孔	-10996
马利	-10997
验证	-10998
FDI	-10999
ear	-11000
▁总统	-11001
▁想想	-11002
▁改善	-11003
▁本月	-11004
▁沙特	-11005
▁能源	-11006
上升了	-11007
下降至	-11008
不可及	-11009
两年中	-11010
乌拉圭	-11011
了新的	-11012
事务的	-11013
产量的	-11014
从而在	-11015
以及与	-11016
价值链	-11017
但仍然	-11018
其政治	-11019
利库德	-11020
削减了	-11021
力更生	-11022
却无法	-11023
原子弹	-11024
反周期	-11025
变革的	-11026
和信用	-11027
寄希望	-11028
将因此	-11029
就不能	-11030
已经将	-11031
年来的	-11032
当今的	-11033
思想的	-11034
悬而未	-11035
想起了	-11036
我们都	-11037
手旁观	-11038
揭示了	-11039
支出和	-11040
新德里	-11041
无异于	-11042
无法再	-11043
普遍的	-11044
更快地	-11045
有三个	-11046
来帮助	-11047
来确保	-11048
牺牲品	-11049
的举动	-11050
的领土	-11051
眼中的	-11052
社会和	-11053
紧迫性	-11054
而且还	-11055
而无法	-11056
西方人	-11057
观点是	-11058
认为的	-11059
让所有	-11060
让经济	-11061
试图在	-11062
该如何	-11063
超国家	-11064
都非常	-11065
难民营	-11066
1985	-11067
▁2%,	-11068
▁Act	-11069
▁看起来	-11070
中国已经	-11071
之一就是	-11072
了自己的	-11073
二战结束	-11074
以及如何	-11075
侵犯人权	-11076
保护责任	-11077
关键问题	-11078
包括中国	-11079
印度政府	-11080
可以帮助	-11081
可能已经	-11082
在以色列	-11083
多元化的	-11084
实际上是	-11085
导弹防御	-11086
已经导致	-11087
怀疑态度	-11088
成为全球	-11089
数以百万	-11090
更加复杂	-11091
泡沫破裂	-11092
特别是对	-11093
现在正在	-11094
的结果是	-11095
的继任者	-11096
结合起来	-11097
继续保持	-11098
获得成功	-11099
蓬勃发展	-11100
贫困国家	-11101
这一现象	-11102
这些风险	-11103
重大挑战	-11104
重点放在	-11105
重要角色	-11106
▁全球经济	-11107
▁几十年来	-11108
债券持有人	-11109
劳动力成本	-11110
的巴勒斯坦	-11111
的政治制度	-11112
的生活水平	-11113
金融机构的	-11114
▁这并不是说	-11115
世界卫生组织	-11116
俄罗斯和中国	-11117
布雷顿森林体系	-11118
2°	-11119
BT	-11120
IF	-11121
za	-11122
▁拜	-11123
一心	-11124
不佳	-11125
东正	-11126
两场	-11127
为他	-11128
也使	-11129
二世	-11130
会为	-11131
佩斯	-11132
侨汇	-11133
关切	-11134
冒犯	-11135
出任	-11136
列入	-11137
加息	-11138
启蒙	-11139
坦桑	-11140
外币	-11141
多克	-11142
多达	-11143
好了	-11144
宏伟	-11145
实时	-11146
对准	-11147
年就	-11148
患有	-11149
推理	-11150
无常	-11151
昂山	-11152
显露	-11153
晓波	-11154
有损	-11155
权限	-11156
板球	-11157
极高	-11158
每周	-11159
海峡	-11160
灵魂	-11161
球迷	-11162
真心	-11163
祸首	-11164
离岸	-11165
端的	-11166
简化	-11167
细分	-11168
缩水	-11169
联酋	-11170
能从	-11171
能以	-11172
脱节	-11173
良多	-11174
被判	-11175
认清	-11176
许诺	-11177
说得	-11178
资深	-11179
赤裸	-11180
近邻	-11181
这会	-11182
那次	-11183
里达	-11184
重负	-11185
靠近	-11186
OMT	-11187
ain	-11188
▁2%	-11189
▁但其	-11190
▁国会	-11191
▁最新	-11192
东北亚	-11193
东道国	-11194
中国将	-11195
临时性	-11196
乎其微	-11197
事务上	-11198
仍处于	-11199
从美国	-11200
其中最	-11201
减少对	-11202
十年内	-11203
发言人	-11204
可支配	-11205
和工作	-11206
和腐败	-11207
在他的	-11208
在希腊	-11209
在政府	-11210
多大的	-11211
大衰退	-11212
并要求	-11213
应该由	-11214
廉价的	-11215
性力量	-11216
把它们	-11217
抗药性	-11218
指挥官	-11219
提供给	-11220
日俱增	-11221
是基于	-11222
权利和	-11223
查尔斯	-11224
正常的	-11225
正面临	-11226
注定要	-11227
由政府	-11228
的声明	-11229
的愤怒	-11230
的支出	-11231
的最初	-11232
的最好	-11233
的积极	-11234
的规定	-11235
目的地	-11236
硬实力	-11237
等领域	-11238
给予了	-11239
美好的	-11240
老布什	-11241
老年人	-11242
而感到	-11243
自由地	-11244
被推翻	-11245
规模和	-11246
进步的	-11247
面对的	-11248
风险和	-11249
饮用水	-11250
首先是	-11251
ency	-11252
ight	-11253
rans	-11254
▁For	-11255
一种新的	-11256
不仅包括	-11257
不必要的	-11258
与中国的	-11259
了他们的	-11260
令人鼓舞	-11261
克什米尔	-11262
全民公投	-11263
八国集团	-11264
刺激经济	-11265
发现自己	-11266
和其他人	-11267
国内需求	-11268
国家主权	-11269
坦桑尼亚	-11270
多样性的	-11271
大部分人	-11272
如果他们	-11273
容易受到	-11274
寄希望于	-11275
建设性的	-11276
微乎其微	-11277
悬而未决	-11278
所获得的	-11279
投资组合	-11280
排除在外	-11281
日本政府	-11282
是这样的	-11283
没完没了	-11284
物价指数	-11285
电动汽车	-11286
的环境下	-11287
科学研究	-11288
经济合作	-11289
自力更生	-11290
进行合作	-11291
进行谈判	-11292
远远超过	-11293
金融资产	-11294
,2012	-11295
James	-11296
artin	-11297
▁2016	-11298
▁Coun	-11299
▁Summ	-11300
▁讽刺的是	-11301
▁这一方针	-11302
中国共产党	-11303
以失败告终	-11304
企业家精神	-11305
加入欧盟的	-11306
的一小部分	-11307
社会民主党	-11308
许多人认为	-11309
在发展中国家	-11310
▁Health	-11311
,(	-11312
31	-11313
32	-11314
Ab	-11315
CT	-11316
EM	-11317
GO	-11318
MR	-11319
UN	-11320
au	-11321
三十	-11322
不合	-11323
不懈	-11324
两人	-11325
丧命	-11326
中去	-11327
主任	-11328
之多	-11329
之计	-11330
乌托	-11331
亿吨	-11332
仿佛	-11333
优点	-11334
伴侣	-11335
但又	-11336
你会	-11337
信条	-11338
其与	-11339
冰岛	-11340
午餐	-11341
受人	-11342
口头	-11343
可笑	-11344
同期	-11345
名词	-11346
向其	-11347
含糊	-11348
哈利	-11349
商店	-11350
四国	-11351
基辅	-11352
增量	-11353
壮大	-11354
天才	-11355
套利	-11356
女人	-11357
好比	-11358
孕育	-11359
宣战	-11360
对应	-11361
对该	-11362
已在	-11363
市值	-11364
强行	-11365
忠于	-11366
思议	-11367
悲哀	-11368
憎恨	-11369
托斯	-11370
抵挡	-11371
挖掘	-11372
挤出	-11373
提取	-11374
撒钱	-11375
新药	-11376
无休	-11377
无核	-11378
曙光	-11379
替罪	-11380
比索	-11381
法制	-11382
消亡	-11383
物品	-11384
环节	-11385
用作	-11386
申根	-11387
矛头	-11388
税制	-11389
税基	-11390
素质	-11391
级的	-11392
绕过	-11393
罢了	-11394
者在	-11395
自私	-11396
街道	-11397
课税	-11398
赔偿	-11399
赚钱	-11400
走势	-11401
起源	-11402
还未	-11403
这座	-11404
迷于	-11405
通向	-11406
邮报	-11407
重现	-11408
飞行	-11409
高位	-11410
NPT	-11411
cil	-11412
ith	-11413
▁个人	-11414
▁假设	-11415
▁有了	-11416
▁眼下	-11417
一国的	-11418
不关心	-11419
不对称	-11420
与政府	-11421
乌托邦	-11422
也成为	-11423
也有所	-11424
也随之	-11425
事件中	-11426
五年中	-11427
产出的	-11428
什么是	-11429
似乎都	-11430
低增长	-11431
低工资	-11432
作为其	-11433
促进了	-11434
保持了	-11435
像美国	-11436
先进的	-11437
刘晓波	-11438
利率和	-11439
取代了	-11440
各自的	-11441
同样也	-11442
听上去	-11443
告诉我	-11444
和行为	-11445
和行动	-11446
和非洲	-11447
国神社	-11448
在伊朗	-11449
在国会	-11450
地方的	-11451
埃及人	-11452
埃及和	-11453
它应该	-11454
家庭和	-11455
将它们	-11456
就不是	-11457
屈服于	-11458
平等的	-11459
并开始	-11460
开放的	-11461
很清楚	-11462
德意志	-11463
必要性	-11464
成员的	-11465
抑制了	-11466
持不同	-11467
效率的	-11468
数据库	-11469
昂山素	-11470
有更多	-11471
本身的	-11472
正在向	-11473
比里亚	-11474
没有被	-11475
牵涉到	-11476
的一面	-11477
的具体	-11478
的成就	-11479
的来说	-11480
的灾难	-11481
的精神	-11482
的高级	-11483
盎格鲁	-11484
管齐下	-11485
能实现	-11486
自上而	-11487
至今日	-11488
蔓延到	-11489
谈判桌	-11490
货币化	-11491
还远未	-11492
都存在	-11493
都是在	-11494
问题时	-11495
马杜罗	-11496
1962	-11497
▁尤其是	-11498
也意味着	-11499
传统智慧	-11500
但是他们	-11501
债务融资	-11502
债务问题	-11503
做出贡献	-11504
全球市场	-11505
创造就业	-11506
历史性的	-11507
只能通过	-11508
可以作为	-11509
可以实现	-11510
因为我们	-11511
如此多的	-11512
并不总是	-11513
必不可少	-11514
必要条件	-11515
更深层次	-11516
极权主义	-11517
欧洲安全	-11518
欧盟内部	-11519
科夫斯基	-11520
科学家们	-11521
西奈半岛	-11522
认识到了	-11523
议会选举	-11524
贸易协议	-11525
这样才能	-11526
预期寿命	-11527
齐心协力	-11528
▁发达国家	-11529
▁我们知道	-11530
伊斯兰教徒	-11531
充满活力的	-11532
几乎肯定会	-11533
劳动生产率	-11534
取得了成功	-11535
叙利亚难民	-11536
基地组织的	-11537
欧洲央行和	-11538
的民粹主义	-11539
相关利益方	-11540
臭名昭著的	-11541
规模最大的	-11542
议会选举中	-11543
麦肯锡全球	-11544
主权债务危机	-11545
国际刑事法庭	-11546
的经济和政治	-11547
nership	-11548
伊拉克和阿富汗	-11549
跨大西洋贸易和投资	-11550
”;	-11551
▁月	-11552
不被	-11553
不通	-11554
为负	-11555
之事	-11556
之又	-11557
也曾	-11558
五十	-11559
五裂	-11560
会见	-11561
信徒	-11562
停顿	-11563
党员	-11564
全职	-11565
写照	-11566
卖给	-11567
口气	-11568
后面	-11569
国度	-11570
图拉	-11571
土著	-11572
坏事	-11573
外人	-11574
大小	-11575
大谈	-11576
委会	-11577
它会	-11578
实例	-11579
就得	-11580
巴林	-11581
常识	-11582
年所	-11583
强度	-11584
怨恨	-11585
惨遭	-11586
愈加	-11587
打着	-11588
推荐	-11589
救世	-11590
时日	-11591
更别	-11592
期权	-11593
术语	-11594
枪支	-11595
欢呼	-11596
此人	-11597
沃伦	-11598
泄露	-11599
流传	-11600
测验	-11601
演习	-11602
激活	-11603
班农	-11604
的阿	-11605
符号	-11606
系数	-11607
累进	-11608
线的	-11609
自满	-11610
薄熙	-11611
补救	-11612
要将	-11613
设在	-11614
贩毒	-11615
越是	-11616
趋向	-11617
迅猛	-11618
迈出	-11619
这家	-11620
这段	-11621
钻石	-11622
集合	-11623
马士	-11624
180	-11625
ace	-11626
uel	-11627
▁一项	-11628
▁投资	-11629
▁财政	-11630
一个月	-11631
一代人	-11632
下降的	-11633
不一定	-11634
不仅要	-11635
不会再	-11636
不属于	-11637
之前就	-11638
他自己	-11639
作出的	-11640
佩雷斯	-11641
其国内	-11642
出口的	-11643
出现过	-11644
占世界	-11645
受制于	-11646
只能是	-11647
可以把	-11648
后不久	-11649
和东欧	-11650
和中东	-11651
在今天	-11652
地进行	-11653
大面积	-11654
失业和	-11655
失业者	-11656
威尔逊	-11657
对国际	-11658
对所有	-11659
寻常的	-11660
小企业	-11661
希望在	-11662
常常被	-11663
必须为	-11664
战略性	-11665
所取代	-11666
抛弃了	-11667
控制和	-11668
描述了	-11669
提到了	-11670
支持了	-11671
无限期	-11672
显示了	-11673
替罪羊	-11674
月中旬	-11675
有多大	-11676
有超过	-11677
杀虫剂	-11678
法院的	-11679
激起了	-11680
的一点	-11681
的不是	-11682
的命运	-11683
的大学	-11684
的平均	-11685
的根本	-11686
的框架	-11687
的正确	-11688
的民族	-11689
的诱惑	-11690
的逻辑	-11691
真实的	-11692
知识和	-11693
结论是	-11694
而且在	-11695
职人员	-11696
脱维亚	-11697
被人们	-11698
赤裸裸	-11699
较大的	-11700
道德的	-11701
锋相对	-11702
非洲人	-11703
预见到	-11704
魁祸首	-11705
100%	-11706
1987	-11707
ital	-11708
vers	-11709
▁他们还	-11710
▁所谓的	-11711
▁该地区	-11712
不断扩大	-11713
世界上的	-11714
他们就会	-11715
似乎并不	-11716
似乎正在	-11717
公共资金	-11718
关于如何	-11719
军备竞赛	-11720
几个国家	-11721
创造一个	-11722
利比里亚	-11723
发生改变	-11724
商业周期	-11725
四分五裂	-11726
塞拉利昂	-11727
外围国家	-11728
大不相同	-11729
大部分是	-11730
完全没有	-11731
官僚机构	-11732
富兰克林	-11733
尤其重要	-11734
已经有了	-11735
应该采取	-11736
形成一致	-11737
很多国家	-11738
恐怖活动	-11739
执政期间	-11740
收入差距	-11741
教育体系	-11742
数十年的	-11743
新成员国	-11744
无法通过	-11745
是全世界	-11746
晚些时候	-11747
欧盟机构	-11748
欧盟预算	-11749
流动资金	-11750
美国应该	-11751
自相矛盾	-11752
袖手旁观	-11753
这一政策	-11754
长期增长	-11755
imate	-11756
▁俄罗斯的	-11757
▁即便如此	-11758
▁而事实上	-11759
不确定性的	-11760
世界各地的	-11761
几乎不可能	-11762
发生的事件	-11763
国家的政府	-11764
带来的好处	-11765
建立了一个	-11766
极端主义的	-11767
某种意义上	-11768
生活在一个	-11769
的民主国家	-11770
经济和金融	-11771
注意力集中在	-11772
ability	-11773
Ph	-11774
ty	-11775
▁r	-11776
▁好	-11777
▁美	-11778
一句	-11779
不为	-11780
不让	-11781
不该	-11782
专属	-11783
中印	-11784
乌里	-11785
也好	-11786
书记	-11787
产油	-11788
代际	-11789
仿效	-11790
低位	-11791
侮辱	-11792
倾听	-11793
假装	-11794
元首	-11795
公信	-11796
减支	-11797
十足	-11798
半叶	-11799
卸任	-11800
压缩	-11801
原先	-11802
原有	-11803
吞噬	-11804
含有	-11805
因果	-11806
图书	-11807
天真	-11808
天赋	-11809
局的	-11810
帐户	-11811
平常	-11812
开辟	-11813
扶贫	-11814
拉姆	-11815
捕捉	-11816
推断	-11817
推销	-11818
提起	-11819
擅长	-11820
放射	-11821
教士	-11822
方位	-11823
既不	-11824
日期	-11825
旱灾	-11826
普斯	-11827
暗中	-11828
暗杀	-11829
毁掉	-11830
比克	-11831
永恒	-11832
火车	-11833
灵丹	-11834
爱因	-11835
用处	-11836
登记	-11837
的分	-11838
突发	-11839
简称	-11840
纾困	-11841
置信	-11842
耗资	-11843
草根	-11844
莱因	-11845
菲尔	-11846
营利	-11847
访者	-11848
诉诸	-11849
负有	-11850
赋权	-11851
辩解	-11852
这部	-11853
迷惑	-11854
避开	-11855
部件	-11856
里克	-11857
重商	-11858
重获	-11859
高尚	-11860
高点	-11861
190	-11862
35%	-11863
ail	-11864
amm	-11865
ild	-11866
ish	-11867
itz	-11868
omp	-11869
ste	-11870
▁但要	-11871
▁后来	-11872
▁她们	-11873
▁整个	-11874
▁智利	-11875
▁移民	-11876
▁而是	-11877
不承认	-11878
不相信	-11879
两年的	-11880
也能够	-11881
亿人口	-11882
伊朗人	-11883
会引发	-11884
但中国	-11885
作出了	-11886
做好了	-11887
制度性	-11888
区域内	-11889
十年期	-11890
原则上	-11891
发展出	-11892
发表的	-11893
向世界	-11894
和希腊	-11895
和繁荣	-11896
商品的	-11897
因素的	-11898
在长期	-11899
大体上	-11900
大范围	-11901
央行的	-11902
威胁着	-11903
将欧洲	-11904
就变得	-11905
工作和	-11906
巴西的	-11907
干细胞	-11908
当地的	-11909
感觉到	-11910
慢性病	-11911
所创造	-11912
把他们	-11913
持有者	-11914
控制在	-11915
摄氏度	-11916
改变其	-11917
方式来	-11918
暴露出	-11919
有多么	-11920
服务和	-11921
本可以	-11922
标志性	-11923
济于事	-11924
特征是	-11925
百万人	-11926
的人都	-11927
的定义	-11928
的潜力	-11929
的网络	-11930
相应的	-11931
管理和	-11932
统治下	-11933
而如今	-11934
落后的	-11935
要求在	-11936
观察员	-11937
贷款的	-11938
赶下台	-11939
问题和	-11940
食品和	-11941
马士革	-11942
鲍威尔	-11943
1914	-11944
ound	-11945
▁7%,	-11946
▁Cor	-11947
▁人民币	-11948
▁利比亚	-11949
▁即便是	-11950
▁在一些	-11951
▁在其他	-11952
▁换言之	-11953
▁欧洲人	-11954
不可思议	-11955
不大可能	-11956
佛罗里达	-11957
全球治理	-11958
其领导人	-11959
刚刚开始	-11960
可以利用	-11961
可能无法	-11962
在联合国	-11963
基础上的	-11964
并不足以	-11965
得出结论	-11966
我们希望	-11967
改革措施	-11968
数据表明	-11969
日常生活	-11970
是否愿意	-11971
是巨大的	-11972
更加严重	-11973
消极影响	-11974
爱因斯坦	-11975
物理学家	-11976
直到最近	-11977
社会契约	-11978
经济状况	-11979
货币操纵	-11980
这一概念	-11981
这是一种	-11982
金融中心	-11983
长期债券	-11984
长远来看	-11985
陷入困境	-11986
陷入衰退	-11987
随处可见	-11988
首脑会议	-11989
▁1989	-11990
▁中国政府	-11991
▁举例来讲	-11992
▁我们已经	-11993
一个国家的	-11994
中央情报局	-11995
之间的差距	-11996
二氧化碳的	-11997
他们的国家	-11998
劳动密集型	-11999
和其他地区	-12000
必须认识到	-12001
日益增长的	-12002
的政治意愿	-12003
远远超过了	-12004
高收入国家	-12005
Martin	-12006
基础设施建设	-12007
欧盟成员资格	-12008
金融危机爆发	-12009
Michael	-12010
叙利亚总统巴沙尔	-12011
International	-12012
,6	-12013
Ed	-12014
▁g	-12015
一去	-12016
一周	-12017
一手	-12018
一时	-12019
不胜	-12020
丝毫	-12021
个州	-12022
为一	-12023
争相	-12024
事的	-12025
亚的	-12026
免除	-12027
劫持	-12028
协同	-12029
博物	-12030
变量	-12031
同比	-12032
后期	-12033
在该	-12034
地与	-12035
头寸	-12036
女儿	-12037
女童	-12038
它能	-12039
局长	-12040
平方	-12041
年为	-12042
应急	-12043
弊端	-12044
弥漫	-12045
弹劾	-12046
很不	-12047
感和	-12048
我对	-12049
打消	-12050
拼命	-12051
排外	-12052
支箭	-12053
断言	-12054
斯诺	-12055
新近	-12056
是他	-12057
有何	-12058
极化	-12059
格莱	-12060
步履	-12061
比作	-12062
民事	-12063
水电	-12064
游客	-12065
特币	-12066
理工	-12067
直至	-12068
相形	-12069
矿产	-12070
突显	-12071
竟然	-12072
筹码	-12073
维利	-12074
网上	-12075
者是	-12076
航班	-12077
营销	-12078
虔诚	-12079
血管	-12080
警示	-12081
评判	-12082
诗人	-12083
这三	-12084
这套	-12085
追加	-12086
领取	-12087
驻军	-12088
And	-12089
Ste	-12090
ade	-12091
lic	-12092
oal	-12093
org	-12094
”)。	-12095
▁不出	-12096
▁人口	-12097
▁数字	-12098
▁此前	-12099
▁部分	-12100
一半的	-12101
不一样	-12102
不足的	-12103
个基点	-12104
之中的	-12105
也只是	-12106
代表团	-12107
以维持	-12108
以适应	-12109
会不会	-12110
低水平	-12111
使我们	-12112
例子是	-12113
供给侧	-12114
保守的	-12115
储蓄者	-12116
则认为	-12117
则需要	-12118
包括对	-12119
占多数	-12120
发布了	-12121
发电厂	-12122
另一方	-12123
在日本	-12124
埃克森	-12125
季度的	-12126
对人类	-12127
对这种	-12128
将受到	-12129
将最终	-12130
并不比	-12131
当我们	-12132
彻底的	-12133
很难说	-12134
怎么办	-12135
所在的	-12136
所采取	-12137
扮演了	-12138
改革派	-12139
斗争中	-12140
是这一	-12141
有用的	-12142
正逐渐	-12143
没有在	-12144
的一样	-12145
的上升	-12146
的人力	-12147
的前任	-12148
的复苏	-12149
的年轻	-12150
的情绪	-12151
的政权	-12152
的活动	-12153
的特殊	-12154
的许多	-12155
的高度	-12156
结果的	-12157
而欧洲	-12158
计划和	-12159
谢里夫	-12160
过多的	-12161
运行的	-12162
道德上	-12163
道路上	-12164
都拥有	-12165
非理性	-12166
驱动的	-12167
ecur	-12168
reat	-12169
▁凯恩斯	-12170
▁另一种	-12171
▁很显然	-12172
▁爱尔兰	-12173
▁而随着	-12174
不可逆转	-12175
不断增长	-12176
不满情绪	-12177
两国方案	-12178
主权国家	-12179
了这一点	-12180
低碳能源	-12181
保持沉默	-12182
偿还债务	-12183
其他任何	-12184
几乎完全	-12185
可能引发	-12186
和什叶派	-12187
四分之三	-12188
国家层面	-12189
居高不下	-12190
并不那么	-12191
并不需要	-12192
应该通过	-12193
必须接受	-12194
我们如何	-12195
拉脱维亚	-12196
提供支持	-12197
政府干预	-12198
政府机构	-12199
政治体制	-12200
政治意愿	-12201
未来十年	-12202
极端天气	-12203
构建一个	-12204
核反应堆	-12205
民主联盟	-12206
的什叶派	-12207
的纳维亚	-12208
相互依赖	-12209
相对较小	-12210
竞争优势	-12211
能够通过	-12212
能源安全	-12213
英国选民	-12214
裔美国人	-12215
货币刺激	-12216
购买计划	-12217
这一方案	-12218
这项任务	-12219
退出欧盟	-12220
重中之重	-12221
重新评估	-12222
靖国神社	-12223
领导地位	-12224
食品价格	-12225
▁也就是说	-12226
▁总体而言	-12227
▁这些措施	-12228
▁这种情况	-12229
不平等现象	-12230
半岛电视台	-12231
印度和中国	-12232
收入和财富	-12233
根本不可能	-12234
欧洲委员会	-12235
正义与发展	-12236
法西斯主义	-12237
穆斯林国家	-12238
▁欧洲领导人	-12239
巴勒斯坦人的	-12240
政策制定者们	-12241
联邦基金利率	-12242
随着时间的推移	-12243
inancial	-12244
,7	-12245
,9	-12246
CR	-12247
IR	-12248
Le	-12249
OP	-12250
gl	-12251
▁—	-12252
与他	-12253
主体	-12254
也最	-12255
乱局	-12256
互惠	-12257
他会	-12258
优化	-12259
优越	-12260
会员	-12261
保存	-12262
出乎	-12263
出访	-12264
别处	-12265
力图	-12266
助手	-12267
原来	-12268
又一	-12269
哈比	-12270
善于	-12271
善意	-12272
国和	-12273
在家	-12274
大错	-12275
天堂	-12276
威廉	-12277
子和	-12278
孱弱	-12279
对我	-12280
布斯	-12281
年对	-12282
归还	-12283
当其	-12284
忡忡	-12285
总能	-12286
悠久	-12287
悲伤	-12288
成人	-12289
战线	-12290
战败	-12291
手握	-12292
扶持	-12293
投向	-12294
捕获	-12295
是的	-12296
权宜	-12297
条路	-12298
松散	-12299
款项	-12300
法令	-12301
洛克	-12302
活着	-12303
灌输	-12304
现存	-12305
甚少	-12306
用词	-12307
的地	-12308
的钱	-12309
立足	-12310
端倪	-12311
算是	-12312
米洛	-12313
结算	-12314
维艰	-12315
能将	-12316
脱钩	-12317
自给	-12318
艾伦	-12319
蚊帐	-12320
裁量	-12321
裙带	-12322
讨厌	-12323
连通	-12324
逼近	-12325
遗余	-12326
那摩	-12327
酒店	-12328
阈值	-12329
阳光	-12330
限额	-12331
须知	-12332
频率	-12333
Con	-12334
arm	-12335
ial	-12336
ome	-12337
rom	-12338
▁en	-12339
▁债务	-12340
▁公众	-12341
▁利用	-12342
▁气候	-12343
不应当	-12344
不断的	-12345
与他们	-12346
与日本	-12347
两个月	-12348
严重性	-12349
为目的	-12350
也因为	-12351
也知道	-12352
争论的	-12353
亚历山	-12354
会因为	-12355
会认为	-12356
但是却	-12357
关系中	-12358
副主席	-12359
北部的	-12360
博物馆	-12361
占到了	-12362
原则的	-12363
原来的	-12364
号决议	-12365
各自为	-12366
和财政	-12367
国内部	-12368
国家庭	-12369
外交部	-12370
奥尔默	-12371
它需要	-12372
将获得	-12373
尽一切	-12374
届政府	-12375
已经让	-12376
年以前	-12377
年收入	-12378
年达到	-12379
或至少	-12380
技能和	-12381
持续到	-12382
措施来	-12383
提到的	-12384
政客和	-12385
斗争的	-12386
新西兰	-12387
方面也	-12388
是否有	-12389
有义务	-12390
每一次	-12391
比如说	-12392
比特币	-12393
沃尔夫	-12394
沃尔福	-12395
沉重的	-12396
浓缩铀	-12397
留下了	-12398
百分比	-12399
的全面	-12400
的内部	-12401
的则是	-12402
的多数	-12403
的意义	-12404
的文章	-12405
的真实	-12406
第三方	-12407
管理局	-12408
经验的	-12409
网络的	-12410
而德国	-12411
艺术家	-12412
计划中	-12413
认真的	-12414
财富和	-12415
转向了	-12416
这一幕	-12417
这笔钱	-12418
遗传学	-12419
遥远的	-12420
阿联酋	-12421
难以为	-12422
非如此	-12423
面对着	-12424
1929	-12425
▁3%。	-12426
▁Ass	-12427
▁GDP	-12428
▁Uni	-12429
▁但这个	-12430
▁当我们	-12431
▁慕尼黑	-12432
▁而中国	-12433
▁说到底	-12434
两极分化	-12435
住房价格	-12436
公开市场	-12437
关塔那摩	-12438
几个月中	-12439
只是为了	-12440
可以用来	-12441
可能不会	-12442
商业模式	-12443
团结一致	-12444
团结起来	-12445
外国投资	-12446
大获全胜	-12447
如果美国	-12448
存款保险	-12449
平均而言	-12450
并不存在	-12451
应该得到	-12452
息息相关	-12453
我们应当	-12454
无一例外	-12455
时至今日	-12456
更不要说	-12457
更加重要	-12458
正在日益	-12459
潜在增长	-12460
爱国主义	-12461
犹豫不决	-12462
的以色列	-12463
移动电话	-12464
观点认为	-12465
起的作用	-12466
这一决定	-12467
采取任何	-12468
重新考虑	-12469
重要问题	-12470
金融监管	-12471
银行贷款	-12472
中国经济的	-12473
充分的理由	-12474
已经取得了	-12475
并没有什么	-12476
形成了鲜明	-12477
政治和社会	-12478
机构投资者	-12479
的国家来说	-12480
的速度增长	-12481
结构性问题	-12482
购买力平价	-12483
▁中国领导人	-12484
所指出的那样	-12485
经合组织国家	-12486
经常账户盈余	-12487
解决这一问题	-12488
二十世纪九十年代	-12489
▁Partnership	-12490
DD	-12491
St	-12492
US	-12493
aj	-12494
上扬	-12495
中华	-12496
之初	-12497
假说	-12498
僵尸	-12499
内尔	-12500
初选	-12501
制订	-12502
加紧	-12503
助益	-12504
匹马	-12505
发酵	-12506
司令	-12507
和前	-12508
品种	-12509
四处	-12510
处罚	-12511
多了	-12512
大事	-12513
失效	-12514
季莫	-12515
宏大	-12516
寥寥	-12517
年会	-12518
庄稼	-12519
往常	-12520
恶意	-12521
患病	-12522
抵触	-12523
拖入	-12524
拖欠	-12525
拘留	-12526
拿到	-12527
据称	-12528
文盲	-12529
无遗	-12530
旧金	-12531
时就	-12532
暴政	-12533
李克	-12534
格雷	-12535
每月	-12536
每桶	-12537
油田	-12538
海滩	-12539
漂亮	-12540
爱沙	-12541
牢记	-12542
独自	-12543
猖獗	-12544
甚于	-12545
的同	-12546
监察	-12547
知情	-12548
离婚	-12549
红线	-12550
而来	-12551
腹泻	-12552
自问	-12553
致富	-12554
良性	-12555
节节	-12556
茨基	-12557
警报	-12558
调动	-12559
贵族	-12560
越过	-12561
较大	-12562
逃税	-12563
那就	-12564
陈述	-12565
顺从	-12566
顺序	-12567
首个	-12568
old	-12569
▁不难	-12570
▁其二	-12571
▁南非	-12572
▁反之	-12573
▁年的	-12574
▁超过	-12575
一年前	-12576
为中国	-12577
习惯于	-12578
了那些	-12579
以促进	-12580
以美国	-12581
伊朗在	-12582
体现出	-12583
作斗争	-12584
作用的	-12585
全方位	-12586
几年内	-12587
出一辙	-12588
出生的	-12589
制度和	-12590
动荡的	-12591
发生时	-12592
和国内	-12593
和外部	-12594
和平共	-12595
和疟疾	-12596
在当前	-12597
在纽约	-12598
地区内	-12599
大企业	-12600
实践中	-12601
对它们	-12602
就是要	-12603
常常是	-12604
年龄段	-12605
怀疑派	-12606
我们会	-12607
捷克斯	-12608
掌握了	-12609
提供商	-12610
援助的	-12611
政府与	-12612
政治中	-12613
敌人的	-12614
斯蒂格	-12615
新总统	-12616
旧金山	-12617
时期内	-12618
是确保	-12619
是这样	-12620
更紧密	-12621
有问题	-12622
来推动	-12623
来衡量	-12624
案例中	-12625
水平上	-12626
沃尔玛	-12627
波动性	-12628
理论的	-12629
甚至还	-12630
略高于	-12631
的一场	-12632
的举措	-12633
的义务	-12634
的人员	-12635
的名字	-12636
的服务	-12637
的警告	-12638
结构和	-12639
结构的	-12640
群体的	-12641
聚焦于	-12642
自主权	-12643
至少有	-12644
融资的	-12645
要么是	-12646
要实现	-12647
解释是	-12648
解释说	-12649
让自己	-12650
这两者	-12651
这部分	-12652
那么多	-12653
都同意	-12654
驱动力	-12655
,500	-12656
1971	-12657
1984	-12658
edic	-12659
uman	-12660
▁3%,	-12661
▁8%,	-12662
▁但正如	-12663
▁其结果	-12664
▁我们还	-12665
▁而现在	-12666
▁该计划	-12667
▁这表明	-12668
▁默克尔	-12669
一小部分	-12670
不是为了	-12671
两个国家	-12672
严重依赖	-12673
公私合作	-12674
决策者的	-12675
减少贫困	-12676
历史上看	-12677
反过来又	-12678
受害者的	-12679
商界领袖	-12680
多样化的	-12681
完全可以	-12682
对俄罗斯	-12683
已经不再	-12684
忧心忡忡	-12685
成百上千	-12686
拥有一个	-12687
改革方案	-12688
改革计划	-12689
政治学家	-12690
段时间内	-12691
爱沙尼亚	-12692
的世界里	-12693
短期利率	-12694
社会责任	-12695
移民问题	-12696
粮食安全	-12697
经济利益	-12698
结构调整	-12699
统计数字	-12700
美国已经	-12701
莫拉莱斯	-12702
财政悬崖	-12703
资本重组	-12704
资源配置	-12705
远远没有	-12706
造成严重	-12707
都面临着	-12708
骇人听闻	-12709
ocial	-12710
▁Bank	-12711
▁其中一个	-12712
▁在此期间	-12713
▁澳大利亚	-12714
在巴基斯坦	-12715
大部分地区	-12716
方面取得了	-12717
日本和韩国	-12718
深远的影响	-12719
的生活方式	-12720
美国和日本	-12721
自由贸易区	-12722
铺平了道路	-12723
▁越来越多的	-12724
全球经济危机	-12725
吞并克里米亚	-12726
捷克斯洛伐克	-12727
某种程度上说	-12728
正义与发展党	-12729
经常账户赤字	-12730
经通胀调整的	-12731
欧盟委员会主席	-12732
第一次世界大战	-12733
▁但这并不意味着	-12734
)”	-12735
BA	-12736
DA	-12737
JP	-12738
ef	-12739
▁Z	-12740
▁哈	-12741
不好	-12742
不移	-12743
专栏	-12744
之于	-12745
也无	-12746
也没	-12747
争辩	-12748
五月	-12749
人文	-12750
人身	-12751
什图	-12752
仅靠	-12753
但从	-12754
的	-12755
▁	-12756
,	-12757
。	-12758
国	-12759
在	-12760
是	-12761
一	-12762
和	-12763
不	-12764
这	-12765
有	-12766
人	-12767
了	-12768
—	-12769
为	-12770
中	-12771
政	-12772
大	-12773
以	-12774
0	-12775
们	-12776
会	-12777
能	-12778
经	-12779
对	-12780
年	-12781
个	-12782
可	-12783
要	-12784
来	-12785
而	-12786
美	-12787
他	-12788
家	-12789
其	-12790
但	-12791
、	-12792
行	-12793
上	-12794
于	-12795
成	-12796
到	-12797
也	-12798
地	-12799
欧	-12800
如	-12801
出	-12802
1	-12803
力	-12804
发	-12805
将	-12806
实	-12807
主	-12808
济	-12809
所	-12810
多	-12811
时	-12812
2	-12813
法	-12814
利	-12815
民	-12816
现	-12817
方	-12818
(	-12819
全	-12820
)	-12821
生	-12822
斯	-12823
些	-12824
资	-12825
自	-12826
我	-12827
就	-12828
因	-12829
最	-12830
更	-12831
过	-12832
性	-12833
动	-12834
者	-12835
此	-12836
之	-12837
本	-12838
得	-12839
并	-12840
重	-12841
长	-12842
洲	-12843
“	-12844
”	-12845
定	-12846
制	-12847
化	-12848
机	-12849
新	-12850
加	-12851
用	-12852
同	-12853
与	-12854
前	-12855
度	-12856
a	-12857
业	-12858
世	-12859
作	-12860
e	-12861
分	-12862
当	-12863
进	-12864
事	-12865
持	-12866
增	-12867
后	-12868
公	-12869
都	-12870
下	-12871
产	-12872
果	-12873
正	-12874
然	-12875
理	-12876
金	-12877
应	-12878
治	-12879
它	-12880
问	-12881
体	-12882
样	-12883
及	-12884
府	-12885
关	-12886
面	-12887
无	-12888
部	-12889
外	-12890
比	-12891
高	-12892
意	-12893
相	-12894
从	-12895
题	-12896
策	-12897
界	-12898
入	-12899
合	-12900
基	-12901
提	-12902
场	-12903
种	-12904
平	-12905
已	-12906
导	-12907
还	-12908
战	-12909
n	-12910
期	-12911
权	-12912
义	-12913
特	-12914
决	-12915
需	-12916
亚	-12917
那	-12918
由	-12919
i	-12920
变	-12921
目	-12922
管	-12923
开	-12924
统	-12925
通	-12926
该	-12927
9	-12928
着	-12929
区	-12930
保	-12931
被	-12932
球	-12933
o	-12934
没	-12935
拉	-12936
反	-12937
选	-12938
说	-12939
数	-12940
学	-12941
尔	-12942
巴	-12943
联	-12944
市	-12945
r	-12946
任	-12947
受	-12948
盟	-12949
德	-12950
支	-12951
克	-12952
内	-12953
领	-12954
明	-12955
总	-12956
间	-12957
工	-12958
非	-12959
代	-12960
率	-12961
或	-12962
使	-12963
务	-12964
日	-12965
元	-12966
解	-12967
投	-12968
系	-12969
结	-12970
议	-12971
量	-12972
必	-12973
认	-12974
5	-12975
t	-12976
际	-12977
立	-12978
员	-12979
西	-12980
改	-12981
许	-12982
让	-12983
%	-12984
伊	-12985
共	-12986
信	-12987
融	-12988
价	-12989
起	-12990
展	-12991
只	-12992
收	-12993
去	-12994
么	-12995
计	-12996
s	-12997
表	-12998
很	-12999
心	-13000
强	-13001
情	-13002
取	-13003
·	-13004
争	-13005
危	-13006
论	-13007
求	-13008
确	-13009
常	-13010
:	-13011
向	-13012
低	-13013
社	-13014
债	-13015
失	-13016
达	-13017
好	-13018
点	-13019
易	-13020
里	-13021
何	-13022
少	-13023
今	-13024
;	-13025
约	-13026
安	-13027
l	-13028
3	-13029
施	-13030
程	-13031
难	-13032
未	-13033
教	-13034
造	-13035
建	-13036
组	-13037
至	-13038
道	-13039
兰	-13040
致	-13041
银	-13042
次	-13043
两	-13044
构	-13045
位	-13046
近	-13047
格	-13048
标	-13049
罗	-13050
须	-13051
预	-13052
等	-13053
益	-13054
式	-13055
十	-13056
则	-13057
助	-13058
马	-13059
续	-13060
口	-13061
影	-13062
源	-13063
规	-13064
且	-13065
革	-13066
币	-13067
接	-13068
想	-13069
党	-13070
英	-13071
险	-13072
货	-13073
阿	-13074
朗	-13075
供	-13076
响	-13077
8	-13078
效	-13079
各	-13080
月	-13081
4	-13082
做	-13083
几	-13084
子	-13085
军	-13086
看	-13087
尽	-13088
放	-13089
极	-13090
普	-13091
包	-13092
况	-13093
仅	-13094
消	-13095
希	-13096
活	-13097
7	-13098
布	-13099
观	-13100
P	-13101
什	-13102
够	-13103
6	-13104
候	-13105
天	-13106
减	-13107
越	-13108
?	-13109
给	-13110
即	-13111
直	-13112
东	-13113
d	-13114
财	-13115
带	-13116
俄	-13117
划	-13118
身	-13119
协	-13120
据	-13121
交	-13122
设	-13123
模	-13124
步	-13125
色	-13126
值	-13127
气	-13128
尼	-13129
存	-13130
类	-13131
势	-13132
第	-13133
降	-13134
转	-13135
m	-13136
根	-13137
再	-13138
别	-13139
显	-13140
h	-13141
获	-13142
物	-13143
承	-13144
风	-13145
条	-13146
似	-13147
核	-13148
真	-13149
原	-13150
引	-13151
始	-13152
税	-13153
.	-13154
司	-13155
流	-13156
列	-13157
指	-13158
乎	-13159
处	-13160
织	-13161
小	-13162
水	-13163
项	-13164
品	-13165
望	-13166
印	-13167
仍	-13168
众	-13169
创	-13170
担	-13171
举	-13172
复	-13173
派	-13174
推	-13175
调	-13176
手	-13177
三	-13178
科	-13179
括	-13180
维	-13181
案	-13182
c	-13183
证	-13184
己	-13185
D	-13186
技	-13187
识	-13188
u	-13189
却	-13190
贸	-13191
名	-13192
运	-13193
远	-13194
止	-13195
二	-13196
境	-13197
知	-13198
富	-13199
具	-13200
命	-13201
严	-13202
G	-13203
威	-13204
回	-13205
首	-13206
足	-13207
费	-13208
企	-13209
令	-13210
商	-13211
件	-13212
报	-13213
言	-13214
形	-13215
随	-13216
击	-13217
采	-13218
亿	-13219
否	-13220
速	-13221
纪	-13222
略	-13223
升	-13224
术	-13225
林	-13226
历	-13227
万	-13228
例	-13229
整	-13230
激	-13231
视	-13232
储	-13233
准	-13234
护	-13235
限	-13236
局	-13237
土	-13238
服	-13239
坦	-13240
注	-13241
责	-13242
把	-13243
门	-13244
奥	-13245
传	-13246
完	-13247
C	-13248
病	-13249
先	-13250
依	-13251
研	-13252
困	-13253
终	-13254
每	-13255
话	-13256
文	-13257
集	-13258
断	-13259
稳	-13260
央	-13261
究	-13262
除	-13263
I	-13264
功	-13265
负	-13266
感	-13267
才	-13268
官	-13269
巨	-13270
冲	-13271
款	-13272
绝	-13273
突	-13274
退	-13275
-	-13276
太	-13277
算	-13278
甚	-13279
某	-13280
临	-13281
破	-13282
海	-13283
控	-13284
M	-13285
边	-13286
像	-13287
A	-13288
移	-13289
判	-13290
态	-13291
S	-13292
字	-13293
紧	-13294
谈	-13295
超	-13296
缺	-13297
继	-13298
史	-13299
竞	-13300
环	-13301
监	-13302
免	-13303
备	-13304
型	-13305
育	-13306
础	-13307
族	-13308
容	-13309
路	-13310
往	-13311
深	-13312
愿	-13313
示	-13314
见	-13315
压	-13316
独	-13317
电	-13318
单	-13319
息	-13320
象	-13321
油	-13322
诺	-13323
质	-13324
告	-13325
女	-13326
南	-13327
参	-13328
快	-13329
挑	-13330
切	-13331
纳	-13332
恐	-13333
考	-13334
又	-13335
措	-13336
级	-13337
素	-13338
称	-13339
F	-13340
贷	-13341
排	-13342
扩	-13343
兴	-13344
打	-13345
试	-13346
败	-13347
武	-13348
团	-13349
害	-13350
哈	-13351
图	-13352
伯	-13353
占	-13354
状	-13355
另	-13356
苏	-13357
委	-13358
择	-13359
味	-13360
北	-13361
离	-13362
弱	-13363
勒	-13364
头	-13365
私	-13366
石	-13367
暴	-13368
疑	-13369
域	-13370
劳	-13371
医	-13372
拥	-13373
衡	-13374
份	-13375
评	-13376
胁	-13377
思	-13378
沙	-13379
充	-13380
p	-13381
迫	-13382
宣	-13383
波	-13384
防	-13385
g	-13386
器	-13387
避	-13388
清	-13389
专	-13390
干	-13391
善	-13392
虑	-13393
卡	-13394
缩	-13395
段	-13396
疗	-13397
埃	-13398
满	-13399
腊	-13400
贫	-13401
额	-13402
队	-13403
网	-13404
便	-13405
票	-13406
付	-13407
坏	-13408
胀	-13409
测	-13410
广	-13411
律	-13412
死	-13413
张	-13414
y	-13415
较	-13416
T	-13417
精	-13418
束	-13419
b	-13420
你	-13421
农	-13422
验	-13423
错	-13424
庭	-13425
穆	-13426
&	-13427
短	-13428
估	-13429
》	-13430
述	-13431
陷	-13432
《	-13433
执	-13434
台	-13435
空	-13436
伦	-13437
层	-13438
键	-13439
走	-13440
互	-13441
曾	-13442
裁	-13443
端	-13444
叙	-13445
卫	-13446
援	-13447
轻	-13448
周	-13449
萨	-13450
福	-13451
抗	-13452
查	-13453
股	-13454
耳	-13455
景	-13456
阻	-13457
她	-13458
均	-13459
误	-13460
营	-13461
百	-13462
城	-13463
哥	-13464
差	-13465
夫	-13466
朝	-13467
角	-13468
遭	-13469
E	-13470
刺	-13471
料	-13472
帮	-13473
削	-13474
早	-13475
顿	-13476
围	-13477
士	-13478
批	-13479
虽	-13480
优	-13481
损	-13482
儿	-13483
补	-13484
院	-13485
四	-13486
久	-13487
积	-13488
促	-13489
汇	-13490
群	-13491
京	-13492
R	-13493
范	-13494
药	-13495
剧	-13496
密	-13497
杀	-13498
针	-13499
缓	-13500
职	-13501
演	-13502
念	-13503
停	-13504
胜	-13505
靠	-13506
记	-13507
鲜	-13508
老	-13509
f	-13510
声	-13511
乌	-13512
恶	-13513
半	-13514
适	-13515
努	-13516
住	-13517
神	-13518
健	-13519
线	-13520
底	-13521
赤	-13522
B	-13523
落	-13524
坚	-13525
席	-13526
鲁	-13527
券	-13528
房	-13529
买	-13530
借	-13531
待	-13532
五	-13533
班	-13534
脱	-13535
怖	-13536
双	-13537
繁	-13538
抵	-13539
释	-13540
找	-13541
配	-13542
吸	-13543
办	-13544
倍	-13545
尤	-13546
塞	-13547
寻	-13548
序	-13549
初	-13550
奇	-13551
康	-13552
简	-13553
宗	-13554
塔	-13555
食	-13556
牙	-13557
衰	-13558
励	-13559
幅	-13560
荣	-13561
讨	-13562
钱	-13563
v	-13564
毫	-13565
k	-13566
急	-13567
救	-13568
谓	-13569
潜	-13570
爆	-13571
阶	-13572
著	-13573
智	-13574
伴	-13575
白	-13576
客	-13577
黎	-13578
购	-13579
幸	-13580
追	-13581
换	-13582
N	-13583
灾	-13584
警	-13585
留	-13586
犯	-13587
罪	-13588
连	-13589
肯	-13590
居	-13591
车	-13592
疾	-13593
刻	-13594
姆	-13595
华	-13596
温	-13597
置	-13598
州	-13599
乱	-13600
固	-13601
光	-13602
讲	-13603
趋	-13604
松	-13605
赖	-13606
鼓	-13607
左	-13608
乏	-13609
归	-13610
守	-13611
察	-13612
热	-13613
泛	-13614
碳	-13615
背	-13616
烈	-13617
穷	-13618
逐	-13619
唯	-13620
米	-13621
碍	-13622
渐	-13623
右	-13624
良	-13625
童	-13626
拒	-13627
竟	-13628
习	-13629
修	-13630
亡	-13631
异	-13632
眼	-13633
袭	-13634
邦	-13635
乐	-13636
杂	-13637
装	-13638
训	-13639
倒	-13640
户	-13641
索	-13642
千	-13643
友	-13644
伤	-13645
禁	-13646
斗	-13647
纽	-13648
游	-13649
征	-13650
弹	-13651
假	-13652
赢	-13653
书	-13654
哪	-13655
染	-13656
宪	-13657
节	-13658
弃	-13659
余	-13660
恰	-13661
洋	-13662
粹	-13663
架	-13664
崩	-13665
爱	-13666
障	-13667
忧	-13668
韩	-13669
默	-13670
腐	-13671
裂	-13672
袖	-13673
养	-13674
闻	-13675
伙	-13676
花	-13677
延	-13678
觉	-13679
燃	-13680
号	-13681
媒	-13682
欢	-13683
予	-13684
既	-13685
跨	-13686
照	-13687
永	-13688
翼	-13689
亲	-13690
怀	-13691
瓦	-13692
微	-13693
诉	-13694
火	-13695
蓄	-13696
苦	-13697
侵	-13698
软	-13699
审	-13700
瑞	-13701
汗	-13702
遇	-13703
络	-13704
莫	-13705
跌	-13706
吗	-13707
恩	-13708
毒	-13709
语	-13710
曼	-13711
散	-13712
毕	-13713
允	-13714
属	-13715
细	-13716
库	-13717
宽	-13718
听	-13719
古	-13720
墨	-13721
H	-13722
O	-13723
吉	-13724
岛	-13725
敦	-13726
犹	-13727
迪	-13728
迅	-13729
签	-13730
灭	-13731
森	-13732
w	-13733
惊	-13734
冷	-13735
偿	-13736
盛	-13737
映	-13738
旦	-13739
站	-13740
顾	-13741
刚	-13742
振	-13743
贝	-13744
呢	-13745
违	-13746
享	-13747
拿	-13748
脑	-13749
恢	-13750
托	-13751
妇	-13752
黑	-13753
典	-13754
峰	-13755
署	-13756
慢	-13757
替	-13758
含	-13759
呼	-13760
邻	-13761
忽	-13762
掌	-13763
毁	-13764
溃	-13765
售	-13766
露	-13767
启	-13768
析	-13769
梅	-13770
挥	-13771
故	-13772
雷	-13773
迎	-13774
缘	-13775
按	-13776
概	-13777
零	-13778
陆	-13779
J	-13780
怕	-13781
痛	-13782
怎	-13783
孩	-13784
L	-13785
偏	-13786
室	-13787
诚	-13788
菲	-13789
盖	-13790
休	-13791
录	-13792
荡	-13793
涨	-13794
志	-13795
遍	-13796
博	-13797
糟	-13798
贴	-13799
症	-13800
莱	-13801
"	-13802
旧	-13803
诸	-13804
遏	-13805
灵	-13806
艾	-13807
贬	-13808
师	-13809
销	-13810
摆	-13811
答	-13812
透	-13813
歧	-13814
督	-13815
圣	-13816
宏	-13817
涉	-13818
遗	-13819
混	-13820
累	-13821
夺	-13822
框	-13823
校	-13824
攻	-13825
辩	-13826
距	-13827
逊	-13828
赫	-13829
洛	-13830
访	-13831
敌	-13832
沃	-13833
输	-13834
绪	-13835
符	-13836
崛	-13837
翻	-13838
操	-13839
献	-13840
齐	-13841
/	-13842
写	-13843
六	-13844
W	-13845
K	-13846
盈	-13847
悲	-13848
硬	-13849
雇	-13850
帝	-13851
丹	-13852
纷	-13853
秩	-13854
片	-13855
旨	-13856
疫	-13857
膨	-13858
轮	-13859
彻	-13860
尚	-13861
润	-13862
谁	-13863
叶	-13864
授	-13865
尊	-13866
港	-13867
星	-13868
患	-13869
糕	-13870
蒂	-13871
凯	-13872
秘	-13873
赛	-13874
楚	-13875
滞	-13876
#	-13877
喜	-13878
佳	-13879
弗	-13880
卢	-13881
赞	-13882
倾	-13883
培	-13884
岁	-13885
扎	-13886
怪	-13887
麦	-13888
血	-13889
驱	-13890
泡	-13891
汽	-13892
母	-13893
湾	-13894
跟	-13895
丧	-13896
词	-13897
村	-13898
迈	-13899
抑	-13900
途	-13901
般	-13902
山	-13903
迟	-13904
笔	-13905
径	-13906
八	-13907
逃	-13908
播	-13909
艰	-13910
奖	-13911
撒	-13912
套	-13913
登	-13914
男	-13915
怒	-13916
泰	-13917
沫	-13918
聚	-13919
岗	-13920
阵	-13921
昂	-13922
残	-13923
王	-13924
贡	-13925
胡	-13926
折	-13927
握	-13928
潮	-13929
末	-13930
版	-13931
脆	-13932
若	-13933
撤	-13934
迹	-13935
麻	-13936
触	-13937
刑	-13938
氧	-13939
覆	-13940
勃	-13941
迷	-13942
隐	-13943
震	-13944
摩	-13945
沉	-13946
账	-13947
徒	-13948
章	-13949
暗	-13950
浪	-13951
暖	-13952
闭	-13953
请	-13954
z	-13955
季	-13956
誉	-13957
宫	-13958
岸	-13959
熟	-13960
吁	-13961
野	-13962
嫩	-13963
描	-13964
龄	-13965
铁	-13966
兵	-13967
句	-13968
掉	-13969
污	-13970
鉴	-13971
裕	-13972
慎	-13973
草	-13974
谋	-13975
U	-13976
飞	-13977
蒙	-13978
拖	-13979
贵	-13980
丁	-13981
扰	-13982
九	-13983
廷	-13984
剩	-13985
召	-13986
检	-13987
滋	-13988
僚	-13989
庞	-13990
炸	-13991
萧	-13992
音	-13993
顶	-13994
孤	-13995
纵	-13996
塑	-13997
循	-13998
趣	-13999
暂	-14000
街	-14001
申	-14002
捕	-14003
青	-14004
惧	-14005
遵	-14006
罚	-14007
妥	-14008
订	-14009
逆	-14010
愤	-14011
副	-14012
纠	-14013
雄	-14014
拜	-14015
韦	-14016
扭	-14017
矛	-14018
兑	-14019
省	-14020
粮	-14021
薪	-14022
雅	-14023
盾	-14024
押	-14025
读	-14026
镇	-14027
叛	-14028
揭	-14029
绿	-14030
V	-14031
冒	-14032
荷	-14033
杆	-14034
扮	-14035
探	-14036
渡	-14037
父	-14038
虚	-14039
净	-14040
舞	-14041
耗	-14042
射	-14043
香	-14044
焦	-14045
河	-14046
耶	-14047
摇	-14048
植	-14049
堪	-14050
伟	-14051
曲	-14052
废	-14053
颇	-14054
卖	-14055
座	-14056
佛	-14057
苗	-14058
坛	-14059
梦	-14060
疲	-14061
忍	-14062
烟	-14063
宾	-14064
戏	-14065
抱	-14066
七	-14067
皮	-14068
霍	-14069
兄	-14070
煤	-14071
俗	-14072
厂	-14073
杠	-14074
滑	-14075
杰	-14076
牲	-14077
弟	-14078
红	-14079
频	-14080
届	-14081
屠	-14082
阳	-14083
狂	-14084
黄	-14085
旅	-14086
捍	-14087
幕	-14088
醒	-14089
藏	-14090
顺	-14091
乔	-14092
仿	-14093
送	-14094
僵	-14095
廉	-14096
癌	-14097
辞	-14098
扬	-14099
附	-14100
牌	-14101
缅	-14102
惠	-14103
谷	-14104
辑	-14105
拯	-14106
诱	-14107
盘	-14108
仰	-14109
殖	-14110
抛	-14111
沿	-14112
课	-14113
介	-14114
尝	-14115
桑	-14116
牺	-14117
茨	-14118
丰	-14119
御	-14120
胞	-14121
龙	-14122
桥	-14123
甸	-14124
航	-14125
脚	-14126
诊	-14127
隔	-14128
彼	-14129
筑	-14130
殊	-14131
劣	-14132
兹	-14133
坐	-14134
巩	-14135
劲	-14136
渴	-14137
惩	-14138
澳	-14139
纸	-14140
摧	-14141
牛	-14142
竭	-14143
伐	-14144
愈	-14145
赋	-14146
截	-14147
材	-14148
戈	-14149
卷	-14150
杜	-14151
幻	-14152
鱼	-14153
练	-14154
忘	-14155
惯	-14156
戴	-14157
纯	-14158
仇	-14159
惑	-14160
斥	-14161
宝	-14162
筹	-14163
剂	-14164
捐	-14165
夏	-14166
佩	-14167
兼	-14168
抓	-14169
板	-14170
烦	-14171
春	-14172
狱	-14173
逻	-14174
慌	-14175
滥	-14176
谨	-14177
皇	-14178
契	-14179
赶	-14180
驻	-14181
园	-14182
谢	-14183
静	-14184
奋	-14185
恨	-14186
耐	-14187
萎	-14188
豪	-14189
迁	-14190
孟	-14191
泽	-14192
翰	-14193
贾	-14194
惨	-14195
链	-14196
封	-14197
洞	-14198
丝	-14199
枪	-14200
柏	-14201
毛	-14202
帕	-14203
招	-14204
漏	-14205
漫	-14206
践	-14207
辛	-14208
宜	-14209
撑	-14210
酬	-14211
欲	-14212
酷	-14213
篇	-14214
树	-14215
饥	-14216
剥	-14217
歌	-14218
敢	-14219
巧	-14220
洁	-14221
遥	-14222
朋	-14223
晚	-14224
祖	-14225
涌	-14226
肆	-14227
荒	-14228
堡	-14229
玛	-14230
吃	-14231
壁	-14232
疟	-14233
垒	-14234
忆	-14235
罕	-14236
冰	-14237
叫	-14238
坡	-14239
沦	-14240
胆	-14241
厉	-14242
弥	-14243
忠	-14244
饱	-14245
敏	-14246
谴	-14247
霸	-14248
x	-14249
渠	-14250
驾	-14251
催	-14252
倡	-14253
婚	-14254
阴	-14255
怨	-14256
煽	-14257
跃	-14258
垄	-14259
衷	-14260
贯	-14261
奉	-14262
’	-14263
履	-14264
勇	-14265
陈	-14266
掩	-14267
吹	-14268
唐	-14269
尖	-14270
榜	-14271
淡	-14272
•	-14273
宰	-14274
挤	-14275
肥	-14276
讽	-14277
亦	-14278
妙	-14279
晰	-14280
裔	-14281
剑	-14282
骤	-14283
综	-14284
欺	-14285
矿	-14286
糊	-14287
⁄	-14288
厌	-14289
旗	-14290
绕	-14291
艺	-14292
诞	-14293
返	-14294
猛	-14295
番	-14296
骗	-14297
匈	-14298
轨	-14299
踪	-14300
辱	-14301
萄	-14302
葡	-14303
递	-14304
呈	-14305
董	-14306
穿	-14307
欠	-14308
炭	-14309
墙	-14310
礼	-14311
捷	-14312
蔓	-14313
船	-14314
披	-14315
津	-14316
乃	-14317
隆	-14318
厚	-14319
赌	-14320
丑	-14321
峻	-14322
浮	-14323
饿	-14324
屈	-14325
潘	-14326
夸	-14327
床	-14328
搜	-14329
菌	-14330
俱	-14331
块	-14332
笑	-14333
牢	-14334
堂	-14335
浓	-14336
牵	-14337
讯	-14338
馆	-14339
敬	-14340
沟	-14341
洗	-14342
绩	-14343
编	-14344
j	-14345
填	-14346
氏	-14347
凭	-14348
虐	-14349
雨	-14350
狭	-14351
砖	-14352
肉	-14353
肃	-14354
稀	-14355
酒	-14356
慨	-14357
挽	-14358
洪	-14359
玩	-14360
靡	-14361
页	-14362
q	-14363
匹	-14364
屋	-14365
~	-14366
烧	-14367
阁	-14368
!	-14369
庇	-14370
颠	-14371
脏	-14372
哲	-14373
寿	-14374
浦	-14375
店	-14376
饮	-14377
丽	-14378
木	-14379
é	-14380
夜	-14381
餐	-14382
扣	-14383
详	-14384
堆	-14385
奈	-14386
镑	-14387
伪	-14388
慈	-14389
胎	-14390
宁	-14391
画	-14392
籍	-14393
庆	-14394
锁	-14395
挪	-14396
芬	-14397
婴	-14398
恋	-14399
漠	-14400
赚	-14401
Y	-14402
坎	-14403
汉	-14404
田	-14405
卿	-14406
愚	-14407
拟	-14408
迄	-14409
李	-14410
凸	-14411
割	-14412
弊	-14413
悬	-14414
租	-14415
孕	-14416
慧	-14417
魔	-14418
卜	-14419
旱	-14420
横	-14421
偶	-14422
溢	-14423
糖	-14424
妨	-14425
娜	-14426
挠	-14427
旁	-14428
欣	-14429
慷	-14430
赐	-14431
圈	-14432
薄	-14433
钦	-14434
忙	-14435
臣	-14436
顽	-14437
Q	-14438
羞	-14439
彩	-14440
载	-14441
姿	-14442
崇	-14443
秀	-14444
蛋	-14445
询	-14446
弄	-14447
晋	-14448
辅	-14449
壮	-14450
寨	-14451
庄	-14452
歇	-14453
缔	-14454
惜	-14455
杯	-14456
碎	-14457
虫	-14458
衍	-14459
钟	-14460
擎	-14461
旺	-14462
灰	-14463
聪	-14464
携	-14465
甘	-14466
阱	-14467
厄	-14468
岩	-14469
吨	-14470
绑	-14471
蠢	-14472
谎	-14473
谬	-14474
旋	-14475
码	-14476
锡	-14477
凡	-14478
奏	-14479
炎	-14480
箭	-14481
蚀	-14482
骚	-14483
磨	-14484
傲	-14485
拨	-14486
孙	-14487
轰	-14488
册	-14489
吧	-14490
囚	-14491
寄	-14492
挫	-14493
搞	-14494
蓝	-14495
沮	-14496
玻	-14497
钩	-14498
隘	-14499
吞	-14500
挺	-14501
泄	-14502
遣	-14503
悉	-14504
锐	-14505
壤	-14506
绘	-14507
邀	-14508
邪	-14509
卓	-14510
挡	-14511
挣	-14512
咎	-14513
庸	-14514
扫	-14515
刊	-14516
吓	-14517
摄	-14518
氛	-14519
耻	-14520
逼	-14521
伸	-14522
缴	-14523
讼	-14524
君	-14525
渔	-14526
猜	-14527
衣	-14528
飙	-14529
侧	-14530
忌	-14531
瓜	-14532
舍	-14533
驳	-14534
冻	-14535
凝	-14536
慑	-14537
仔	-14538
碰	-14539
云	-14540
尾	-14541
辙	-14542
辜	-14543
挂	-14544
晓	-14545
瞩	-14546
誓	-14547
贪	-14548
乘	-14549
泉	-14550
钢	-14551
铺	-14552
亮	-14553
抨	-14554
楼	-14555
佐	-14556
寡	-14557
涵	-14558
乡	-14559
炮	-14560
瘫	-14561
豫	-14562
痪	-14563
罢	-14564
肺	-14565
涅	-14566
逮	-14567
啸	-14568
姓	-14569
扶	-14570
疯	-14571
辈	-14572
睹	-14573
跳	-14574
邮	-14575
郁	-14576
扼	-14577
柬	-14578
液	-14579
讶	-14580
乳	-14581
抽	-14582
攀	-14583
柱	-14584
粗	-14585
铀	-14586
雪	-14587
魅	-14588
抬	-14589
棘	-14590
伍	-14591
埔	-14592
尘	-14593
拔	-14594
桶	-14595
歉	-14596
涯	-14597
盲	-14598
钞	-14599
亏	-14600
奴	-14601
帐	-14602
拍	-14603
疏	-14604
臭	-14605
赏	-14606
邓	-14607
井	-14608
昭	-14609
舒	-14610
葛	-14611
颁	-14612
佣	-14613
役	-14614
慕	-14615
抚	-14616
泥	-14617
贩	-14618
踏	-14619
嫌	-14620
溯	-14621
耀	-14622
芝	-14623
蚊	-14624
饰	-14625
粉	-14626
赠	-14627
镜	-14628
悖	-14629
慰	-14630
江	-14631
貌	-14632
辖	-14633
牧	-14634
珍	-14635
瑟	-14636
祝	-14637
凶	-14638
孔	-14639
炼	-14640
飓	-14641
募	-14642
宅	-14643
戮	-14644
胖	-14645
虎	-14646
劫	-14647
棋	-14648
舆	-14649
+	-14650
仁	-14651
抢	-14652
拙	-14653
浅	-14654
灌	-14655
蛮	-14656
锋	-14657
弈	-14658
稍	-14659
亨	-14660
冠	-14661
宇	-14662
撞	-14663
鲍	-14664
丘	-14665
箱	-14666
伏	-14667
喻	-14668
妻	-14669
刀	-14670
拢	-14671
祸	-14672
莎	-14673
勾	-14674
垮	-14675
诈	-14676
阐	-14677
饭	-14678
坝	-14679
灯	-14680
秋	-14681
粒	-14682
丢	-14683
仪	-14684
疆	-14685
纲	-14686
熊	-14687
诗	-14688
辆	-14689
钻	-14690
堕	-14691
揽	-14692
羊	-14693
拓	-14694
捉	-14695
泊	-14696
祉	-14697
憾	-14698
悄	-14699
昔	-14700
骨	-14701
魁	-14702
塌	-14703
晤	-14704
桌	-14705
闲	-14706
奠	-14707
窃	-14708
阅	-14709
碑	-14710
衅	-14711
裸	-14712
锦	-14713
咨	-14714
曝	-14715
侯	-14716
川	-14717
兆	-14718
坠	-14719
奢	-14720
岌	-14721
詹	-14722
埋	-14723
惕	-14724
拼	-14725
郎	-14726
添	-14727
皆	-14728
脸	-14729
舰	-14730
苹	-14731
闹	-14732
偷	-14733
夕	-14734
池	-14735
畴	-14736
豁	-14737
蹈	-14738
°	-14739
崖	-14740
撰	-14741
棒	-14742
渗	-14743
缚	-14744
谐	-14745
侨	-14746
姻	-14747
峙	-14748
盗	-14749
蓬	-14750
擦	-14751
枯	-14752
柯	-14753
腾	-14754
茶	-14755
贿	-14756
琳	-14757
奸	-14758
戒	-14759
硅	-14760
赔	-14761
驶	-14762
儒	-14763
尿	-14764
拘	-14765
枚	-14766
瞻	-14767
串	-14768
哀	-14769
喀	-14770
拆	-14771
掠	-14772
谱	-14773
跑	-14774
挖	-14775
烂	-14776
痕	-14777
腹	-14778
蔽	-14779
阔	-14780
唤	-14781
捞	-14782
腥	-14783
腰	-14784
梁	-14785
汲	-14786
涛	-14787
逢	-14788
鬼	-14789
鸡	-14790
婪	-14791
尸	-14792
幼	-14793
悔	-14794
敲	-14795
械	-14796
馈	-14797
凌	-14798
卸	-14799
寸	-14800
畏	-14801
绳	-14802
绸	-14803
赎	-14804
呆	-14805
嘲	-14806
宙	-14807
懈	-14808
拾	-14809
朴	-14810
聘	-14811
Z	-14812
勤	-14813
娱	-14814
肩	-14815
驰	-14816
午	-14817
抹	-14818
掘	-14819
腺	-14820
宿	-14821
砍	-14822
肤	-14823
辉	-14824
骄	-14825
丈	-14826
乍	-14827
囊	-14828
妄	-14829
钉	-14830
圆	-14831
徙	-14832
搁	-14833
朱	-14834
濒	-14835
缠	-14836
颗	-14837
‘	-14838
嘴	-14839
忡	-14840
狗	-14841
赴	-14842
寥	-14843
淘	-14844
翁	-14845
茫	-14846
逝	-14847
隶	-14848
圭	-14849
奔	-14850
奶	-14851
摊	-14852
摸	-14853
旬	-14854
眉	-14855
肘	-14856
肿	-14857
脂	-14858
莽	-14859
酿	-14860
仓	-14861
仗	-14862
掀	-14863
辟	-14864
叹	-14865
垂	-14866
寺	-14867
恒	-14868
猪	-14869
盯	-14870
窗	-14871
苛	-14872
闪	-14873
颜	-14874
鸣	-14875
鼠	-14876
厘	-14877
堵	-14878
徊	-14879
徘	-14880
懂	-14881
瓶	-14882
窄	-14883
笼	-14884
篮	-14885
葬	-14886
谅	-14887
酸	-14888
黯	-14889
侈	-14890
俘	-14891
档	-14892
饲	-14893
X	-14894
劝	-14895
插	-14896
棉	-14897
漂	-14898
蔑	-14899
裨	-14900
赦	-14901
厅	-14902
屏	-14903
幽	-14904
恼	-14905
憎	-14906
搭	-14907
撮	-14908
昆	-14909
氢	-14910
汰	-14911
酋	-14912
鼎	-14913
咒	-14914
峡	-14915
甲	-14916
畅	-14917
菜	-14918
轴	-14919
遮	-14920
钓	-14921
刷	-14922
匿	-14923
喊	-14924
噩	-14925
圾	-14926
垃	-14927
扑	-14928
筛	-14929
耕	-14930
肪	-14931
脊	-14932
辨	-14933
迭	-14934
鹰	-14935
俩	-14936
冬	-14937
咄	-14938
尬	-14939
尴	-14940
屿	-14941
辐	-14942
阀	-14943
靖	-14944
仲	-14945
匮	-14946
卵	-14947
喘	-14948
怜	-14949
柔	-14950
槛	-14951
铭	-14952
刘	-14953
勉	-14954
愉	-14955
梯	-14956
瘤	-14957
谍	-14958
赂	-14959
尺	-14960
巡	-14961
撕	-14962
枢	-14963
渺	-14964
玉	-14965
谜	-14966
髓	-14967
唱	-14968
珠	-14969
诽	-14970
谤	-14971
豆	-14972
仑	-14973
侣	-14974
啡	-14975
寒	-14976
彰	-14977
悦	-14978
痹	-14979
蒸	-14980
魂	-14981
冈	-14982
咖	-14983
嚣	-14984
坞	-14985
惮	-14986
滩	-14987
畜	-14988
睫	-14989
稻	-14990
袋	-14991
躲	-14992
攫	-14993
朔	-14994
熙	-14995
脉	-14996
颈	-14997
喷	-14998
妹	-14999
搬	-15000
睡	-15001
韧	-15002
囤	-15003
斜	-15004
溉	-15005
狼	-15006
盎	-15007
螺	-15008
览	-15009
酝	-15010
颂	-15011
鸟	-15012
鸦	-15013
屡	-15014
澄	-15015
甩	-15016
舌	-15017
酵	-15018
齿	-15019
ó	-15020
伎	-15021
卑	-15022
淆	-15023
澜	-15024
猎	-15025
痴	-15026
缪	-15027
艇	-15028
衔	-15029
鸿	-15030
鼻	-15031
叠	-15032
滚	-15033
瞒	-15034
艘	-15035
霜	-15036
剔	-15037
淹	-15038
渊	-15039
窥	-15040
臂	-15041
掣	-15042
槿	-15043
殆	-15044
纾	-15045
跻	-15046
铜	-15047
鲸	-15048
[	-15049
]	-15050
擅	-15051
旷	-15052
礁	-15053
缝	-15054
罹	-15055
陶	-15056
啻	-15057
墟	-15058
妈	-15059
撼	-15060
栏	-15061
磋	-15062
窘	-15063
耸	-15064
腕	-15065
芽	-15066
俑	-15067
喝	-15068
址	-15069
巾	-15070
扯	-15071
敞	-15072
瘾	-15073
聊	-15074
骇	-15075
吵	-15076
姗	-15077
媲	-15078
您	-15079
抉	-15080
纺	-15081
诡	-15082
雾	-15083
倘	-15084
勘	-15085
夷	-15086
斤	-15087
罩	-15088
胚	-15089
醉	-15090
陌	-15091
兜	-15092
匆	-15093
泻	-15094
湖	-15095
珊	-15096
逍	-15097
逾	-15098
飘	-15099
乙	-15100
妮	-15101
姐	-15102
岭	-15103
崭	-15104
悠	-15105
氦	-15106
沾	-15107
煌	-15108
笨	-15109
裙	-15110
斩	-15111
滴	-15112
琐	-15113
蛇	-15114
译	-15115
蹂	-15116
躏	-15117
柴	-15118
浩	-15119
涂	-15120
肝	-15121
侮	-15122
夭	-15123
姬	-15124
掏	-15125
炫	-15126
稽	-15127
诀	-15128
躁	-15129
雀	-15130
颖	-15131
驯	-15132
鲨	-15133
倦	-15134
斑	-15135
曙	-15136
汤	-15137
荐	-15138
厦	-15139
喂	-15140
噬	-15141
恭	-15142
犬	-15143
猩	-15144
磁	-15145
笃	-15146
蕴	-15147
谦	-15148
陋	-15149
雕	-15150
í	-15151
刃	-15152
嘉	-15153
斐	-15154
橙	-15155
毋	-15156
琴	-15157
疼	-15158
眠	-15159
睁	-15160
虔	-15161
裹	-15162
诫	-15163
贺	-15164
郊	-15165
锚	-15166
―	-15167
亟	-15168
删	-15169
劾	-15170
宛	-15171
帜	-15172
腿	-15173
芒	-15174
藉	-15175
鞋	-15176
倪	-15177
兽	-15178
垫	-15179
娅	-15180
孱	-15181
寓	-15182
捏	-15183
汹	-15184
湿	-15185
焚	-15186
犀	-15187
盐	-15188
睛	-15189
鄙	-15190
醇	-15191
阈	-15192
{	-15193
嘘	-15194
壳	-15195
巫	-15196
悟	-15197
愧	-15198
暇	-15199
栋	-15200
炉	-15201
猖	-15202
獗	-15203
盼	-15204
稼	-15205
肾	-15206
胃	-15207
讳	-15208
谣	-15209
鹅	-15210
佬	-15211
厢	-15212
墓	-15213
宠	-15214
拱	-15215
栖	-15216
殴	-15217
疹	-15218
睐	-15219
瞬	-15220
萌	-15221
饶	-15222
僧	-15223
县	-15224
夹	-15225
嫁	-15226
棱	-15227
歪	-15228
绵	-15229
肮	-15230
莉	-15231
诅	-15232
赵	-15233
跚	-15234
蹒	-15235
铸	-15236
骑	-15237
ä	-15238
冗	-15239
喇	-15240
孚	-15241
懒	-15242
扁	-15243
梵	-15244
渎	-15245
窟	-15246
筋	-15247
纱	-15248
绍	-15249
胸	-15250
茂	-15251
蜂	-15252
逸	-15253
饼	-15254
–	-15255
仙	-15256
凑	-15257
勿	-15258
嫉	-15259
屑	-15260
惟	-15261
敛	-15262
杉	-15263
浸	-15264
猫	-15265
盒	-15266
祈	-15267
稚	-15268
踢	-15269
陪	-15270
陵	-15271
顷	-15272
颓	-15273
噪	-15274
帅	-15275
捆	-15276
掷	-15277
昧	-15278
爵	-15279
狐	-15280
甜	-15281
盆	-15282
矶	-15283
砸	-15284
秉	-15285
羡	-15286
聆	-15287
谊	-15288
匪	-15289
姑	-15290
娩	-15291
帽	-15292
枝	-15293
氓	-15294
硫	-15295
秒	-15296
窒	-15297
紫	-15298
绊	-15299
羽	-15300
肇	-15301
骂	-15302
á	-15303
嗤	-15304
嘛	-15305
弦	-15306
挟	-15307
摒	-15308
氮	-15309
涡	-15310
淋	-15311
碗	-15312
肌	-15313
肚	-15314
蛊	-15315
蜜	-15316
迥	-15317
}	-15318
凿	-15319
哺	-15320
壑	-15321
帖	-15322
惹	-15323
戚	-15324
扔	-15325
拦	-15326
摘	-15327
昏	-15328
浇	-15329
滤	-15330
虏	-15331
踵	-15332
è	-15333
勋	-15334
哮	-15335
唾	-15336
晨	-15337
晶	-15338
桩	-15339
榨	-15340
浑	-15341
狡	-15342
绌	-15343
绥	-15344
驭	-15345
丛	-15346
吐	-15347
妖	-15348
宴	-15349
嵌	-15350
攸	-15351
斡	-15352
泪	-15353
禽	-15354
羁	-15355
茅	-15356
菅	-15357
袒	-15358
袤	-15359
裤	-15360
铲	-15361
锻	-15362
_	-15363
ç	-15364
兀	-15365
咬	-15366
彭	-15367
忏	-15368
挨	-15369
榄	-15370
橄	-15371
浴	-15372
淫	-15373
焕	-15374
珀	-15375
瑚	-15376
畸	-15377
纤	-15378
膜	-15379
ü	-15380
咋	-15381
堤	-15382
妓	-15383
娘	-15384
婉	-15385
崎	-15386
弯	-15387
惰	-15388
朽	-15389
棍	-15390
殿	-15391
潭	-15392
爪	-15393
狄	-15394
琼	-15395
痒	-15396
祭	-15397
祷	-15398
禧	-15399
窝	-15400
胶	-15401
臃	-15402
踩	-15403
遴	-15404
霉	-15405
魏	-15406
鹫	-15407
伞	-15408
侦	-15409
吻	-15410
恕	-15411
捧	-15412
搅	-15413
柳	-15414
沼	-15415
泳	-15416
溪	-15417
爬	-15418
玷	-15419
矫	-15420
硕	-15421
磅	-15422
稿	-15423
竿	-15424
芯	-15425
蔡	-15426
袱	-15427
à	-15428
冤	-15429
吴	-15430
啊	-15431
啦	-15432
奎	-15433
彦	-15434
憧	-15435
憬	-15436
扪	-15437
拳	-15438
挝	-15439
晦	-15440
株	-15441
瘟	-15442
禀	-15443
绰	-15444
缉	-15445
肢	-15446
蔬	-15447
蚕	-15448
辍	-15449
辕	-15450
å	-15451
乞	-15452
亩	-15453
侪	-15454
喋	-15455
妒	-15456
姊	-15457
巢	-15458
廊	-15459
拷	-15460
汀	-15461
焰	-15462
熔	-15463
睦	-15464
磷	-15465
芭	-15466
贱	-15467
鸽	-15468
俯	-15469
剪	-15470
叉	-15471
奄	-15472
娃	-15473
椅	-15474
浆	-15475
溺	-15476
灸	-15477
炒	-15478
烷	-15479
瘦	-15480
瞄	-15481
祥	-15482
罔	-15483
苟	-15484
茵	-15485
觅	-15486
诋	-15487
躇	-15488
驼	-15489
俭	-15490
倚	-15491
冕	-15492
刹	-15493
哗	-15494
哦	-15495
喉	-15496
恣	-15497
戛	-15498
氟	-15499
涩	-15500
烙	-15501
焉	-15502
竖	-15503
紊	-15504
纹	-15505
缄	-15506
肠	-15507
荼	-15508
藐	-15509
踌	-15510
轩	-15511
郭	-15512
隙	-15513
傀	-15514
儡	-15515
寂	-15516
怯	-15517
悼	-15518
昨	-15519
晴	-15520
洒	-15521
熬	-15522
狠	-15523
矩	-15524
窍	-15525
竹	-15526
篱	-15527
苍	-15528
衫	-15529
诘	-15530
诠	-15531
铝	-15532
锤	-15533
æ	-15534
俾	-15535
冯	-15536
剖	-15537
厨	-15538
吊	-15539
吝	-15540
帷	-15541
庙	-15542
懦	-15543
撬	-15544
昌	-15545
毙	-15546
沈	-15547
煎	-15548
熄	-15549
穴	-15550
粘	-15551
艳	-15552
虾	-15553
谕	-15554
趁	-15555
蹴	-15556
鞭	-15557
哨	-15558
屁	-15559
幌	-15560
悍	-15561
撇	-15562
棕	-15563
榷	-15564
汶	-15565
淖	-15566
滨	-15567
烹	-15568
痢	-15569
矢	-15570
蒋	-15571
蒿	-15572
蹶	-15573
躯	-15574
遑	-15575
铅	-15576
陀	-15577
鸠	-15578
'	-15579
亥	-15580
伽	-15581
刮	-15582
吕	-15583
寝	-15584
拐	-15585
掺	-15586
杭	-15587
栗	-15588
梗	-15589
梳	-15590
棚	-15591
毅	-15592
渥	-15593
爽	-15594
璃	-15595
疚	-15596
疮	-15597
稠	-15598
舟	-15599
蕾	-15600
衬	-15601
襟	-15602
赁	-15603
逞	-15604
邸	-15605
钚	-15606
仆	-15607
侍	-15608
傻	-15609
匀	-15610
哭	-15611
巅	-15612
帆	-15613
枭	-15614
毗	-15615
氯	-15616
沁	-15617
湄	-15618
灶	-15619
燥	-15620
癖	-15621
瞎	-15622
萝	-15623
袍	-15624
觑	-15625
趸	-15626
蹊	-15627
镕	-15628
镳	-15629
闯	-15630
陡	-15631
饪	-15632
凉	-15633
叔	-15634
喧	-15635
噶	-15636
圳	-15637
宋	-15638
弭	-15639
惫	-15640
扳	-15641
揣	-15642
搏	-15643
敷	-15644
杨	-15645
毯	-15646
沥	-15647
沸	-15648
淀	-15649
漩	-15650
爷	-15651
猴	-15652
猾	-15653
睿	-15654
矮	-15655
砂	-15656
稣	-15657
粪	-15658
缕	-15659
腔	-15660
诛	-15661
诧	-15662
谙	-15663
躬	-15664
躺	-15665
迦	-15666
钵	-15667
锅	-15668
锈	-15669
骆	-15670
鹿	-15671
黜	-15672
剃	-15673
剿	-15674
卧	-15675
吾	-15676
哄	-15677
坪	-15678
墅	-15679
拧	-15680
暧	-15681
朊	-15682
枷	-15683
柄	-15684
楷	-15685
橡	-15686
渲	-15687
溶	-15688
爸	-15689
牟	-15690
皂	-15691
眈	-15692
篡	-15693
篷	-15694
粟	-15695
肖	-15696
臆	-15697
萦	-15698
薯	-15699
觊	-15700
诩	-15701
轿	-15702
辄	-15703
酶	-15704
钥	-15705
隧	-15706
丸	-15707
咸	-15708
坑	-15709
坟	-15710
夥	-15711
弘	-15712
弛	-15713
悯	-15714
惶	-15715
枕	-15716
桎	-15717
梏	-15718
沛	-15719
浏	-15720
涸	-15721
溜	-15722
皈	-15723
绒	-15724
绞	-15725
羹	-15726
耿	-15727
膳	-15728
舵	-15729
藩	-15730
觎	-15731
诟	-15732
谚	-15733
铎	-15734
雏	-15735
鸭	-15736
龟	-15737
ö	-15738
亵	-15739
侥	-15740
冉	-15741
凄	-15742
匙	-15743
呕	-15744
唆	-15745
唉	-15746
啬	-15747
嚷	-15748
囹	-15749
囿	-15750
圄	-15751
坍	-15752
媚	-15753
孜	-15754
巷	-15755
廓	-15756
恳	-15757
戳	-15758
捣	-15759
晒	-15760
朵	-15761
柜	-15762
梭	-15763
槽	-15764
洽	-15765
烁	-15766
牒	-15767
睬	-15768
碌	-15769
碾	-15770
禅	-15771
耍	-15772
脾	-15773
膀	-15774
膏	-15775
藤	-15776
藻	-15777
跛	-15778
蹩	-15779
辽	-15780
酗	-15781
钝	-15782
钳	-15783
阪	-15784
雌	-15785
髦	-15786
鹤	-15787
▪	-15788
亘	-15789
冥	-15790
匠	-15791
吟	-15792
啮	-15793
嘱	-15794
壕	-15795
妆	-15796
孵	-15797
恪	-15798
暑	-15799
杞	-15800
棵	-15801
棺	-15802
殃	-15803
狸	-15804
猿	-15805
纭	-15806
绎	-15807
翅	-15808
膝	-15809
芜	-15810
贤	-15811
贼	-15812
锢	-15813
闷	-15814
魄	-15815
兔	-15816
啤	-15817
嗜	-15818
嘎	-15819
坷	-15820
娼	-15821
婿	-15822
峭	-15823
恫	-15824
愁	-15825
扇	-15826
晃	-15827
榈	-15828
氨	-15829
泣	-15830
泵	-15831
泼	-15832
漆	-15833
漓	-15834
烛	-15835
煞	-15836
狮	-15837
痼	-15838
眩	-15839
瞪	-15840
矣	-15841
磕	-15842
秽	-15843
糙	-15844
缆	-15845
罂	-15846
罐	-15847
翘	-15848
聋	-15849
胺	-15850
芸	-15851
蝇	-15852
蟒	-15853
褪	-15854
讦	-15855
镀	-15856
霾	-15857
靶	-15858
馅	-15859
黛	-15860
ñ	-15861
丙	-15862
傅	-15863
呐	-15864
咆	-15865
奧	-15866
孽	-15867
弩	-15868
徐	-15869
悚	-15870
抄	-15871
捡	-15872
摔	-15873
昙	-15874
栽	-15875
桀	-15876
椭	-15877
汪	-15878
泾	-15879
涓	-15880
涝	-15881
渭	-15882
滔	-15883
炙	-15884
烩	-15885
燎	-15886
狩	-15887
瑰	-15888
硝	-15889
秃	-15890
缛	-15891
缭	-15892
苷	-15893
茁	-15894
萃	-15895
蛛	-15896
讥	-15897
跋	-15898
遂	-15899
邃	-15900
阂	-15901
驴	-15902
骜	-15903
鳌	-15904
¿	-15905
š	-15906
乖	-15907
佼	-15908
凤	-15909
函	-15910
卒	-15911
厕	-15912
厥	-15913
叮	-15914
咫	-15915
咽	-15916
嗅	-15917
坊	-15918
婆	-15919
媾	-15920
嫖	-15921
徕	-15922
桃	-15923
汁	-15924
泌	-15925
炬	-15926
煮	-15927
燕	-15928
甄	-15929
疤	-15930
疵	-15931
眷	-15932
睢	-15933
睽	-15934
碱	-15935
祟	-15936
笋	-15937
绷	-15938
缸	-15939
脖	-15940
舱	-15941
舶	-15942
荫	-15943
蜕	-15944
蜗	-15945
蜡	-15946
讧	-15947
诲	-15948
诵	-15949
贞	-15950
赅	-15951
赈	-15952
趟	-15953
辰	-15954
郑	-15955
铃	-15956
锯	-15957
镖	-15958
鳄	-15959
鳕	-15960
伺	-15961
唇	-15962
妃	-15963
寇	-15964
岔	-15965
庶	-15966
弧	-15967
忱	-15968
恙	-15969
拣	-15970
拭	-15971
掂	-15972
掮	-15973
摈	-15974
斧	-15975
槃	-15976
殉	-15977
殷	-15978
氰	-15979
淌	-15980
渣	-15981
潦	-15982
灿	-15983
烤	-15984
牍	-15985
玫	-15986
瑕	-15987
瞧	-15988
禹	-15989
穹	-15990
窜	-15991
簿	-15992
绅	-15993
肓	-15994
胰	-15995
